#version: 0.2
t h
o s
a p
ap os
& apos
&apos ;
i n
y o
yo u</w>
a n
r e</w>
th e</w>
a t</w>
in g</w>
o u
t o</w>
e r</w>
e a
l l</w>
i t</w>
o n
i s</w>
o n</w>
&apos; s</w>
e d</w>
m e</w>
w h
n o
e r
v e</w>
an d</w>
e n
s t
th e
h a
l i
i n</w>
c a
th at</w>
o r
w a
&apos; t</w>
r e
o f</w>
h e</w>
r i
s t</w>
o r</w>
e s</w>
m a
i t
e n</w>
w e</w>
t i
e t</w>
o o
g h
. .</w>
. ..</w>
a r
k e</w>
no w</w>
a c
r o
l y</w>
e re</w>
b e
th is</w>
s e</w>
l d</w>
d i
ou t</w>
l e</w>
yo u
gh t</w>
wh at</w>
c o
h o
m y</w>
b u
s e
f or</w>
b e</w>
a y</w>
a l
you r</w>
g o
e v
ha ve</w>
&apos; re</w>
h i
&apos; m</w>
u st</w>
a b
no t</w>
d o</w>
wa s</w>
q u
t t
s o
s i
m e
l a
on e</w>
d on</w>
k now</w>
ca n</w>
d o
w it
e ll</w>
a re</w>
wit h</w>
n e
a ll</w>
r ea
l o
th ing</w>
c e</w>
o t
j ust</w>
e l
u n
r a
n o</w>
ou ld</w>
bu t</w>
h ere</w>
g et</w>
s u
s o</w>
s a
t o
the re</w>
t a
the y</w>
c h</w>
a n</w>
w i
l e
m o
f i
w an
li ke</w>
qu ot
s h
quot ;</w>
& quot;</w>
&apos; ll</w>
k ing</w>
g o</w>
u p</w>
th er</w>
th in
m i
c h
i f</w>
ri ght</w>
ab out</w>
hi m</w>
s s</w>
s he</w>
en t</w>
f u
l ea
a t
w or
go t</w>
g u
d e
t s</w>
r y</w>
c k</w>
g i
ho w</w>
l oo
b o
n a</w>
d y</w>
ac k</w>
s p
h er</w>
d s</w>
e y</w>
&apos; ve</w>
ou n
so me
w n</w>
co me</w>
ma n</w>
u r
l l
wan t</w>
e e
oo d</w>
a s</w>
u s</w>
thin k</w>
ev er</w>
d e</w>
ea h</w>
w ell</w>
y s</w>
k i
wa y</w>
c on
f a
m p
a g
h is</w>
d n</w>
o p
ea r
ou r</w>
ti on</w>
t r
wi ll</w>
on na</w>
t er</w>
a l</w>
in d</w>
g onna</w>
f ro
p ro
e x
O h</w>
fro m</w>
se e</w>
e c
er s</w>
di d</w>
Y eah</w>
n i
i d</w>
u se</w>
b ack</w>
l et</w>
v er
a s
ap p
ti me</w>
g ood</w>
wh o</w>
c k
wh en</w>
o f
the m</w>
t ed</w>
ev er
l ly</w>
v i
go ing</w>
k ay</w>
st i
d a
t e</w>
w ould</w>
in e</w>
be en</w>
wh ere</w>
so me</w>
t h</w>
f or
g h</w>
w ere</w>
wh y</w>
ta ke</w>
c i
g e
ne ed</w>
p l
s n</w>
p u
g e</w>
v er</w>
os e</w>
loo k</w>
o kay</w>
an y</w>
ha d</w>
d ay</w>
k s</w>
&apos ;</w>
&apos; d</w>
t ell</w>
an y
c ould</w>
mo re</w>
on g</w>
oun d</w>
h ea
r u
y ing</w>
the n</w>
t y</w>
p o
W h
t al
o u</w>
m b
b y</w>
do wn</w>
s on</w>
s ay</w>
ca use</w>
Y ou</w>
p e
g s</w>
p re
en d</w>
c u
some thing</w>
f e</w>
ou gh</w>
di dn</w>
tt le</w>
t e
m u
b a
p er
co m
t ing</w>
i r</w>
f e
t er
p ar
b i
ma ke</w>
d ea
s s
d ing</w>
t w
rea lly</w>
n a
l f</w>
a in</w>
f o
h app
t u
p i
ac e</w>
d er
s h</w>
a m</w>
ha s</w>
d er</w>
n ever</w>
H ey</w>
o ther</w>
m on
li ttle</w>
ea n</w>
to o</w>
ou r
h el
a f
op le</w>
of f</w>
o ver</w>
ha r
pe ople</w>
T h
r an
s or
tt er</w>
bo dy</w>
ou ght</w>
Y es</w>
sh ould</w>
m ent</w>
gi ve</w>
be cause</w>
sa id</w>
on s</w>
on ly</w>
m ean</w>
ver y</w>
f ri
l u
v ing</w>
h u
p lea
su re</w>
k ed</w>
st o
i l
at e</w>
os t</w>
se lf</w>
al ly</w>
m in
i r
fi r
tw o</w>
c e
g a
Wh at</w>
p p
ever y
an t</w>
g re
d u
ou l
ev en</w>
n e</w>
wh i
ne w</w>
M r
ou s</w>
plea se</w>
f ind</w>
sor ry</w>
p a
m or
the se</w>
j o
c king</w>
s ho
mu ch</w>
s ed</w>
do ing</w>
in to</w>
n ing</w>
wor k</w>
re e</w>
hel p</w>
G o
el l
s c
th an
st ar
ll ed</w>
s in
k ee
a d
A n
y be</w>
any thing</w>
oul dn</w>
ea r</w>
lo ve</w>
w e
fo re</w>
th an</w>
h an
sti ll</w>
ca ll</w>
mb er</w>
b le</w>
be fore</w>
tal k</w>
N o</w>
t ur
fir st</w>
m en</w>
ma ybe</w>
pu t</w>
e ss</w>
li fe</w>
v es</w>
t ra
th ought</w>
b r
the ir</w>
gi r
ab le</w>
m s</w>
fu l</w>
s er
f t</w>
ni ght</w>
ma r
oo k</w>
ch an
en ce</w>
ear s</w>
p ri
c hi
ag ain</w>
co mp
la st</w>
b ab
st u
st a
fu cking</w>
h ear
I t</w>
th ose</w>
p la
no thing</w>
i ght</w>
f in
w s</w>
ho me</w>
kee p</w>
si de</w>
to ld</w>
Go d</w>
wa ys</w>
Mr .</w>
happ en
r ed</w>
t ri
a way</w>
tt ing</w>
g er</w>
v ed</w>
w o
d ed</w>
rea dy</w>
be tter</w>
m ust</w>
v e
m es</w>
sh it</w>
thin gs</w>
l ong</w>
v en</w>
af ter</w>
it e</w>
M a
l es</w>
be li
gu y</w>
wa r
tr u
s si
w on</w>
r in
th r
an s</w>
you r
ec t</w>
it y</w>
gu ys</w>
o ld</w>
si r</w>
un der
sto p</w>
yo ne</w>
pl ace</w>
st er</w>
ar ound</w>
every thing</w>
st and</w>
b ro
t ly</w>
C o
ee l</w>
u h</w>
do es</w>
na me</w>
t ry</w>
e sn</w>
f f
al ways</w>
s hi
k no
wh o
do esn</w>
ou se</w>
lo t</w>
M i
it i
gre at</w>
y ears</w>
p h
oo l</w>
e ve</w>
k es</w>
wa it</w>
H o
ma de</w>
ro w</w>
i l</w>
lo w</w>
m an
C h
w ee
c l
li st
hea d</w>
com ing</w>
r oo
fri end</w>
f eel</w>
mon ey</w>
e l</w>
thr ough</w>
d one</w>
p os
m er
m ost</w>
e st
fu ck</w>
lea ve</w>
beli eve</w>
than k</w>
t ch</w>
l s</w>
r ong</w>
k ind</w>
ki ll</w>
b rea
go tt
ever y</w>
ag e</w>
0 0</w>
re me
li ve</w>
some one</w>
w er</w>
p e</w>
mi ght</w>
en ts</w>
s ha
& #
&# 9
b le
n ed</w>
c our
ch e
st ay</w>
W e</w>
n y</w>
M ar
wan ted</w>
g r
h ouse</w>
d re
e m</w>
a tion</w>
or y</w>
bi g</w>
ca me</w>
i sn</w>
t es</w>
c or
e p</w>
ca r
i mp
o wn</w>
- -</w>
hea r</w>
u t</w>
fa ther</w>
su pp
c ha
g en
g ra
h ell</w>
c oun
be ing</w>
gir l</w>
le ft</w>
ni ce</w>
J o
min u
th ree</w>
dea d</w>
ba d</w>
p s</w>
wan na</w>
en ough</w>
fa mi
ge tting</w>
a tt
di s
in ter
y es</w>
Th at</w>
an other</w>
reme mber</w>
t or</w>
ca r</w>
su r
c ra
ca re</w>
an ce</w>
D a
s y</w>
R o
n er</w>
wi th
whi ch</w>
ti ons</w>
f f</w>
s en
f ine</w>
e st</w>
el se</w>
gott a</w>
p or
tr ying</w>
list en</w>
j u
h on
loo king</w>
bo y</w>
f ound</w>
ar d</w>
tal king</w>
l ing</w>
as k</w>
wor ld</w>
da m
T he</w>
v o
n u
ma y</w>
ac t</w>
happen ed</w>
ar y</w>
rea l</w>
w rong</w>
m a</w>
c lea
le ss</w>
ne x
k e
b ea
roo m</w>
m ind</w>
a u
ll ing</w>
sa me</w>
H e</w>
c re
wa sn</w>
u m</w>
under stand</w>
mo ve</w>
ta in</w>
tt y</w>
t on
it s</w>
be st</w>
i c
con t
mo ther</w>
your self</w>
en ds</w>
s how</w>
l t</w>
sa w</w>
nex t</w>
cour se</w>
tu ally</w>
an i
d ri
ou s
qu e
jo b</w>
sp ec
to day</w>
wa l
si g
h ur
fami ly</w>
y e</w>
m ed</w>
m any</w>
i ce</w>
w ent</w>
di e</w>
qu i
t en
tur n</w>
p t</w>
se en</w>
ca l</w>
m y
w ouldn</w>
z e</w>
to ge
toge ther</w>
hear d</w>
in t</w>
an s
l li
bab y</w>
tu re</w>
dam n</w>
th er
ti mes</w>
se e
c an
ho ld</w>
po li
r on
en ti
b l
k new</w>
har d</w>
ki lled</w>
t ook</w>
L i
ac tually</w>
who le</w>
c ho
ti ve</w>
u sed</w>
os s</w>
pro ble
ss ed</w>
s ing</w>
y eah</w>
s le
with out</w>
t ea
of fi
i de
se con
wo man</w>
whi le</w>
r un
d in
pre tty</w>
ck ed</w>
ne e
gu ess</w>
a re
c er
d ent</w>
N o
An d</w>
ca lled</w>
b it</w>
e i
or i
J e
ff er
al ready</w>
wi fe</w>
r ac
ru n</w>
da ys</w>
hu h</w>
ide a</w>
ll s</w>
que sti
u gh
w ing</w>
g ing</w>
on ce</w>
l on
s y
a m
ri ed</w>
star t</w>
da d</w>
ha ven</w>
li e</w>
un ti
b or
fe w</w>
br ing</w>
b ot
s ch
ton ight</w>
g ed</w>
re s</w>
mor ning</w>
M o
me et</w>
shi p</w>
S t
re c
p ing</w>
ou t
s es</w>
an d
os ed</w>
s et</w>
s on
k en</w>
g one</w>
fri ends</w>
b loo
c y</w>
fo l
o b
in s</w>
unti l</w>
my self</w>
st ory</w>
d d
ac k
com m
f ace</w>
O K</w>
sp ea
an yone</w>
ex c
re st</w>
bot h</w>
ever yone</w>
l and</w>
sa ying</w>
bro ther</w>
a go</w>
c ou
d rin
pl an
or s</w>
i m
h er
ph one</w>
T o
y et</w>
wan ts</w>
u p
s it</w>
la te</w>
b ra
ca se</w>
sa ys</w>
s k
h un
si on</w>
d ge</w>
sin ce</w>
Ho w</w>
ck s</w>
z y</w>
ti on
happ y</w>
an k</w>
mor row</w>
di ffer
bu sin
co l
pl ay</w>
ex p
a ss</w>
op en</w>
r en
in gs</w>
t ch
ho pe</w>
our s</w>
loo ks</w>
e w</w>
d ro
c la
f un
l ine</w>
c ouldn</w>
bab ly</w>
to morrow</w>
e ly</w>
an g
proble m</w>
b er
wor d</w>
h e
l ost</w>
t on</w>
l ed</w>
s it
al one</w>
v en
t en</w>
ki d</w>
a d</w>
wh at
than ks</w>
pro bably</w>
a li
H i</w>
do or</w>
busin ess</w>
fe el
ma tter</w>
st ra
ea ch</w>
h and</w>
w ri
spec i
h it</w>
sch ool</w>
- I</w>
fi ve</w>
c es</w>
wor king</w>
un der</w>
bu r
un i
su ch</w>
oo t</w>
dea l</w>
ssi on</w>
sh ed</w>
m p</w>
ki ds</w>
ha ving</w>
par t</w>
minu tes</w>
w on
C ar
stu ff</w>
Jo h
re sp
si ble</w>
re e
or t
1 ;</w>
&#9 1;</w>
wa tch</w>
3 ;</w>
&#9 3;</w>
iti on</w>
Ch ri
mo m</w>
thin king</w>
li ght</w>
s ent</w>
so on</w>
ne ss</w>
b it
F ran
sho t</w>
rea d</w>
m ur
ss ing</w>
bea u
h or
A r
every body</w>
secon d</w>
o l
d ra
ell o</w>
se l
to wn</w>
what ever</w>
e en</w>
kno ws</w>
w ed</w>
a in
g la
chan ge</w>
b ed</w>
t ell
che ck</w>
war d</w>
R e
d a</w>
ta king</w>
c ri
of f
D e
c r
po int</w>
ac tly</w>
it ing</w>
de ci
some body</w>
ga ve</w>
k er</w>
fa r</w>
y ear</w>
supp osed</w>
ap tain</w>
in g
S u
C a
I n
i d
c har
happ en</w>
H ello</w>
or t</w>
p le</w>
fi ght</w>
W ell</w>
ser i
i s
wa ter</w>
D o
st ea
ti c</w>
w er
poli ce</w>
pro mi
m ine</w>
m er</w>
gu n</w>
L e
te ly</w>
H ar
b and</w>
d ar
al so</w>
han ds</w>
in side</w>
ex actly</w>
s ca
c tion</w>
are n</w>
cu t</w>
B i
th ough</w>
c tor</w>
b ri
cra zy</w>
p ay</w>
H a
hur t</w>
you n
ma kes</w>
tru e</w>
st an
di es</w>
ou ble</w>
th s</w>
me ans</w>
chan ce</w>
c ed</w>
ea sy</w>
cl ose</w>
e at</w>
ge ts</w>
oun ds</w>
com es</w>
fi gu
f our</w>
g in
w in
chi l
m m</w>
ma king</w>
la ter</w>
c t</w>
m en
m ing</w>
d es</w>
dea th</w>
fi re</w>
beau ti
t ou
han d
wor ry</w>
v a
y ed</w>
per son</w>
me di
h ours</w>
st ed</w>
th ers</w>
wi sh</w>
d dy</w>
par ty</w>
ck y</w>
ra id</w>
imp ort
fu ck
J u
ag ain
as ked</w>
l an
beauti ful</w>
S o</w>
minu te</w>
B o
re la
e yes</w>
on es</w>
O kay</w>
ugh ter</w>
bloo d</w>
again st</w>
le y</w>
n s</w>
c rea
tr ust</w>
B ut</w>
no body</w>
drin k</w>
f el
R u
clea r</w>
A mer
lea st</w>
t un
J a
D on</w>
t ers</w>
bi r
m et</w>
nu mber</w>
wee k</w>
hear t</w>
at ed</w>
s .</w>
w el
p r
p er</w>
it ed</w>
lo ck</w>
c le</w>
t ment</w>
A l
h ind</w>
Wh y</w>
mi ss</w>
bo ys</w>
c er</w>
p ed</w>
f ron
differ ent</w>
c lu
ous ly</w>
ha lf</w>
P e
wal k</w>
rea son</w>
pro t
oo d
sa fe</w>
af raid</w>
any way</w>
be hind</w>
or d</w>
wa r</w>
0 00</w>
S he</w>
f lo
e mp
spea k</w>
fu n</w>
sle ep</w>
d rea
import ant</w>
hu s
no r
M r</w>
dre n</w>
li ty</w>
Th ey</w>
d ding</w>
lea r
R i
youn g</w>
la r</w>
da ughter</w>
gh ts</w>
h os
re por
d ers</w>
chil dren</w>
T his</w>
ga me</w>
cou ple</w>
i m</w>
di ed</w>
go es</w>
brea k</w>
t able</w>
st ri
questi on</w>
b oo
en ing</w>
tri ed</w>
ap s</w>
B e
hus band</w>
C har
tell ing</w>
r ing</w>
te st</w>
y -
a h</w>
sh ut</w>
a r</w>
sp o
nee ds</w>
tru th</w>
to p</w>
qu ite</w>
wa iting</w>
ou th</w>
w ear</w>
your s</w>
star ted</w>
fa st</w>
any more</w>
ei ther</w>
f ac
D o</w>
e f</w>
mo ment</w>
I s</w>
for get</w>
tw een</w>
p as
B u
L u
fron t</w>
a live</w>
s ma
g y</w>
c ity</w>
s k</w>
ir d</w>
be tween</w>
C aptain</w>
po wer</w>
f ree</w>
g es</w>
L a
l er</w>
i ma
b ook</w>
sha ll</w>
el e
W here</w>
cont ro
st s</w>
D i
b ar
s end</w>
sa ve</w>
d ly</w>
su s</w>
E n
st re
si dent</w>
gir ls</w>
fin i
c en
al most</w>
tr ouble</w>
offi ce</w>
bit ch</w>
br ought</w>
pla n</w>
pi c
in ed</w>
si x</w>
hon ey</w>
Joh n</w>
se cre
de st
bu il
D r
ce pt</w>
f fi
N i
A re</w>
y er</w>
out side</w>
mon ths</w>
chi ld</w>
ha te</w>
fu ll</w>
at ing</w>
pi ck</w>
ap e</w>
B ar
p id</w>
ir s</w>
in t
t t</w>
m b</w>
exc use</w>
, 000</w>
p it
t le
J ack</w>
ran d
si ster</w>
Dr .</w>
comp le
C on
la dy</w>
ri ty</w>
wo men</w>
c ool</w>
ans wer</w>
stu pid</w>
Da d</w>
al s</w>
mar ried</w>
fa v
o ver
any body</w>
per f
won der
en e
so l
l ar
ca re
ter ri
c li
Co me</w>
in for
me e
tea m</w>
mi lli
coun try</w>
it h</w>
f ood</w>
l ose</w>
do g</w>
st ing</w>
sh oot</w>
inter est
some times</w>
l m</w>
h our</w>
wel come</w>
ne ws</w>
m ents</w>
run ning</w>
ma l</w>
A ll</w>
ma s</w>
per i
L et</w>
S ta
ca tion</w>
Wh o</w>
see ms</w>
c ur
b all</w>
er y</w>
resp on
w ea
se cu
p ap
s sa
k ey</w>
er al</w>
d ev
ta ken</w>
c ent</w>
P o
st e
ll er</w>
hi gh</w>
1 0</w>
do ctor</w>
g ar
li ves</w>
N a
e -
si ck</w>
bu y</w>
f la
Je sus</w>
a head</w>
p en
o lo
M on
ho t</w>
an e</w>
z ing</w>
z ed</w>
l in
din ner</w>
i se</w>
L o
P re
at u
N ew</w>
or der</w>
l un
Mr s.</w>
fun ny</w>
U n
ca lly</w>
i gh
A h</w>
sen se</w>
hi m
W a
re cor
pp ed</w>
ce ss</w>
B ri
sig n</w>
er i
su b
t -
2 0</w>
l ying</w>
er ed</w>
promi se</w>
gen tle
g le</w>
d -
sel ves</w>
sh ouldn</w>
al ong</w>
d ru
c lo
P ar
b li
p rin
t re
per son
dri ve</w>
e ld</w>
i g
e ce</w>
ti es</w>
in a</w>
u ght</w>
t a</w>
T here</w>
m my</w>
y a</w>
u l
rea li
can not</w>
w ers</w>
f act</w>
S a
sur pri
him self</w>
de li
contro l</w>
wa tch
G e
h aps</w>
Q u
kno wn</w>
st op
de f
i ll</w>
G re
ta l</w>
b al
h ey</w>
feel ing</w>
S o
happen s</w>
tur ned</w>
as king</w>
li ving</w>
J ust</w>
go d
sor t</w>
M e
vi ce</w>
b la
s ounds</w>
d en</w>
in ing</w>
p ea
lea ving</w>
S e
s ear
d ate</w>
bl ack</w>
ar t</w>
mee ting</w>
ac h
st ru
ne y</w>
ear ly</w>
w in</w>
- You</w>
ti e</w>
s wee
W al
s ound</w>
ti ll</w>
comp any</w>
par ents</w>
per haps</w>
c s</w>
mp le</w>
mi ssion</w>
tion al</w>
dea r</w>
han g</w>
ma tion</w>
G et</w>
ou d</w>
th y</w>
mi sta
sc re
pa st</w>
pu ll</w>
li es</w>
con si
C an</w>
we ap
W o
g ood
st ran
tou ch</w>
s li
s ci
ch ed</w>
s we
gla d</w>
en s</w>
T a
hu man</w>
so lu
bu ll
N or
t ot
g an</w>
wh ite</w>
wee ks</w>
l y
ex pla
gu e</w>
g ro
dre ss</w>
g ge
si c</w>
ch es</w>
G ood</w>
mo ving</w>
f re
se x</w>
e u
sp i
gr ound</w>
Y our</w>
cl os
di rec
ca lling</w>
figu re</w>
pi ece</w>
se em</w>
b et</w>
f er
d an
c ap
M y</w>
ss es</w>
ni e</w>
No t</w>
hos pit
wor th</w>
la w</w>
ri de</w>
sh ing</w>
b lo
ar m</w>
D id</w>
l os
du de</w>
a ir</w>
le g
der ed</w>
co ver</w>
d ou
speci al</w>
col le
b ye</w>
L ord</w>
u lt</w>
pos sible</w>
w n
vi c
clea n</w>
Mo m</w>
s qu
f oo
sca red</w>
wor ds</w>
milli on</w>
en tly</w>
seri ous</w>
f fe
ha ir</w>
mur der</w>
3 0</w>
dd le</w>
wor ks</w>
pu bli
sma ll</w>
g ine</w>
s ea
coun t</w>
l a</w>
pla ying</w>
fol low</w>
j a
lo ved</w>
s me
tt e</w>
wa ke</w>
s la
at es</w>
ma te</w>
me ssa
perf ect</w>
d en
ta in
mo vi
in ve
g ger</w>
p ur
n er
D u
m it</w>
at or</w>
u su
Mi ss</w>
st ep</w>
de ser
wor ked</w>
tr ans
gi ving</w>
i re</w>
m -
be come</w>
wer en</w>
ec ted</w>
some where</w>
i can</w>
it u
G er
fa ir</w>
di st
in i
gi ven</w>
lon ger</w>
at ely</w>
G u
ro ad</w>
c ro
gentle men</w>
hi gh
sta irs</w>
W il
or k</w>
go ver
c a</w>
S te
stan ding</w>
k in</w>
C hi
dro p</w>
M or
wri te</w>
dis app
b an
op er
b s</w>
Fran k</w>
vo l
who a</w>
stra ight</w>
o h</w>
li n</w>
cho ice</w>
el s</w>
lu cky</w>
e ye</w>
Chri st
s al
g un
questi ons</w>
R a
o c
in v
c oo
st e</w>
ca tch</w>
no ti
gh t
t rea
fi eld</w>
t y
e sc
o thers</w>
ta kes</w>
p ho
ch ing</w>
t ary</w>
ec tive</w>
p an
li st</w>
loo ked</w>
la dies</w>
To m</w>
lu ck</w>
fel t</w>
dest ro
lea se</w>
p at
fi gh
do w</w>
o t</w>
D an
nee ded</w>
V i
B a
en jo
ki e</w>
re ly</w>
hospit al</w>
ear ing</w>
ho l
th i
F a
ap pro
g g
co ld</w>
th row</w>
s mar
fin ally</w>
f er</w>
Ge or
Da v
f all</w>
ve ly</w>
bor n</w>
a ma
m outh</w>
secu rity</w>
co ffe
co ver
see ing</w>
ra n</w>
be at</w>
G en
er ous</w>
bo ard</w>
par t
M c
S am</w>
st em</w>
god damn</w>
swe et</w>
ck et</w>
ra ther</w>
fe et</w>
we ird</w>
g n
coffe e</w>
Th ank</w>
Amer ic
lear n</w>
g rand
al l
f le
li sh</w>
1 9
ci al</w>
P i
est er
fu lly</w>
en t
s ou
wor se</w>
i ve</w>
prot ect</w>
tr ac
re ci
infor mation</w>
S ar
t ar
la w
un less</w>
sur vi
th ro
n one</w>
re turn</w>
fi ed</w>
f an
c ing</w>
n atu
do m</w>
happen ing</w>
v al
fol lo
Y ork</w>
repor t</w>
te l</w>
secre t</w>
u e</w>
k in
b oss</w>
C la
con cer
z z
r oss</w>
ba g</w>
f it</w>
5 0</w>
fu ture</w>
ch ec
n ment</w>
st rong</w>
bu n
er ry</w>
i es</w>
se ll</w>
er ing</w>
En g
p ain</w>
l o</w>
S i
mu sic</w>
b ack
il s</w>
s mo
me ant</w>
po or</w>
ec tion</w>
d ance</w>
e s
&apos; am</w>
Pre sident</w>
bo x</w>
expla in</w>
fa ult</w>
d ang
on ed</w>
mi ssing</w>
P ro
u ation</w>
pic ture</w>
bo at</w>
sy stem</w>
c ru
h y
chan ged</w>
en e</w>
thin ks</w>
b lu
- What</w>
l ev
sti c</w>
K a
Char lie</w>
pp ing</w>
ra di
B er
be g
pre s
on y</w>
olo gi
for m</w>
ti red</w>
t or
buil ding</w>
A le
messa ge</w>
ci r
e t
Wo w</w>
ad dy</w>
r ace</w>
tal ked</w>
att ack</w>
lea d</w>
hand le</w>
S h
watch ing</w>
bu ddy</w>
Amer ican</w>
cont in
mb ers</w>
al lo
pri v
g ers</w>
cu l
tu res</w>
ce p
att en
con ne
ar ri
i e</w>
se ven</w>
pa ss</w>
ma d</w>
exp ect</w>
la n</w>
mo ther
for tun
sear ch</w>
fi sh</w>
a st</w>
sti ck</w>
j ect</w>
pos ition</w>
drea m</w>
Mi cha
in vol
E d
e g
hur ry</w>
v y</w>
a w
enti re</w>
g rea
no r</w>
F u
st or
de fin
st ate</w>
b b
ki lling</w>
supp ose</w>
ca ught</w>
pl ac
ac h</w>
S ha
bro ke</w>
mista ke</w>
ce ss
plan e</w>
ke pt</w>
m mer</w>
ba r</w>
beli ev
app reci
N e
ac ross</w>
Christ mas</w>
pa ti
sc ri
stre et</w>
ex peri
fini sh</w>
ima gine</w>
ki dding</w>
pa id</w>
n al</w>
ester day</w>
ec u
dar k</w>
me mor
mi ssed</w>
vi ew</w>
ev id
ci dent</w>
ex cept</w>
ra l</w>
cla ss</w>
qui ck</w>
pri son</w>
c us</w>
lo y
f ree
r is</w>
resp ect</w>
oo m</w>
sit uation</w>
D addy</w>
m on</w>
1 5</w>
y esterday</w>
fuck in</w>
ar s</w>
E x
gi c</w>
i ll
ea l</w>
mi les</w>
u sing</w>
ob vi
a ir
Co m
qui et</w>
sol di
wor ried</w>
t in
sit ting</w>
ca lm</w>
th ous
k y</w>
af ter
mo ved</w>
e ight</w>
l ay</w>
Ma ri
ab solu
si st
ab o
ca mer
b t</w>
j or</w>
o w
b low</w>
wh e
b ly</w>
care ful</w>
won der</w>
p y</w>
en d
gu ar
gr ou
Micha el</w>
off er</w>
C or
pre sent</w>
y le</w>
g ri
Dav id</w>
S er
mi li
i st</w>
tt ers</w>
as su
flo or</w>
v an
fi x</w>
stea d</w>
any where</w>
jo in</w>
an ks</w>
H en
1 2</w>
evid ence</w>
as sa
tot ally</w>
d ying</w>
tra in</w>
Mi ke</w>
r t</w>
t ory</w>
dang erous</w>
S an
movi e</w>
hi story</w>
cont act</w>
M u
ri es</w>
bir th
comple tely</w>
Joh n
e ment</w>
su gge
pre ss</w>
mon th</w>
Chri st</w>
wonder ful</w>
ba star
il ed</w>
sh oo
f ly</w>
u r</w>
in f
en ny</w>
the s</w>
terri ble</w>
inve sti
c ted</w>
for d</w>
ha sn</w>
i c</w>
si ve</w>
i a</w>
bu sy</w>
co ps</w>
as sho
p sy
sp end</w>
i di
T o</w>
gott en</w>
ma ch
f -
war ds</w>
smar t</w>
P hi
si des</w>
hor se</w>
f y</w>
person al</w>
I N
si l
wi se</w>
s wear</w>
car d</w>
un t</w>
vi l
ama zing</w>
E ar
gir l
t in</w>
Jo e</w>
S co
S p
t wi
ma in</w>
I f</w>
n ear</w>
ca ted</w>
ar re
f ear</w>
for ward</w>
0 ,000</w>
vo ice</w>
da m</w>
com for
clo thes</w>
f al
fu r
ev ening</w>
d run
co p</w>
T V</w>
app ed</w>
Geor ge</w>
figh ting</w>
mi ddle</w>
gover nment</w>
w earing</w>
st y</w>
in stead</w>
P au
cer tain</w>
p rac
ea ting</w>
F or
it ch
A b
th re
ch er</w>
ne igh
sle e
deci ded</w>
we dding</w>
ber t</w>
it ely</w>
seri ously</w>
cer tain
brea k
A u
v in
t ro
m ot
do wn
G o</w>
ur ing</w>
f rea
stop ped</w>
char ge</w>
s ki
offi cer</w>
B ra
te mp
s ons</w>
- No</w>
gr ap
sa ved</w>
for ever</w>
e ts</w>
publi c</w>
sta tion</w>
&apos; cause</w>
re ce
prac ti
secon ds</w>
d ition</w>
t ors</w>
e mb
gi e</w>
L in
h a</w>
ur ch</w>
man ag
Mar y</w>
K ing</w>
birth day</w>
pr oud</w>
ki ller</w>
y o</w>
o s</w>
bu l
t ective</w>
recor d</w>
s cu
L ook</w>
v an</w>
h mm</w>
appreci ate</w>
en g
comp li
a tions</w>
atten tion</w>
h -
an a</w>
ab i
B en</w>
tt a</w>
dis cu
ci ous</w>
tru ck</w>
bo y
ran t</w>
ac ked</w>
Ru ssi
R ight</w>
sp ace</w>
ki ss</w>
si mple</w>
me an
M an
pap er</w>
sp ir
s n
T i
F e
min i
sto re</w>
nor mal</w>
rela tion
pea ce</w>
R ea
b ought</w>
b as
bull shit</w>
re co
ca lls</w>
sh ort</w>
fuck er</w>
sin gle</w>
g ni
defin itely</w>
sme ll</w>
ho le</w>
B ye</w>
k et</w>
Americ a</w>
ck er</w>
ten ant</w>
s low</w>
p op
Pe ter</w>
P a
feel s</w>
for got</w>
sha re</w>
vic ti
absolu tely</w>
Ja mes</w>
B ro
r ound</w>
No w</w>
su it</w>
d uring</w>
pro du
ap ologi
C ha
lo vely</w>
no on</w>
certain ly</w>
comp u
ap ar
Th en</w>
su c
girl friend</w>
le an
. ...</w>
priv ate</w>
me ss</w>
ho tel</w>
b ank</w>
ca te</w>
O ne</w>
wa ll</w>
si bi
gra b</w>
con ver
sho p</w>
w ood</w>
dar ling</w>
ra i
cu sto
hi de</w>
c ell</w>
cri me</w>
tri p</w>
interest ed</w>
H an
cover ed</w>
f ell</w>
stran ge</w>
h ood</w>
de ep</w>
Har ry</w>
iti ve</w>
ta ge</w>
on al</w>
el li
e se</w>
v ot
enjo y</w>
ar ti
lo ves</w>
grou p</w>
F i
au th
Gen eral</w>
ta tion</w>
fu cked</w>
in st
di ffi
1 1</w>
en ty</w>
bra in</w>
t ough</w>
fini shed</w>
la s</w>
go ld</w>
eu tenant</w>
r a</w>
L on
for ce</w>
T u
invol ved</w>
cu lt</w>
s har
al right</w>
win dow</w>
wa re</w>
g ent</w>
ve l</w>
gun s</w>
are a</w>
surpri se</w>
hon est</w>
so ci
Bi ll</w>
p un
is su
f oot</w>
for give</w>
se x
par ti
drun k</w>
mi le</w>
ga tion</w>
ec ting</w>
o we</w>
ac cident</w>
s ong</w>
qu ar
sp ent</w>
I n</w>
T H
law yer</w>
pp er</w>
bro ken</w>
Ha ve</w>
cour t</w>
ri sk</w>
H mm</w>
mar k</w>
spea king</w>
with in</w>
d red</w>
ea si
e f
ag ree</w>
lun ch</w>
sa tion</w>
or g
en ded</w>
re li
sig ned</w>
proble ms</w>
se at</w>
or ders</w>
sh es</w>
st er
ro ll</w>
apar tment</w>
oun ded</w>
interest ing</w>
te ch
ti v
tr an
H u
vi sit</w>
t le</w>
reali ze</w>
figu red</w>
bur n</w>
in k</w>
ss y</w>
star ting</w>
J im</w>
Wh en</w>
assho le</w>
part ner</w>
tt o
sk y</w>
la ugh
wal king</w>
gu il
lon el</w>
rela x</w>
k ers</w>
f li
f ra
la tion</w>
ser vice</w>
th in</w>
ri ch</w>
s a</w>
e d
sa ke</w>
pro fe
fi le</w>
s our
B ur
su dd
1 00</w>
hol ding</w>
ja il</w>
k a</w>
S her
bu s</w>
ori es</w>
v al</w>
li ar</w>
pre sident</w>
ev il</w>
ag ent</w>
Bo b</w>
mar ry</w>
boy friend</w>
in ten
na med</w>
ti cal</w>
In di
ar my</w>
imp re
Dan ny</w>
rea ch</w>
en se</w>
su sp
pro gra
W ill</w>
ru les</w>
k ni
in su
dou bt</w>
iti es</w>
up on</w>
f l
o in
2 0
s wi
in no
clu b</w>
plea sure</w>
hun dred</w>
su per
li ved</w>
ca sh</w>
m it
weap ons</w>
le tter</w>
R ay</w>
pro ve</w>
M at
s un
m os
li kes</w>
ki d
be er</w>
wee k
i ld</w>
f ool</w>
ri d</w>
speci ally</w>
pu tting</w>
G a
dri ving</w>
m o</w>
li a</w>
tur ns</w>
ser ve</w>
P lease</w>
deci sion</w>
wor st</w>
relation ship</w>
bloo dy</w>
kee ping</w>
e y
pa in
st at
g as</w>
sc ene</w>
lo cked</w>
m ous</w>
blu e</w>
ri age</w>
in de
diffi cult</w>
g ate</w>
H el
Ni ck</w>
whe ther</w>
st ers</w>
por t</w>
hea l
stu ck</w>
re qu
good bye</w>
differ ence</w>
c o</w>
s co
F ri
b ru
sa d</w>
jo ke</w>
li ked</w>
promi sed</w>
i al</w>
n ine</w>
sta ying</w>
b on
par tment</w>
ch urch</w>
E ri
supp ort</w>
tr a</w>
di sp
s ac
ro te</w>
qu it</w>
J ac
en ding</w>
bastar d</w>
gen cy</w>
boo ks</w>
th rea
idi ot</w>
sa fe
p ose</w>
cre w</w>
pho to
tr ack</w>
t ree</w>
e mer
m- hmm</w>
bun ch</w>
leg al</w>
ene my</w>
C al
li an</w>
weap on</w>
i ther</w>
ga r</w>
se a</w>
R ic
w rote</w>
s m</w>
fi c</w>
an g</w>
de ta
H ere</w>
s en</w>
c ele
obvi ously</w>
sou l</w>
gi ft</w>
ar ms</w>
Th anks</w>
st ood</w>
n on
d ence</w>
R os
en ed</w>
dru gs</w>
tea ch</w>
n d</w>
ne l</w>
di ck</w>
th ird</w>
s -
ke ys</w>
pi cked</w>
ang ry</w>
O f</w>
Fa ther</w>
usu ally</w>
la tions</w>
mach ine</w>
P ri
ca mp
go d</w>
n ers</w>
bo mb</w>
j our
ear t</w>
co de</w>
re fu
de sp
ma ster</w>
g ry</w>
ar ra
vi de
sibi lity</w>
our selves</w>
hon or</w>
compu ter</w>
v ers</w>
or din
pu sh</w>
rea ding</w>
m oun
g ly</w>
fav or</w>
na mes</w>
ell a</w>
w ine</w>
&apos; all</w>
ge ant</w>
Eng lish</w>
pro per
ter r
t end</w>
ma il</w>
e h</w>
T ho
r ying</w>
ne ither</w>
cu te</w>
fav or
e specially</w>
F ren
c lean
im medi
gi ves</w>
z en</w>
up set</w>
vi r
P er
ju mp</w>
f at</w>
o d
ci de</w>
ho me
reco gni
Ch e
comm it
ti cs</w>
be sides</w>
hel ping</w>
ac cept</w>
e ff
ll ars</w>
gu ard</w>
b ac
hun gry</w>
F re
v el
cra p</w>
her o</w>
C ity</w>
lo ts</w>
g on</w>
ar rest</w>
si ons</w>
in di
qu e</w>
wonder ing</w>
camer a</w>
r ou
ki ck</w>
cho ose</w>
C oun
S ir</w>
Li eutenant</w>
v ous</w>
after noon</w>
bal ls</w>
B en
gen er
un cle</w>
ro ck</w>
cr os
li ed</w>
g row</w>
radi o</w>
ra ise</w>
consi der</w>
car ry</w>
natu re</w>
D ar
c at</w>
m ans</w>
ad dress</w>
Ma ybe</w>
E l
I -I</w>
s che
hea d
ll a</w>
bu ild</w>
tt er
on er</w>
colle ge</w>
ch ee
slee ping</w>
bi gger</w>
b ear</w>
c aptain</w>
tt en</w>
di r
su n</w>
tu al</w>
be gin
pre par
ee p</w>
di v
mi l
cri min
sto le</w>
sc rea
qui ck
in es</w>
x ed</w>
M er
Ale x</w>
C u
St ar
spo t</w>
the m
Pau l</w>
S or
y ers</w>
oo ds</w>
H er
th eart</w>
p ot
ge l</w>
chi ck
ag es</w>
D ani
John ny</w>
ss or</w>
tre at</w>
ti ght</w>
en a</w>
con fir
im my</w>
pr os
Ear th</w>
rece i
ha m</w>
lear ned</w>
el ec
bla me</w>
O r
4 0</w>
c y
Mr s</w>
Co lonel</w>
ssi ve</w>
Ho ly</w>
app ar
mi d
H i
sta r</w>
p ack</w>
fi l
po wer
up stairs</w>
g er
p es</w>
s lo
x i
tar get</w>
wri ting</w>
destro y</w>
ne cess
list ening</w>
ph y
imp os
Lon don</w>
wh ose</w>
stea l</w>
pre gn
de p
l ack</w>
thous and</w>
th o
- Yeah</w>
re su
v a</w>
do llars</w>
1 0
da ma
ho ping</w>
ha dn</w>
du e</w>
pas sed</w>
of ten</w>
V al
we some</w>
an ti
wi lling</w>
fol ks</w>
drin king</w>
ci vi
kno w
pan ts</w>
op por
ne ck</w>
b in</w>
ju dge</w>
smo ke</w>
lev el</w>
ali ty</w>
- It</w>
mu m</w>
li ce</w>
T ur
ma jor</w>
F or</w>
hi ding</w>
swee theart</w>
si mp
mar riage</w>
D on
ju sti
gre en</w>
at ri
g -
ma le</w>
los ing</w>
f light</w>
mother fucker</w>
c lock</w>
ac tion</w>
n et</w>
allo wed</w>
wit ch</w>
g ging</w>
beg in</w>
li ke
comfor table</w>
shoo ting</w>
H on
M ag
sp l
sp e
cor rec
mp ed</w>
gla ss</w>
co py</w>
them selves</w>
fir ed</w>
ec ts</w>
T w
li z
contin ue</w>
ea se</w>
deci de</w>
r ent</w>
inno cent</w>
fur ther</w>
Su re</w>
W i
oppor tun
W or
L ar
con vin
vil la
experi ence</w>
bri dge</w>
su mmer</w>
Wa it</w>
du ty</w>
dir ty</w>
st ron
se ver
fa i
se y</w>
r y
in clu
mi s
begin ning</w>
dru g</w>
Hen ry</w>
p al</w>
break fast</w>
la u
sp ee
lo ad</w>
C an
d ry</w>
re gi
li er</w>
hel ped</w>
B I</w>
ear ed</w>
cre di
ba thr
le g</w>
usu al</w>
s son</w>
Bi lly</w>
cl osed</w>
quick ly</w>
org ani
ca mp</w>
il ing</w>
u se
po in
favor ite</w>
buil t</w>
F BI</w>
week end</w>
v in</w>
st le</w>
or ity</w>
k itch
ty pe</w>
re ed</w>
every where</w>
clea r
h i</w>
Ste ve</w>
phy si
w ind</w>
ch u
I I</w>
sho es</w>
cre d
b er</w>
ad mit</w>
ma gic</w>
tur ning</w>
j e
ran ce</w>
ha l
noti ce</w>
mili tary</w>
ea st</w>
Sar ah</w>
si ght</w>
ho w
bro thers</w>
as on</w>
Fren ch</w>
E ver
j un
Ta ke</w>
L y
ex tra</w>
twi ce</w>
in ging</w>
pri ce</w>
d at
necess ary</w>
sho wed</w>
y ear
J os
esc ape</w>
cir cu
medi cal</w>
vi ol
ri ous</w>
ra te</w>
fre sh</w>
conver sation</w>
mi ssi
ck ets</w>
ar ran
la un
at ur
pl ans</w>
o ther
hea ds</w>
To mmy</w>
te a</w>
n ur
c ell
g ged</w>
pic tures</w>
follo wing</w>
W at
a wesome</w>
inter est</w>
hu ge</w>
hon est
L ou
K i
her self</w>
ac ting</w>
h oo
kitch en</w>
d el
vide o</w>
J immy</w>
s is</w>
plan et</w>
deser ve</w>
pu lled</w>
pri son
comple te</w>
D en
c os
feel ings</w>
bathr oom</w>
hel lo</w>
dan ger</w>
r ay</w>
h at</w>
IN G</w>
li ghts</w>
ha n</w>
S im
mur dered</w>
en ter
it ch</w>
int ro
impos sible</w>
surpri sed</w>
pres sure</w>
po i
da ddy</w>
memor y</w>
d on
car s</w>
appar ently</w>
chi ef</w>
ac cor
l ts</w>
M il
susp ect</w>
a -
S un
s na
respon sible</w>
intro du
pati ent</w>
con fi
re gu
en ly</w>
cele bra
y l
pro ce
t ex
c el
kee ps</w>
el ev
emer gency</w>
o -
al low</w>
gra tu
ap art</w>
it ting</w>
ex a
hear ing</w>
c ost</w>
fan ta
guil ty</w>
wa ste</w>
k ne
V er
ap ed</w>
who ever</w>
Sor ry</w>
pl enty</w>
men tion</w>
n ose</w>
pla yed</w>
shi ps</w>
so ld</w>
S top</w>
e mo
cha mp
O oh</w>
enti al</w>
bir d</w>
wit ness</w>
sk in</w>
wal ked</w>
mon d</w>
M ex
war m</w>
man der</w>
le ts</w>
E u
e lo
spo ke</w>
P u
G ra
pregn ant</w>
spe ed</w>
te e</w>
ri ver</w>
De tective</w>
l ord</w>
Wal ter</w>
Be cause</w>
ta ste</w>
at h</w>
tell s</w>
mo on</w>
gr and</w>
en ces</w>
be d
Wil li
st age</w>
T ony</w>
sci ence</w>
pro vi
emp ty</w>
H ouse</w>
ear th</w>
T e
A d
g ay</w>
Mar tin</w>
ner vous</w>
ex per
af f
par k</w>
op e</w>
ne w
m ea
kni fe</w>
K ar
plac es</w>
- Yes</w>
immedi ately</w>
Rea lly</w>
B ob
ga re
comm uni
Ja ke</w>
vi sit
nu mbers</w>
en er
d iti
s an
un fortun
l en</w>
bo tto
- up</w>
Un ited</w>
g y
foo t
der ing</w>
be came</w>
fin al</w>
at s</w>
comm and</w>
Ric hard</w>
st one</w>
t ee
fi lm</w>
ba se
other wise</w>
aw ful</w>
it or</w>
we st</w>
nor th</w>
yo nd</w>
survi ve</w>
ing ton</w>
opportun ity</w>
le gs</w>
Ma x</w>
p ra
br inging</w>
dri ver</w>
d ouble</w>
shi rt</w>
p hi
So me
hea ded</w>
ba ttle</w>
bo ther</w>
cor ner</w>
Fu ck</w>
hor ri
on to</w>
drea ms</w>
se l</w>
clos er</w>
is land</w>
he ld</w>
an n
e ty</w>
D r</w>
b ag
ju d
terr ori
ro pe</w>
ac y</w>
H ea
U h-
sig nal</w>
bo dies</w>
Ma ma</w>
abo ve</w>
kno ck</w>
sel f-
ac cess</w>
con fe
fi ll</w>
ear lier</w>
bi e</w>
st ories</w>
comm on</w>
fe ed</w>
pro of</w>
c tions</w>
emb arra
d y
e e</w>
w ell
Do c</w>
mi c</w>
con fu
An g
p ment</w>
j ack
pl us</w>
sp ort</w>
swee tie</w>
neigh bor
be yond</w>
tri al</w>
na tional</w>
th ir
M an</w>
ru le</w>
K el
t ape</w>
ta ught</w>
p h</w>
chec ked</w>
a ri
V in
cr oss</w>
si bly</w>
bo ttle</w>
han ging</w>
de e
victi m</w>
Sta tes</w>
p uni
ou tta</w>
ac count</w>
st en</w>
Par is</w>
g l
si ze</w>
fa ith</w>
f ar
a ware</w>
ma tch</w>
G rand
Ser geant</w>
le ep</w>
ous in</w>
see med</w>
do gs</w>
pap ers</w>
chick en</w>
ca ke</w>
vi sion</w>
m un
lo cal</w>
sp or
sc ra
lin es</w>
kno wing</w>
c in
g en</w>
hu t</w>
in credi
as si
apologi ze</w>
cha ir</w>
c ry</w>
ni ght
ra ge</w>
discu ss</w>
m ma</w>
st ren
s ite</w>
div or
Ch ris</w>
dra w</w>
hea ding</w>
P rin
le tting</w>
d are</w>
ar ds</w>
ver se</w>
parti cu
fi f
dro pped</w>
ma tters</w>
er t</w>
se tt
ll en
ba tt
Li ke</w>
J on
ten ed</w>
M al
G ar
mi es</w>
brea king</w>
soldi ers</w>
sta ur
year -
er o</w>
wh er
bu tt
f lying</w>
G ive</w>
in -
re si
lau gh</w>
stren g
a vo
ad vice</w>
simp ly</w>
M m-hmm</w>
Tho mas</w>
ba se</w>
m ers</w>
Ro ger</w>
tee th</w>
s ane</w>
gu i
ani mal</w>
lea der</w>
2 5</w>
bu cks</w>
- We</w>
vot e</w>
le dge</w>
e ss
brea the</w>
soldi er</w>
i on</w>
fer ence</w>
sche du
like ly</w>
oper ation</w>
fo cus</w>
t oo
- That</w>
yo r</w>
St re
hea vy</w>
k i</w>
c rac
abi lity</w>
ma ls</w>
accor ding</w>
c ine</w>
p ool</w>
Tw o</w>
botto m</w>
Gre at</w>
nu ts</w>
Cla ire</w>
th ou
cro w
as leep</w>
re gre
ea th</w>
Ro bert</w>
investi gation</w>
M ur
re staur
progra m</w>
ri di
me mber</w>
tra vel</w>
c up</w>
br o</w>
ac cu
pa ying</w>
be lon
ex pl
S en
c ousin</w>
t ele
id enti
. S
ex i
cr ying</w>
it self</w>
plan ning</w>
sudd enly</w>
power ful</w>
dre ssed</w>
d ents</w>
grea test</w>
Ch in
r or</w>
no where</w>
s mile</w>
sugge st</w>
li ver</w>
sever al</w>
gen eral</w>
be l</w>
P al
s word</w>
c ers</w>
in stru
su i
ro b
B ea
wri tten</w>
B ran
do l
- S
pos sibly</w>
sha me</w>
Ed die</w>
honest ly</w>
W hi
some how</w>
T ra
te en</w>
justi ce</w>
se par
Sco tt</w>
dev elo
ti s
cred it</w>
que en</w>
est s</w>
W ho
t an
ener gy</w>
T ri
i dea
A N
di a
M s.</w>
H e
M m</w>
cli ent</w>
clear ly</w>
y ard</w>
ter min
att emp
An dre
- l</w>
en sive</w>
S ch
tri ck</w>
li gh
Ger man</w>
tea cher</w>
tech ni
li fe
stor m</w>
ri fi
K en
j er
D ou
re n</w>
t it
C lar
lo ose</w>
bull et</w>
itu de</w>
easi er</w>
lo gi
mar ket</w>
ac tiv
re lease</w>
ad van
G ri
gratu lations</w>
dd en</w>
no te</w>
lea ves</w>
F l
spir it</w>
natu ral</w>
bl ind</w>
Wh ite</w>
oun t</w>
u al</w>
hor ses</w>
tur ed</w>
s er</w>
profe ssi
s outh</w>
bea ch</w>
man i
ev en
R ed</w>
tru ly</w>
op ini
de scri
ex ecu
gre ss</w>
pl u
cul ous</w>
co mb
ti ves</w>
ch ea
el le</w>
arri ved</w>
W est</w>
S hel
i us</w>
fa ster</w>
I s
prepar ed</w>
ag reed</w>
con tr
ver s
har dly</w>
Ma j
en cy</w>
ga mes</w>
arre sted</w>
pa y
do ors</w>
sh u
In ter
du mb</w>
concer ned</w>
L ea
exc ited</w>
Ang el
Stre et</w>
ic es</w>
de st</w>
U h</w>
we ight</w>
star ts</w>
sh oul
fin ding</w>
ani mals</w>
la b</w>
Un cle</w>
J er
d r
sti an</w>
noti ced</w>
D ean</w>
Y O
stri ke</w>
mb le</w>
J ane</w>
ca l
year- old</w>
se lling</w>
V ic
Char les</w>
pat h</w>
ori gin
pre tend</w>
lar ge</w>
pur pose</w>
de sk</w>
ac ks</w>
care er</w>
ru p
mon ster</w>
how ever</w>
f lu
lo cation</w>
sh or
con su
wi ld</w>
lo gy</w>
T ell</w>
Russi an</w>
safe ty</w>
af ford</w>
st on</w>
lan gu
stre ss</w>
ro of</w>
al y
st and
ar med</w>
F o
z o
sac rifi
en ter</w>
char ac
m or</w>
pre sen
brea th</w>
Qu een</w>
b ite</w>
destro yed</w>
me at</w>
car ds</w>
Y ep</w>
J an
x es</w>
assu me</w>
de partment</w>
dev il</w>
tra ining</w>
ti sh</w>
respon sibility</w>
M other</w>
be long</w>
streng th</w>
re scu
mp s</w>
al ty</w>
ridi culous</w>
b lock</w>
S we
D an</w>
F in
k ness</w>
in sane</w>
ea l
W ith</w>
gge st</w>
ro man
a de</w>
D ra
a ld</w>
Do ctor</w>
sh eri
Car l</w>
horri ble</w>
sho ws</w>
ri e</w>
t ac
li ter
C hu
2 00</w>
stu dy</w>
p are</w>
thre w</w>
fa mous</w>
Bob by</w>
ran k</w>
inv ited</w>
No thing</w>
M mm</w>
bi ggest</w>
hea ven</w>
vi e
correc t</w>
J en
ec es</w>
pa ir</w>
g ence</w>
e qu
secu re</w>
re ma
de t
0 -
w re
k o</w>
sa n</w>
c les</w>
sto len</w>
sen ding</w>
go in</w>
Fri day</w>
ba rely</w>
re search</w>
re main</w>
inde ed</w>
ser v
S al
ta ins</w>
her o
f our
5 00</w>
se qu
r os
sh it
fel low</w>
g os
restaur ant</w>
dama ge</w>
k o
di sa
K e
2 4</w>
ra in</w>
crimin al</w>
- He</w>
en gin
proper ty</w>
eng ag
po p</w>
mur der
villa ge</w>
recor ds</w>
f ru
cha llen
free dom</w>
th u
so li
. A
r ough</w>
crea m</w>
mu l
men tal</w>
ac cep
Wa sh
be ll</w>
s and
su ffer
re mind</w>
believ ed</w>
int elli
O s
sheri ff</w>
ni a</w>
inter view</w>
comp la
p in
n early</w>
th ea
J erry</w>
ci ent</w>
b in
ima gin
do in</w>
Mo mmy</w>
c ook</w>
B ren
perf ec
mi r
follo wed</w>
di c
G race</w>
practi ce</w>
la ted</w>
g in</w>
A f
r at</w>
est y</w>
su ck</w>
sui cide</w>
ol der</w>
ex -
Pro fe
Bi g</w>
p age</w>
de gre
as sist
o il</w>
di g</w>
T or
te sti
issu e</w>
din gs</w>
Wash ington</w>
A my</w>
g a</w>
au to
as h</w>
T er
w l</w>
spee ch</w>
ho li
L or
u gly</w>
st ro
d an</w>
wea k</w>
p en</w>
M ini
1 4</w>
on ing</w>
f an</w>
K ate</w>
H is</w>
th ur</w>
I ta
ma p</w>
ta il</w>
G i
W e
exc ell
bra ve</w>
m n</w>
la tely</w>
ig no
gu est</w>
pre pare</w>
z i
fa ke</w>
1 8</w>
tra de</w>
c tors</w>
ar ed</w>
s day</w>
pr ay</w>
m enti
w oods</w>
ju ry</w>
th a</w>
st ry</w>
c use</w>
spl it</w>
Ho l
E mi
scre w</w>
pos se
con dition</w>
ta n</w>
li ft</w>
on e-
l oud</w>
San ta</w>
ca tions</w>
ig n</w>
pre fer</w>
n ar
B on
Profe ssor</w>
- A
pi eces</w>
photo grap
min ds</w>
st af
li ties</w>
Ar thur</w>
psy cho
si lly</w>
de l</w>
opini on</w>
ic o</w>
exp ecting</w>
T y
sho wer</w>
ser ved</w>
sle pt</w>
st ree
N ice</w>
M ac
perfec tly</w>
d or</w>
Eri c</w>
thre at</w>
flo wers</w>
re v
t z</w>
Se e</w>
b by</w>
se es</w>
K ev
laugh ing</w>
recogni ze</w>
s --</w>
k a
Th e
fa iled</w>
b en
T ar
E R
mon y</w>
kin da</w>
.S .</w>
my st
di a</w>
Le e</w>
sci enti
for t</w>
ge st</w>
idea s</w>
att acked</w>
d i</w>
E R</w>
tot al</w>
N A</w>
p a</w>
wa sh</w>
sour ce</w>
r ab
ac coun
sho ts</w>
be th</w>
An na</w>
- Oh</w>
ha ll</w>
bu ried</w>
gh ty</w>
Da ve</w>
ba be</w>
S hut</w>
unfortun ately</w>
ti cket</w>
C oo
H al
1 6</w>
ve hi
ll en</w>
exp lo
pop u
S atur
R y
kid n
H ank</w>
or dered</w>
ma tic</w>
er ate</w>
Eng land</w>
neigh b
Nor th</w>
se ttle</w>
or ed</w>
sta yed</w>
Willi am</w>
W in
ex ist</w>
tra ffi
O n</w>
in du
per for
mil k</w>
in si
Chi ef</w>
sa ving</w>
bo mb
An dy</w>
al though</w>
A R
t ab
reali zed</w>
ad ed</w>
langu age</w>
in y</w>
fin ger</w>
it al</w>
na h</w>
mp ing</w>
ans wers</w>
Sim on</w>
O r</w>
ca st</w>
C ali
go ti
e qui
co at</w>
tin y</w>
ci l</w>
A gent</w>
dis gu
te ful</w>
di sc
J ason</w>
g ain</w>
comp et
comm un
A dam</w>
excell ent</w>
am ong</w>
be ha
ot s</w>
na tion</w>
t y-
su per</w>
pro cess</w>
op ened</w>
recei ved</w>
an ds</w>
it a</w>
cu re</w>
A fri
L au
S y
tra l</w>
in ci
R ach
D el
fun eral</w>
la ke</w>
he at</w>
expl os
dea ling</w>
F er
H or
j eal
con gratulations</w>
N u
down stairs</w>
staf f</w>
conne ction</w>
ran ge</w>
f ought</w>
w -
bl ack
disapp eared</w>
guar ds</w>
sha ke</w>
mi rac
bo w</w>
do ws</w>
Le on
ap er</w>
thro at</w>
po t</w>
f arm</w>
b oun
Chin ese</w>
y al</w>
l oss</w>
hun t</w>
wea ther</w>
ther ap
olo gy</w>
app ing</w>
Rach el</w>
ber g</w>
po wers</w>
po cket</w>
hi red</w>
dan cing</w>
ou gh
fami liar</w>
ri se</w>
p -
G or
si x
che st</w>
un it</w>
for gotten</w>
w r
cla ssi
ad vi
ck les</w>
to wards</w>
for ced</w>
dat a</w>
circu m
be g</w>
Ro me</w>
re qui
o l</w>
La dy</w>
fi re
un k</w>
stree ts</w>
a di
E lli
Co l
gre w</w>
O ffi
so oner</w>
secre ts</w>
prin ts</w>
pi ss</w>
ca ses</w>
c on</w>
Sar a</w>
fin gers</w>
ci an</w>
6 0</w>
sy mp
ble e
Bri tish</w>
p ack
manag er</w>
a ds</w>
Com mander</w>
E r
under stood</w>
r o</w>
s m
re pe
W as</w>
Kev in</w>
ac he</w>
a c</w>
hur ts</w>
an ts</w>
to -
a va
B al
an o</w>
op ening</w>
I sa
run s</w>
know ledge</w>
bri lli
c ts</w>
tr oo
re spec
bu ying</w>
thou ghts</w>
B lack</w>
bas ed</w>
ei g
ha u
for e
ordin ary</w>
exp ected</w>
guar an
gra de</w>
deta ils</w>
pho to</w>
or ney</w>
pu ssy</w>
professi onal</w>
R on
sho wing</w>
oin tment</w>
bi ll</w>
frea k</w>
gra teful</w>
ann oun
ac king</w>
de mon
beau ty</w>
stan ds</w>
na ked</w>
heal th</w>
offi cers</w>
jo bs</w>
deli ver</w>
M a</w>
person ally</w>
pi e</w>
ca res</w>
Bar ry</w>
1 3</w>
m i</w>
j a</w>
co ck
sen s
Maj esty</w>
st -
ne goti
def ense</w>
contin u
ba si
- year-old</w>
pi cking</w>
Sun day</w>
cen tu
stat ement</w>
ell ing</w>
m ming</w>
good -
as se
sk i</w>
bur ned</w>
Kel ly</w>
c iti
T ex
L it
ff er</w>
pro ject</w>
pi g</w>
ca u
a do
ri s
k ing
ar gu
drin ks</w>
d le</w>
can cer</w>
P atri
fan cy</w>
ss a</w>
di o</w>
compli cated</w>
1 7</w>
ve ment</w>
s lu
ad d</w>
w et</w>
att rac
d ating</w>
ans wer
sub ject</w>
eg gs</w>
de si
S outh</w>
bag s</w>
fi lled</w>
do cu
crea te</w>
P ap
o k</w>
elec tri
pi ssed</w>
A T
y thing</w>
menti oned</w>
d ness</w>
re turned</w>
hun ting</w>
cap able</w>
an o
Satur day</w>
st yle</w>
ac i
foot ball</w>
R E
regre t</w>
rai sed</w>
bir ds</w>
sn ea
D or
roo ms</w>
har m</w>
h ook</w>
S an</w>
n on</w>
har der</w>
wh en
who re</w>
in iti
D NA</w>
0 s</w>
z a</w>
movi es</w>
dist ur
C I
gra ve</w>
under standing</w>
and -
y n</w>
an gel</w>
r ap
introdu ce</w>
mean ing</w>
K ir
x ing</w>
M e</w>
- How</w>
thous ands</w>
ni ghts</w>
Ma jor</w>
h h</w>
YO U</w>
ru pt</w>
r on</w>
T ro
concer n</w>
F ro
mp ire</w>
ma ma</w>
app y</w>
gro wn</w>
poin ts</w>
A lan</w>
bu ry</w>
fami lies</w>
per mission</w>
g ran
fi les</w>
co s</w>
chee se</w>
E ast</w>
ch ose</w>
W ould</w>
Mar k</w>
sh er</w>
pro per</w>
wa lls</w>
vi a</w>
to i
ex t
Dani el</w>
mi e</w>
brilli ant</w>
crea ted</w>
Sh h</w>
Bri an</w>
ani sh</w>
rec ently</w>
J ack
ava il
pi lls</w>
a mb
rin gs</w>
par ts</w>
incredi ble</w>
air port</w>
sol ve</w>
no ise</w>
la id</w>
rea sons</w>
re ven
gen ius</w>
hand some</w>
so cial</w>
quar ters</w>
p ost</w>
br ings</w>
regu lar</w>
e li
wi re</w>
con ven
bi lli
a du
lo s</w>
gro wing</w>
Ar my</w>
repe at</w>
bir th</w>
Mari a</w>
gh ost</w>
plan ned</w>
p tion</w>
who m</w>
a k</w>
con sci
f its</w>
R an
go ds</w>
war ning</w>
li cen
da r</w>
ci gare
inclu ding</w>
fin ds</w>
1 8
per cent</w>
P en
bed room</w>
in ven
der al</w>
m bo
fanta stic</w>
Phi l</w>
sp read</w>
sp are</w>
sh el
f ee
camp a
Uh- huh</w>
fel las</w>
ne u
medi cine</w>
gla sses</w>
G ary</w>
le -
- the</w>
star s</w>
di sh</w>
jack et</w>
fal ling</w>
Americ ans</w>
su e</w>
col or</w>
cen ter</w>
b one</w>
avail able</w>
J ones</w>
ga tive</w>
emp loy
chan ges</w>
S on
G l
tra p</w>
tch es</w>
insu rance</w>
ch o</w>
t is</w>
v o</w>
p al
char ges</w>
be tra
pu l
p ha
v is</w>
le tters</w>
imp ro
commun ity</w>
z zy</w>
uni or</w>
avo id</w>
ma ch</w>
ene mies</w>
S tu
ri ghts</w>
ri ding</w>
Mag gie</w>
gentle man</w>
watch ed</w>
nur se</w>
f ran
am i</w>
zz a</w>
val u
brea thing</w>
O liver</w>
c ting</w>
G ood
tri es</w>
M ay</w>
prot ection</w>
eig n</w>
de tective</w>
schedu le</w>
B el
your selves</w>
t elli
g or
bor ing</w>
blee ding</w>
t --</w>
i or</w>
Li sten</w>
ma ter
f ts</w>
Mex ico</w>
ti ckets</w>
re lea
o d</w>
el low</w>
contr act</w>
M os
Lu ke</w>
cla im</w>
ff s</w>
beha vi
mos tly</w>
M in
sin ging</w>
g ery</w>
Co mp
st an</w>
wi de</w>
sa u
inv ite</w>
cr ack</w>
Fran ce</w>
E liz
ste in</w>
gu e
dro ve</w>
do ctors</w>
Ex cuse</w>
h ous
ge ous</w>
stu dent</w>
b ene
Su san</w>
the tic</w>
s at</w>
os en</w>
ec tor</w>
sh e
ic a</w>
off ered</w>
a le</w>
z z</w>
pos ed</w>
requ est</w>
O U
il legal</w>
wit ne
sto mach</w>
ju st
fortun e</w>
re comm
me ter</w>
jeal ous</w>
exa mple</w>
basi cally</w>
the ory</w>
s care</w>
origin al</w>
co ach</w>
re l</w>
in ation</w>
exc iting</w>
Tex as</w>
s wa
C ra
re ck
in ess</w>
charac ter</w>
vo lun
pl ant</w>
al co
h o</w>
su gar</w>
chec king</w>
ble w</w>
ma r</w>
ma in
bi ke</w>
pu lling</w>
k -
D .</w>
or es</w>
cre e
D ay</w>
s ni
car rying</w>
O N</w>
ton gue</w>
lo wer</w>
Cali for
sp y</w>
Ho ward</w>
su rely</w>
repor ts</w>
h ou
scre wed</w>
cra sh</w>
O N
sig ns</w>
m and</w>
be gan</w>
Je ssi
A T</w>
A ye</w>
tra vel
chan ging</w>
Ju li
B os
fe male</w>
tre es</w>
B ru
L an
A s</w>
rescu e</w>
ev ent</w>
di ct</w>
cla i
when ever</w>
victi ms</w>
so ft</w>
lon ely</w>
rea ched</w>
b y
el ds</w>
N ah</w>
B lu
co w</w>
bur ning</w>
B or
so f
che mi
ani c</w>
&apos; clock</w>
H old</w>
moun tain</w>
par don</w>
hal f-
s no
stan ces</w>
sa tis
ph y</w>
g ang</w>
b ing</w>
n os
Indi an</w>
C ap
.A .</w>
z er</w>
sp ring</w>
si gh
vil le</w>
ag ree
direc t</w>
A w</w>
ti ed</w>
high -
reme mb
con du
Pe te</w>
I D</w>
Califor nia</w>
sc o</w>
V ir
me mbers</w>
cep tion</w>
T ed</w>
Lar ry</w>
ru in</w>
cou rage</w>
Mini ster</w>
Chu ck</w>
spo ken</w>
conne cted</w>
pp y</w>
k ins</w>
f ate</w>
brea d</w>
tw o-
re -
fac es</w>
bor row</w>
oc ca
lu re</w>
offi cial</w>
A lice</w>
mer cy</w>
neighbor hood</w>
M ad
F red</w>
D y
z ation</w>
on -
le ss
l d
ck ey</w>
prison er</w>
investi g
a st
R ose</w>
K o
ter ms</w>
mo tion</w>
divor ce</w>
am ount</w>
traffi c</w>
t ori
night ma
new sp
even tually</w>
stea ling</w>
oc cu
n is</w>
bab ies</w>
wa it
hi dden</w>
cho co
Leon ard</w>
pos itive</w>
ki cked</w>
A S
heal thy</w>
ce ment</w>
Lit tle</w>
p ounds</w>
il a</w>
Mar ty</w>
w ound</w>
ll -
sca ry</w>
ma ry</w>
pre vi
J or
sour ces</w>
O n
T ru
H un
wo re</w>
Jo ey</w>
m eal</w>
stri ct</w>
Ri ck</w>
Mor gan</w>
y in</w>
pa int</w>
hu mans</w>
tch ing</w>
ca b</w>
fac i
fi xed</w>
A t
l ab
- and</w>
for mer</w>
fl at</w>
Go t</w>
tou ched</w>
bu tt</w>
m ood</w>
cha se</w>
an cy</w>
swi m</w>
su m
li m
jour ney</w>
hi ll</w>
sand wi
obvi ous</w>
ex act</w>
man age</w>
i ds</w>
direc tly</w>
b i</w>
&apos; II</w>
ther e
be low</w>
ve -
st in</w>
pi lot</w>
mi ghty</w>
celebra te</w>
e du
ab bed</w>
vi o
pla te</w>
campa ign</w>
oin ted</w>
belon gs</w>
spi ri
le sson</w>
b ound</w>
an aly
J ap
Sta te</w>
wo ke</w>
tt ed</w>
ti p</w>
a beth</w>
particu lar</w>
viol ence</w>
tex t</w>
sto ck</w>
mi ser
R on</w>
pre ten
in j
b right</w>
mo ves</w>
ca go</w>
re gar
ma yor</w>
hel p
Lu cy</w>
pla yer</w>
exp ensive</w>
dis ease</w>
dis covered</w>
app ears</w>
Mat t</w>
K im</w>
y ne</w>
S ti
A L
suc cess
g gle</w>
co p
S k
pun ch</w>
fa shi
Whi ch</w>
U .S.</w>
S m
c he</w>
v ey</w>
ste ps</w>
confu sed</w>
s witch</w>
ra p</w>
sme lls</w>
fri gh
4 5</w>
D un
sex ual</w>
in o</w>
e pi
st itu
sp ell</w>
ll y
ci a</w>
b al</w>
su spi
ca used</w>
te sts</w>
lan ds</w>
Chri stian</w>
i ff</w>
disapp ear</w>
b a</w>
sc en
th ri
sh ine</w>
ly n</w>
deli ver
commit ted</w>
an k
val ue</w>
l ou
high er</w>
b ath</w>
ac u
Chi cago</w>
st able</w>
s ant</w>
poi son</w>
B au
s wea
murder er</w>
en gine</w>
stron ger</w>
gar age</w>
fir m</w>
solu tion</w>
direc tion</w>
roman tic</w>
cl ever</w>
Wor ld</w>
t our</w>
1 2
plea sed</w>
issu es</w>
d al</w>
a wake</w>
Ry an</w>
i ly</w>
f ella</w>
St .</w>
tech no
sh ape</w>
Mon day</w>
wher ever</w>
Th ree</w>
b ear
mb er
t all</w>
as soci
y ö
sur ve
me ters</w>
ga z
e tte</w>
camer as</w>
thro wing</w>
sh y</w>
na sty</w>
intelli gence</w>
gra du
F ir
par king</w>
hun dre
base ment</w>
TH E</w>
p han
ma tes</w>
licen se</w>
3 00</w>
ph ones</w>
memor ies</w>
jo y</w>
V eg
C our
de pre
co ck</w>
bor der</w>
P enny</w>
wa ited</w>
H am
ex tra
chea p</w>
screa ming</w>
crow d</w>
assa ss
Je ff</w>
liter ally</w>
sh ment</w>
s now</w>
re ss</w>
g lo
ell s</w>
ru sh</w>
ru ined</w>
vir us</w>
on a</w>
a tive</w>
mo del</w>
cr y
Sher iff</w>
toi let</w>
s in</w>
dam ned</w>
fa il</w>
U ni
l ace</w>
al arm</w>
ir ed</w>
gi ant</w>
engin e
A li
hi re</w>
b ones</w>
Th ur
Eliz abeth</w>
su spec
Bran don</w>
Ma ster</w>
G ab
te en
ob j
le c
g ment</w>
tra ined</w>
p et</w>
lo aded</w>
vehi cle</w>
in crea
G al
sex y</w>
mista kes</w>
l ers</w>
rea lity</w>
cor por
ad a</w>
to ast</w>
s car
pro gress</w>
gu ests</w>
va cation</w>
mb ling</w>
def end</w>
C ro
C han
war rant</w>
trea tment</w>
ha ted</w>
a side</w>
dist ance</w>
bu d
offi ci
cu rious</w>
chan ces</w>
ther ine</w>
A t</w>
well -
win ter</w>
t ap
pain ting</w>
ni gg
bra ins</w>
sch oo
mirac le</w>
al ter
Fe li
d der</w>
wo lf</w>
custo dy</w>
comp ani
reven ge</w>
war ri
good ness</w>
K aren</w>
sa r</w>
ri f
kne es</w>
atu re</w>
Prin ce</w>
tru sted</w>
assist ant</w>
poli tical</w>
grand father</w>
L A
Emi ly</w>
resu lts</w>
An ne</w>
rou te</w>
ha m
f oun
en dly</w>
di ence</w>
coo per
app ointment</w>
T im</w>
B ab
Pap a</w>
J un
E d</w>
y ellow</w>
wa ve</w>
st in
sil ver</w>
p lo
photo s</w>
appro pri
an ne</w>
Li sa</w>
trea ted</w>
ther ing</w>
sea son</w>
at ch</w>
St an
sudd en</w>
Sm ith</w>
w ings</w>
col lea
sh a</w>
reli gi
war n</w>
sur gery</w>
con ference</w>
de ck</w>
tr ou
se tting</w>
physi cal</w>
disgu sting</w>
co ll
circum stances</w>
Na z
tr apped</w>
no -
fin an
ex change</w>
butt on</w>
U S
pi zza</w>
ci se</w>
ab ly</w>
se ction</w>
p on
B roo
ter m</w>
st al
fri end
K eep</w>
psy chi
laun ch</w>
pati ents</w>
Jac kie</w>
a unt</w>
hou se
dol lar</w>
dep ends</w>
Ale x
w ly</w>
v ent</w>
n in
ac hi
Sp anish</w>
Shel don</w>
S ec
sacrifi ce</w>
s se</w>
Jac o
od d</w>
b an</w>
no thin</w>
att orney</w>
al le
. D.</w>
ri sh</w>
t ank</w>
squ are</w>
app ear</w>
z ero</w>
ti cally</w>
h ost</w>
cen tra
be lt</w>
b les</w>
Jack son</w>
reme ly</w>
lea ds</w>
V ery</w>
An nie</w>
u re</w>
ne gative</w>
ad mi
suc cess</w>
b ran
A l</w>
C en
Fir st</w>
on line</w>
li ber
f ea
easi ly</w>
K at
fac ts</w>
mi ster</w>
de cent</w>
sist ers</w>
h ei
sur ren
convin ce</w>
G il
some time</w>
choco late</w>
fe deral</w>
pu re</w>
li p</w>
li c</w>
eff ect</w>
shoul der</w>
manag ed</w>
har d
W ha
P ut</w>
De partment</w>
ther n</w>
su cks</w>
rea son
mo bi
ac ts</w>
Lin da</w>
Eu rope</w>
ow ner</w>
t ear</w>
os ter</w>
dev ice</w>
hundre ds</w>
g gy</w>
chi e</w>
sy ste
jer k</w>
esc aped</w>
S ea
d ust</w>
T O</w>
Han nah</w>
ti me
equi pment</w>
Ri cky</w>
shi ft</w>
s ke
it ation</w>
grand mother</w>
consi dered</w>
plac ed</w>
on i
j am
ext remely</w>
spec tor</w>
mul ti
fri endly</w>
ba dly</w>
N ope</w>
prin cess</w>
do zen</w>
desp erate</w>
clean ing</w>
Mi ller</w>
vi ces</w>
to es</w>
oc ean</w>
dar kness</w>
cor n</w>
pack age</w>
fle et</w>
ble ss</w>
relea sed</w>
hous es</w>
e dge</w>
ac e
Vic tor</w>
pres ence</w>
af fair</w>
prin ci
D onna</w>
ur a</w>
lea ding</w>
ab and
z ens</w>
t re</w>
soci ety</w>
e sti
S he
ther ed</w>
sen t
prot ecting</w>
vers ity</w>
some day</w>
pi es</w>
some thin</w>
ill ance</w>
b its</w>
tal ly</w>
st rea
for est</w>
CI A</w>
tri gger</w>
ma lly</w>
advan tage</w>
vic tory</w>
provi de</w>
pas sing</w>
stra tion</w>
pi l
cy cle</w>
con centra
Ro y</w>
5 ,000</w>
- Hey</w>
ou ts</w>
it es</w>
f all
est ab
re move</w>
de b
z one</w>
sco re</w>
poi son
du mp</w>
E li
thi ef</w>
deser t</w>
Lo s</w>
br ary</w>
ten ing</w>
sin s</w>
re y</w>
M el
H igh
volun te
prin t</w>
int end</w>
for ces</w>
direc tor</w>
ki es</w>
sho ck</w>
ce l</w>
cha sing</w>
W ar</w>
hel ps</w>
hu man
Sta n</w>
re pu
eg g</w>
d d</w>
Ju lia</w>
uni verse</w>
g al
K ri
th ree
g ton</w>
B ir
f ed</w>
ch ap
Do es</w>
win ning</w>
t ings</w>
milli ons</w>
gos h</w>
m ou
t ant</w>
nu clear</w>
P or
wri ter</w>
surve illance</w>
peri od</w>
spor ts</w>
F ine</w>
as sure</w>
su ffer</w>
To by</w>
sa v
sa le</w>
smo king</w>
rob ber
ro le</w>
Sec re
Dou g</w>
wh eel</w>
techno logy</w>
prison ers</w>
9 0</w>
pri est</w>
laugh s</w>
K u
pu ty</w>
ff in</w>
ell ed</w>
ma gaz
an der</w>
agree ment</w>
star ing</w>
Mar cus</w>
Clar k</w>
v ul
pros ecu
ki lls</w>
est ate</w>
A c
en vi
see k</w>
O R
E l</w>
sens itive</w>
d ates</w>
cha in</w>
pu ts</w>
p ly</w>
ag ne</w>
ag ents</w>
re ti
be coming</w>
ta x
pa tter
ju ice</w>
elev i
sy n
pl es</w>
in ti
gar den</w>
fi shing</w>
s or</w>
mu st
mon key</w>
youn ger</w>
high ly</w>
enti rely</w>
l den</w>
fac tory</w>
bul ance</w>
stran ger</w>
op tion</w>
fal se</w>
con diti
pe e</w>
ob se
G ree
C ur
ma gi
fle sh</w>
whi sp
f ying</w>
am bulance</w>
Jessi ca</w>
Andre w</w>
vo lu
sur r
ro l</w>
ch osen</w>
D er
de mo
rema ins</w>
de mon</w>
U S</w>
sent ence</w>
r i</w>
ha tes</w>
com man
con stru
clos ing</w>
as ha
Le s
H it
Mo lly</w>
Jaco b</w>
bastar ds</w>
S han
ma sk</w>
S hi
cli mb</w>
b age</w>
r and</w>
Ra y
ver sion</w>
iti ons</w>
guaran tee</w>
bl on
attemp t</w>
troo ps</w>
li qu
bo t</w>
tt ered</w>
t elevi
r are</w>
non sense</w>
S to
ta sk</w>
li ps</w>
ge on</w>
tri bu
St even</w>
O w</w>
ex er
con clu
Ab out</w>
non -
he h</w>
sp ar
h m</w>
auth ority</w>
temp or
bu st</w>
al ert</w>
scre en</w>
de ca
ll et</w>
engag ed</w>
bu m</w>
zo mb
ca stle</w>
back up</w>
Z e
tra il</w>
sp on
sear ching</w>
de man
b es</w>
appro ach
tch er</w>
cu tting</w>
fin ger
a bu
p in</w>
abo ard</w>
B la
h itting</w>
dra g</w>
cra ft</w>
lar ly</w>
g li
Z o
T al
Grand ma</w>
uni form</w>
Go ver
th at
ang le</w>
an ger</w>
yö u</w>
fu el</w>
sil ence</w>
M m
8 0</w>
ki ll
stu dents</w>
sa telli
qu ali
ali en</w>
n ut</w>
f ence</w>
Sen ator</w>
S il
kno cked</w>
tr ace</w>
ru de</w>
hun g</w>
deta il</w>
Bo y</w>
B e</w>
challen ge</w>
Offi cer</w>
poli cy</w>
mo ments</w>
mid night</w>
co ordin
S pi
yl or</w>
sa ge</w>
pot ential</w>
lo an</w>
appropri ate</w>
ac ted</w>
K ra
ca bin</w>
am my</w>
D E
exper t</w>
a .
tra sh</w>
for eign</w>
da tion</w>
St ay</w>
R al
I C
ve s
de bt</w>
ti le</w>
p se</w>
la ws</w>
den y</w>
con ta
stop ping</w>
inf lu
fai lure</w>
er o
convin ced</w>
proce du
un its</w>
eu r</w>
T ha
or a</w>
confir m</w>
asha med</w>
y n
li on</w>
ell er</w>
- Why</w>
u d</w>
supp ly</w>
ri p</w>
at ors</w>
tt in</w>
mir ror</w>
s l
ri an</w>
sur face</w>
lo ving</w>
he li
co inci
Par k</w>
sho pping</w>
e sar</w>
c is</w>
au dience</w>
Lu ci
2 2</w>
z es</w>
su al</w>
sk ey</w>
ic s</w>
be comes</w>
an cient</w>
ac tual</w>
An n</w>
ma dam</w>
ci es</w>
A ri
ck -
b id</w>
Russi ans</w>
br a</w>
D al
- Do</w>
terrori st</w>
ob li
jo king</w>
ha ll
C l
su its</w>
tal ent</w>
ster n</w>
slo wly</w>
re call</w>
ra tion</w>
C ri
w ling</w>
h its</w>
soli d</w>
th ou</w>
s mi
wa sting</w>
trans fer</w>
chu ckles</w>
bea st</w>
gover nor</w>
da y
suffer ing</w>
fuck ers</w>
e k</w>
con o
syste ms</w>
sy mbo
ima ge</w>
cur rent</w>
tun nel</w>
refu se</w>
ju mped</w>
coun ting</w>
I -
ex plan
jo ined</w>
ing -
bea ting</w>
John son</w>
Afri ca</w>
sla ve</w>
C ould</w>
threa tened</w>
sol ved</w>
i sy</w>
gu es</w>
con sequ
Veg as</w>
Po lice</w>
Ch ina</w>
u ses</w>
sa l</w>
gar bage</w>
speci fic</w>
pre cious</w>
bul lets</w>
G un
uni on</w>
televi sion</w>
stea dy</w>
sli p</w>
separ ate</w>
ac qu
ne t
ga ther</w>
P la
O c
w ns</w>
el ection</w>
V o
l and
can dy</w>
sou p</w>
mar ks</w>
lo ver</w>
li brary</w>
S T
N ina</w>
D ea
Car ter</w>
ph a</w>
consi dering</w>
ey e
m .</w>
ef fort</w>
ee z</w>
cou ch</w>
cir cle</w>
ro mi
medi a</w>
wan ting</w>
sp ending</w>
s mu
ma id</w>
champ agne</w>
F la
ma l
an no
T erry</w>
ro cks</w>
centu ry</w>
k ly</w>
viol ent</w>
v ani
ri er</w>
e ter
confir med</w>
ur ed</w>
use ful</w>
sta ys</w>
h y</w>
dist rac
we ed</w>
ho l</w>
Tu es
S hit</w>
Li ly</w>
S ean</w>
s wing</w>
clos et</w>
ma ke
Ne w
tal ks</w>
hear ts</w>
Re d
win ner</w>
chi ll</w>
T -
tch ed</w>
la ting</w>
Wil son</w>
B l
1 9</w>
ck le</w>
Mi ami</w>
Lou is</w>
ven ture</w>
Jos e
I S</w>
- in-
un usual</w>
mur ders</w>
lo tte</w>
lo a
colle ct</w>
S E
K no
I N</w>
pu shing</w>
ag er</w>
survi ved</w>
plea sant</w>
la d</w>
Mat the
r ape</w>
se ven
indi vi
dest ru
to wer</w>
Ger mans</w>
Dy lan</w>
D ec
ll o</w>
fer red</w>
inve st
cros sed</w>
consci ous</w>
sigh s</w>
L oo
C os
use less</w>
sha l</w>
ma g
grea ter</w>
rece ive</w>
Wh it
ro t</w>
pla ys</w>
coo king</w>
Thur sday</w>
shar p</w>
S op
Re be
sm oo
hu g</w>
da me</w>
cli ents</w>
J ay</w>
Angel es</w>
no tes</w>
quar ter</w>
C H
indivi du
Fran k
Bren da</w>
- Don</w>
p anic</w>
or ities</w>
Ita lian</w>
b bie</w>
believ able</w>
Wal ker</w>
2 1</w>
un g</w>
me ssed</w>
king dom</w>
arti st</w>
Who a</w>
A N</w>
some place</w>
clea red</w>
c ca</w>
B re
A ar
rememb ered</w>
ho pe
crea ture</w>
witne sses</w>
ter ed</w>
p ity</w>
desi re</w>
Les lie</w>
A pri
sna ke</w>
U gh</w>
gr ace</w>
gor geous</w>
bit ches</w>
su it
ent ity</w>
Ta ylor</w>
hur ting</w>
Hon or</w>
mu sc
di rt</w>
comp romi
believ es</w>
g ear</w>
co w
ch ers</w>
behavi or</w>
Car la</w>
robber y</w>
in cident</w>
chi ck</w>
wor k
do or
ac tive</w>
L at
&apos; S</w>
success ful</w>
pri de</w>
Sp ec
Patri ck</w>
An y</w>
tt i</w>
therap y</w>
han ded</w>
boo ts</w>
J unior</w>
C lu
emo tional</w>
disapp ointed</w>
W ar
Coun ty</w>
th or
s and</w>
messa ges</w>
car ried</w>
- Well</w>
trac king</w>
frea king</w>
ch y</w>
Le o</w>
F ar
perfor man
bri ef
ho ly</w>
ti ci
dou b
appro ach</w>
I .</w>
nor mally</w>
en tr
supp lies</w>
par ties</w>
kin ds</w>
C i
an ni
Bro wn</w>
C in
Vin ce</w>
ri te</w>
r d</w>
i an</w>
four th</w>
an na</w>
part ners</w>
lear ning</w>
li f
care fully</w>
F le
E mma</w>
Apri l</w>
nightma re</w>
for ms</w>
Hel en</w>
der son</w>
de signed</w>
B ay</w>
ro lling</w>
l le</w>
f on
bl in
J .</w>
off ering</w>
ev ents</w>
auth ori
B ec
- Where</w>
myst ery</w>
Co le</w>
repor ted</w>
bl an
B oo
1 7
free ze</w>
Fro m</w>
deci sions</w>
ca s</w>
Tues day</w>
w ounded</w>
screa m</w>
degre es</w>
assa ult</w>
M E</w>
se i
o x
m me</w>
betra yed</w>
Ma c</w>
clu e</w>
S ou
J enny</w>
op pos
il er</w>
I T</w>
repor ter</w>
deli cious</w>
de cl
bb ing</w>
aband oned</w>
L E
win dows</w>
conven i
S har
ssi ons</w>
ch at</w>
alco hol</w>
- So</w>
vi sible</w>
mo der
fir ing</w>
Val ent
los er</w>
ha ir
d ated</w>
1 5
st a</w>
or able</w>
fre qu
fall en</w>
c tive</w>
arri ve</w>
N ever</w>
Inter net</w>
sig n
mater ial</w>
igno re</w>
cover ing</w>
a ti
Lo ve</w>
w en</w>
st r
sett led</w>
hon our</w>
Coo per</w>
t itude</w>
logi cal</w>
en ced</w>
ac tions</w>
z o</w>
pas sen
cer e
Gor don</w>
wor thy</w>
a i
po w
se ly</w>
proper ly</w>
in va
dist in
Wat ch</w>
stra te
popu lar</w>
p oo
bu sted</w>
trac ks</w>
re d
fal ls</w>
thro wn</w>
repu tation</w>
ma ri
comfor t</w>
com in</w>
ca ble</w>
Ca esar</w>
war ned</w>
jour na
Ger many</w>
or e
e cono
Jor dan</w>
- Are</w>
op tions</w>
faci lity</w>
chil d
arran ge
R en
E ve</w>
fo cu
respon se</w>
bb er</w>
2 -
to ward</w>
pa thetic</w>
mini ster</w>
explan ation</w>
Gre en</w>
we l</w>
tr unk</w>
stru c
comm it</w>
civi li
reason able</w>
re min
me tal</w>
envi ron
ea ten</w>
L un
Is land</w>
pres ents</w>
it ty</w>
At lan
s wal
na il</w>
Ka tie</w>
wi pe</w>
tw enty</w>
tt es</w>
si de
jo int</w>
ex pre
ski lls</w>
poli tics</w>
fi c
ab or
Ken ne
sho e</w>
ru b</w>
friend ship</w>
pi pe</w>
ex it</w>
sandwi ch</w>
happ iness</w>
surren der</w>
si a</w>
secre tary</w>
H appy</w>
Bau er</w>
- A</w>
tal kin</w>
re fle
in n</w>
e go</w>
deser ves</w>
embarra ssing</w>
blo wn</w>
d or
co re</w>
Ro bin</w>
Elli ot</w>
prin ce</w>
ban g</w>
Cen tral</w>
the -
ta ges</w>
eri es</w>
ck ers</w>
at a</w>
H y
mb o</w>
sig ni
serv ation</w>
me l
lin k</w>
Go d
tr ay</w>
pu shed</w>
de termin
E N
col n</w>
M m-
si on
heli cop
bi lls</w>
- Okay</w>
resu lt</w>
Char lotte</w>
A lli
tt on</w>
p ink</w>
impre ssive</w>
fla g</w>
app le</w>
W el
ro e</w>
proce ed</w>
oc cur
ma ker</w>
jud gment</w>
hy po
N O
rela ted</w>
pri ck</w>
mar k
dea ler</w>
coinci dence</w>
o be
ci p
bar s</w>
flo wer</w>
co ast</w>
S in
y ards</w>
tra u
there fore</w>
Aar on</w>
K ur
elev ator</w>
arti cle</w>
cell s</w>
Fran kie</w>
th ony</w>
a x
ri son</w>
three -
l er
ho les</w>
cur se</w>
inst in
d enti
good- bye</w>
dest iny</w>
bur g</w>
Ha w
Fran ci
20 0
va mpire</w>
squ ad</w>
lan ding</w>
fru it</w>
ca de
bo ar
D .
wi shes</w>
to co
mit ted</w>
jun gle</w>
ho p</w>
g gs</w>
yo n</w>
performan ce</w>
ev es</w>
Some thing</w>
H ell</w>
tit le</w>
Su per
R O
Ju lie</w>
Car los</w>
of -
n an
inter ro
pla y
ev ed</w>
ent y-
T hi
ei gh
E a
So me</w>
Al i</w>
re ward</w>
wa llet</w>
sk u
sil ent</w>
loy al</w>
att itude</w>
O ld</w>
C op
pot a
desp ite</w>
1 -
sea ts</w>
moun tains</w>
ca p</w>
O ur</w>
M y
- But</w>
G ir
E than</w>
7 0</w>
ta x</w>
mu si
stop s</w>
re presen
pro pos
er or</w>
Os car</w>
Lin coln</w>
V an</w>
ve st</w>
sen ior</w>
deli very</w>
Indi ans</w>
3 5</w>
stra igh
stat us</w>
p it</w>
A p
wor n</w>
terri fic</w>
base ball</w>
Mur phy</w>
ter y</w>
pri ze</w>
cos tu
confi dence</w>
bu sh</w>
od ds</w>
down town</w>
Pi er
scri pt</w>
na p</w>
ea s</w>
tele phone</w>
techni cally</w>
t ons</w>
newsp aper</w>
ge ttin</w>
neighb or</w>
l -
A sh
y ο
whi skey</w>
s ounded</w>
pos sibility</w>
min ation</w>
hear t
C all</w>
lly wood</w>
l ds</w>
con trac
M ason</w>
Ber lin</w>
- She</w>
net work</w>
ca kes</w>
I .
z e
terri tory</w>
gui de</w>
fav our</w>
sle y</w>
oun ding</w>
S qu
Ever ything</w>
kidn apped</w>
holi day</w>
cho ices</w>
Phi lli
prot ected</w>
la test</w>
T an
v ag
s oul
profe ssor</w>
pla in</w>
loy alty</w>
co me
n n</w>
dro w
champ ion</w>
Bos ton</w>
An thony</w>
1 4
mean time</w>
figh ter</w>
P D</w>
wa gon</w>
valu able</w>
supp or
mi cro
conne ct</w>
as ses</w>
M um</w>
shi eld</w>
wa sted</w>
se c</w>
pp ers</w>
ca ge</w>
bor ed</w>
Mi ch
Fran cis</w>
temp er
son gs</w>
rea ction</w>
do ll</w>
de mand</w>
char ged</w>
respon d</w>
re be
or ing</w>
billi on</w>
and a</w>
satelli te</w>
plan es</w>
go al</w>
degre e</w>
b at</w>
Na tional</w>
ght ful</w>
cur ren
Mm m-hmm</w>
2 3</w>
offici ally</w>
re p
squ ee
g gie</w>
ear n</w>
ac ci
esc ort</w>
ser ving</w>
rec ent</w>
g all
Th or
wi ves</w>
gue ssing</w>
for th</w>
Ti me</w>
th -
lo e</w>
I sn</w>
w rap</w>
sel fish</w>
fe at</w>
ba dge</w>
ho mi
si mi
ni gger</w>
rif le</w>
p ers</w>
gen erous</w>
coun ter</w>
mobi le</w>
foo tage</w>
dro pping</w>
Ho llywood</w>
Har old</w>
mu se
gri d</w>
gh tly</w>
g al</w>
dra gon</w>
brea ks</w>
tou ching</w>
spea ks</w>
so a
l or
gg ling</w>
di ag
clean ed</w>
an xi
- They</w>
sta ke</w>
rec ru
mo vement</w>
inter rupt</w>
a ver
Mon roe</w>
1 ,000</w>
wal ks</w>
preten ding</w>
di gging</w>
bu t
tax i</w>
pro toco
lu c
ir on</w>
G ran
scra tch</w>
impre ssed</w>
der ation</w>
b en</w>
te sting</w>
ob ject</w>
E D</w>
swe at</w>
l i</w>
ho ped</w>
h ers</w>
confe ssion</w>
v it
ow ns</w>
m our</w>
compet ition</w>
an ese</w>
activ ity</w>
S ecu
Car rie</w>
wea l
st ered</w>
i so
Che ers</w>
tre ss</w>
ra m</w>
colle ction</w>
boo m</w>
an c
tea ching</w>
reck on</w>
miser able</w>
magaz ine</w>
gra m</w>
pap er
gl ory</w>
re mot
fu l
cl ini
ar gue</w>
Wa yne</w>
Vir gin
Te ddy</w>
G H
Du ke</w>
r out
k ar
ge e</w>
el and</w>
bru sh</w>
B loo
ne ph
bro wn</w>
arre n</w>
La ura</w>
F ra
A la
id entity</w>
b ble</w>
H er</w>
tra v
ki ssed</w>
deliver ed</w>
bu g</w>
ach es</w>
Pri me</w>
the e</w>
na tive</w>
Be tty</w>
me tho
S ay</w>
Hit ler</w>
Be th</w>
out fit</w>
Na vy</w>
Mar gare
survi v
gra ss</w>
th ouse</w>
ca ts</w>
ca ls</w>
hi d</w>
off ense</w>
man u
m med</w>
gu ts</w>
blo cks</w>
t one</w>
t ine</w>
H all</w>
Da mn</w>
t ears</w>
si eur</w>
previ ously</w>
mi xed</w>
b last</w>
ani e</w>
ac compli
Fl ori
enjo ying</w>
can di
Rebe cca</w>
0 0
trea sure</w>
f ever</w>
R am
1 0,000</w>
pp le</w>
fran kly</w>
be half</w>
B y</w>
entr ance</w>
b o</w>
S el
no ble</w>
n t</w>
in te
hu mili
S pen
Hi gh</w>
A tt
sk in
bloo d
a k
A unt</w>
ta r</w>
clai ms</w>
v ance</w>
re moved</w>
hos tage</w>
di an</w>
P ho
terri bly</w>
sa il</w>
pea ce
cri mes</w>
ag gre
Ed ward</w>
mp i
&apos; t
vi le
v ity</w>
shit ty</w>
sha dow</w>
pre ci
pow der</w>
ni ck
lo ws</w>
c ea
bri de</w>
ap ology</w>
ab a
H ou
qu ality</w>
particu larly</w>
ff ed</w>
blo wing</w>
bl ed</w>
Ron nie</w>
sp it</w>
po e
i ce
accep ted</w>
Wha t
tu b</w>
th less</w>
pri se</w>
hun ter</w>
as ks</w>
Ru s
loy d</w>
V an
Bru ce</w>
stu dio</w>
mot or
com mer
V en
H uh</w>
se ts</w>
ni ce
ber ry</w>
L ev
Jos h</w>
st ant</w>
practi cally</w>
cri sis</w>
P op
Mor ning</w>
speci fi
confe ss</w>
- -
wor kers</w>
sist ance</w>
mar ch</w>
leg end</w>
f lies</w>
ear ned</w>
co ward</w>
Sop hi
Sh ould</w>
wa ter
hal f
bal ance</w>
O u
identi fy</w>
coll ap
b and
H ur
ri ce</w>
ner ve</w>
ac tor</w>
Virgin ia</w>
G us</w>
lo cks</w>
l ap
di vi
cru sh</w>
col m</w>
L I
cigare tte</w>
c i</w>
beg ins</w>
ad vance</w>
ac es</w>
Na than</w>
Al pha</w>
- Who</w>
serv ant</w>
me chan
bomb s</w>
ro b</w>
fa ir
exi st
ser vices</w>
list s</w>
da wn</w>
bu ll</w>
stand ard</w>
mi x</w>
bro ad
Ro man</w>
Pal mer</w>
Ch loe</w>
pi ck
her e
en ted</w>
Cla u
procedu re</w>
loo kin</w>
ar ro
1 6
ul ti
bri ef</w>
W ed
C .</w>
- This</w>
un believable</w>
requ est
fi cation</w>
Comp any</w>
C T
t itu
tor ture</w>
su cker</w>
mb s</w>
law yers</w>
hope fully</w>
att ach
symp a
pro file</w>
K yle</w>
n ity</w>
cap tured</w>
b re
ap o
T ea
p el
co -
Mal colm</w>
un comfortable</w>
s -</w>
recor ding</w>
n es</w>
instru ctions</w>
guil t</w>
g oo
bac ks</w>
s man</w>
pri vile
per man
p sy</w>
life time</w>
hero es</w>
dra wing</w>
ca red</w>
N ancy</w>
fe tch</w>
s i</w>
p acked</w>
gu s</w>
Un der
tri cks</w>
si ck
off -
Jap anese</w>
re hear
in ger</w>
gy m</w>
custo mers</w>
Grand pa</w>
explos ion</w>
chi p</w>
Je sse</w>
tr o</w>
stru ck</w>
n eath</w>
bu tter</w>
Valent ine</w>
In spector</w>
y body</w>
sp in
lan ded</w>
citi zens</w>
bo xes</w>
bi o
sea l</w>
s can</w>
fla sh</w>
On ly</w>
Margare t</w>
beg ging</w>
C ru
sp in</w>
in ch</w>
si an</w>
com ment</w>
Sher lock</w>
O .
w ins</w>
seri es</w>
Russi a</w>
Eri k</w>
B an
oppos ite</w>
exer cise</w>
S and
Ch ap
A ir</w>
- Is</w>
mon ds</w>
f are</w>
F al
wo w</w>
s its</w>
ori a</w>
le d
g rant</w>
embarra ssed</w>
Po p</w>
P an
Blu e</w>
swi mming</w>
in er</w>
e es</w>
char ming</w>
ch eating</w>
Jun e</w>
produ ct</w>
i ge</w>
ho mes</w>
help ful</w>
h en
k er
tran spor
tab les</w>
r ose</w>
p ee
descri be</w>
W en
pat rol</w>
inf ected</w>
impre ssion</w>
Ral ph</w>
A n</w>
vers ary</w>
t to</w>
neph ew</w>
be e</w>
a im</w>
Ja mie</w>
stri p</w>
le st</w>
de pos
tra itor</w>
re minds</w>
cos ts</w>
aw k
Ma y
sp er</w>
S yl
ti ming</w>
h s</w>
consequ ences</w>
auth orities</w>
assho les</w>
sti cks</w>
pro j
lo g</w>
home work</w>
ear ance</w>
bo ats</w>
Sta r</w>
Matthe w</w>
Der ek</w>
puni shment</w>
par ano
me l</w>
B ry
under neath</w>
arran ge</w>
il le</w>
i er</w>
frigh tened</w>
de ter
coun cil</w>
Ma u
wo l
t its</w>
can cel</w>
U m</w>
S au
suspi cious</w>
sc ent</w>
ma ssive</w>
ma ss</w>
m us</w>
commit tee</w>
Flori da</w>
warri or</w>
tran sport</w>
ti al</w>
t os
lea k</w>
in ts</w>
hol ds</w>
emp lo
Wed ne
Gre g</w>
G rant</w>
4 00</w>
sk a</w>
ou l</w>
ing ly</w>
after wards</w>
Ty ler</w>
Sco t
Ca use</w>
neighbor s</w>
mor al</w>
mon sters</w>
Da isy</w>
speci es</w>
je wel
go lden</w>
g ates</w>
disa gre
adu lt</w>
L a</w>
E gy
re sources</w>
re fer
influ ence</w>
disa ster</w>
de di
attrac tive</w>
F ive</w>
st ance</w>
sho wn</w>
ma th</w>
jo kes</w>
gen e
ba il</w>
accu sed</w>
th ful</w>
t ball</w>
Bi ble</w>
B ee
1 3
suffer ed</w>
pos t
ex ten
shar ed</w>
T on
Spec ial</w>
P S</w>
Li z</w>
Kar l</w>
th le
star ving</w>
roo m
adi se</w>
ab lo</w>
W ant</w>
Secu rity</w>
H ill</w>
-in- law</w>
sal t</w>
pre su
mp er</w>
e x</w>
D A</w>
A ah</w>
st al</w>
answer ing</w>
Je an
me ssing</w>
ki cking</w>
de feat</w>
Gre en
d in</w>
Le w
poli ce
on e
ca ttle</w>
P att
Bra d</w>
ox y
ma j
ex hau
s ack</w>
go lf</w>
fil thy</w>
Hel p</w>
zz le</w>
patter n</w>
cro wn</w>
R ee
y l</w>
g ust</w>
P ea
at e
answer ed</w>
sig nature</w>
ll ins</w>
stu dying</w>
pas sion</w>
ill u
g ru
t us</w>
idi ots</w>
c ents</w>
For ce</w>
sh ort
ot el</w>
f loo
pla stic</w>
ho t
dri ll</w>
c ee
Who o</w>
No ah</w>
wa re
t ent</w>
re place</w>
st or</w>
sku ll</w>
s wit
inter rup
ve ge
travel ing</w>
ser geant</w>
mani pu
inter national</w>
fa irs</w>
ag ency</w>
To dd</w>
Mon t
st ones</w>
snea k</w>
shel ter</w>
gr oss</w>
gi fts</w>
fin est</w>
er m</w>
M itch
Lea ve</w>
Ear l</w>
ve lo
pri me</w>
crea tures</w>
classi c</w>
Lu cas</w>
tea ms</w>
surr ounded</w>
ra tes</w>
qu a
on ic</w>
jo ining</w>
infor med</w>
g ang
argu ment</w>
Pe ople</w>
g an
divor ced</w>
S tr
F ree
Bab y</w>
Ab by</w>
s ar
inter vie
edu cation</w>
Mil es</w>
Mar shall</w>
Chri stop
Broo k
fle w</w>
fa sc
d die</w>
z on</w>
threa tening</w>
terrori sts</w>
refu sed</w>
ou ting</w>
mb led</w>
ever ly</w>
cru el</w>
Se th</w>
D ex
19 8
sla ves</w>
on y
n atur
st es</w>
fav ou
awk ward</w>
att acks</w>
all -
a id</w>
I ra
z ard</w>
tto o</w>
ski p</w>
re lev
arran ged</w>
any time</w>
Du de</w>
organi zation</w>
ki ssing</w>
din gton</w>
be have</w>
Qu i
ke ts</w>
No body</w>
si p</w>
qui e
kill ers</w>
ha ra
el a</w>
di scre
Par ker</w>
Don ald</w>
u ps</w>
simi lar</w>
s ab
hea l</w>
eng age</w>
dam mit</w>
back ground</w>
su peri
sin k</w>
rout ine</w>
or an
mor tal</w>
bla de</w>
R A
Mo ve</w>
Mex ican</w>
wor ker</w>
tra ge
p ound</w>
dee ply</w>
da le</w>
crimin als</w>
Franci sco</w>
y elling</w>
psychi atri
fac ing</w>
cul ture</w>
ab s</w>
recomm end</w>
ne st</w>
n ear
laun dry</w>
coun ter
L ane</w>
ves sel</w>
spiri ts</w>
reali se</w>
mor s</w>
com mander</w>
app li
Ru th</w>
Ma yor</w>
M as
K enny</w>
E mp
under ground</w>
pen is</w>
list ened</w>
re volu
signi fic
rab bit</w>
incredi bly</w>
fra me</w>
bea m</w>
- Let</w>
visit ing</w>
ta ttoo</w>
r aped</w>
pros titu
must n</w>
c unt</w>
Sha w</w>
S on</w>
wonder ed</w>
posse ssion</w>
finan cial</w>
d it
st eel</w>
br and</w>
C O
yο u</w>
sh eep</w>
pur se</w>
our ed</w>
du ck</w>
N ight</w>
Dex ter</w>
4 8</w>
thea ter</w>
sa fer</w>
s se
cu ts</w>
con spir
I T
im mun
ca ve</w>
Spen cer</w>
Gover nor</w>
tu m</w>
extra ordinary</w>
de pen
Jose ph</w>
E va</w>
- Come</w>
ro yal</w>
d les</w>
- Can</w>
rin ging</w>
fun ction</w>
cree py</w>
Jer sey</w>
Gab ri
Fre ddy</w>
se ssion</w>
ph e
in tel</w>
de puty</w>
Mari e</w>
Is ra
un known</w>
soul s</w>
infor m</w>
e z</w>
thr ough
ra ts</w>
insi st</w>
exper im
S ally</w>
Lew is</w>
K an
Ad mi
en tal</w>
Y o</w>
B ack</w>
ven ess</w>
lu m</w>
ll is</w>
estab li
do pe</w>
Tur k</w>
S ammy</w>
Je wish</w>
ri ly</w>
man n</w>
j ack</w>
ca ine</w>
L A</w>
Clu b</w>
C .
re du
den i
cur ed</w>
pre vent</w>
in her
ex tre
ble -
I rish</w>
mo tive</w>
eff ects</w>
do ck</w>
Ly dia</w>
Admi ral</w>
nigg a</w>
enjo yed</w>
d ential</w>
bene fit</w>
att end</w>
Car son</w>
z an</w>
ri gh
er a</w>
con science</w>
cha rity</w>
assu ming</w>
Ray mond</w>
st ori
foo lish</w>
es a</w>
be ef</w>
assa dor</w>
La ke</w>
C y
B un
mo s</w>
indu stry</w>
du mped</w>
be loved</w>
hor n</w>
G la
p ted</w>
for gi
fac ed</w>
da ugh
cli mb
Ma dame</w>
Ca therine</w>
symp to
st eri
sho re</w>
lon g-
gh os
fur n
diti onal</w>
What ever</w>
su res</w>
helicop ter</w>
eff ective</w>
Ch urch</w>
ven ue</w>
ran dom</w>
paper work</w>
mp y</w>
ma ted</w>
de cor
W all</w>
N ed</w>
fashi on</w>
ben eath</w>
W y
V ol
Ma ke</w>
Hol mes</w>
trea ting</w>
to y</w>
sa mple</w>
focu sed</w>
r hy
ol d-
bar a</w>
Wedne sday</w>
O R</w>
B everly</w>
A m
interest s</w>
ea ts</w>
dis ci
child hood</w>
b ay</w>
as sig
ap ers</w>
por n</w>
peri meter</w>
pati ence</w>
lea ders</w>
citi zen</w>
Th ese</w>
1 ,
un like</w>
pul se</w>
pro pose</w>
le ans</w>
bo wl</w>
R oss</w>
tw el
oun ce</w>
in e
- E
te sted</w>
experi ment</w>
en try</w>
comb at</w>
approach ing</w>
lo cker</w>
gi a</w>
con tain
R ever
pi cal</w>
o le</w>
high est</w>
requi re</w>
En ter
n ings</w>
gu it
ca ting</w>
b os
ali st</w>
S H
H oo
mp les</w>
fif ty</w>
custo mer</w>
ban ks</w>
ang els</w>
ad venture</w>
ta le</w>
per form</w>
de sign</w>
ca sin
accoun ts</w>
M erry</w>
rob bed</w>
gre ss
as sy</w>
So vi
Ro ck</w>
sc an
communi cation</w>
Ri ver</w>
9 11</w>
rin k</w>
cu e</w>
C lay</w>
sli pped</w>
pain ful</w>
moder n</w>
d- up</w>
constru ction</w>
concentra te</w>
Mar tha</w>
Di rec
vo ices</w>
mon s</w>
ly mp
hon ey
he ck</w>
dra gged</w>
di plo
uni que</w>
ran ch</w>
C e
wa shed</w>
u n</w>
ta g</w>
pre mi
con tribu
bur ger</w>
P ablo</w>
sor s</w>
inven ted</w>
g ard</w>
d un
con fli
Har vey</w>
A h
per su
favou rite</w>
consu l
civi l</w>
Mar s</w>
ra de</w>
pi ano</w>
drea ming</w>
conditi ons</w>
as y</w>
P ope</w>
Hon ey</w>
to x
figu res</w>
co lon
W H
liqu or</w>
grand ma</w>
d ele
W ood
4 -
- Good</w>
&apos; T</w>
v ac
half way</w>
di ction</w>
determin ed</w>
bo tt
na r</w>
b ree
aver age</w>
at t</w>
ad mini
V E</w>
v age</w>
sma ller</w>
f low</w>
cere mony</w>
smi ling</w>
oran ge</w>
fasc in
Di ane</w>
con vic
r ts</w>
in visible</w>
exc lu
c ans</w>
pi le</w>
pa ys</w>
ne tt</w>
l ing
i ry</w>
gener ation</w>
fro zen</w>
ag ed</w>
S la
C le
B y
A .
inj ured</w>
ha mmer</w>
fee ding</w>
demon s</w>
ble ssed</w>
Star k</w>
I D
Angel a</w>
7 5</w>
thi ck</w>
so m</w>
shor tly</w>
it e
d oo
d ges</w>
D ev
tempor ary</w>
ta p</w>
sh ell</w>
medi cation</w>
hos tages</w>
dia monds</w>
ba it</w>
testi fy</w>
stan tly</w>
se le
kee per</w>
hero in</w>
go at</w>
dra wn</w>
di stri
con qu
chec ks</w>
P ru
fif th</w>
all er
S ol
S ab
G rand</w>
Bar bara</w>
compani es</w>
cigare ttes</w>
cap ital</w>
T rac
Di ck</w>
tur ing</w>
natur ally</w>
lim ited</w>
lev els</w>
lea n</w>
w ounds</w>
too ls</w>
tion ally</w>
stran gers</w>
sac red</w>
ro ads</w>
j o</w>
ir o</w>
Vin cent</w>
C -
ran e</w>
o o</w>
h on</w>
fun d</w>
anti -
mer ely</w>
l ac
e- bye</w>
al u
San dy</w>
Pi per</w>
vir gin</w>
questi oning</w>
coun ty</w>
anni versary</w>
S ig
Pa ige</w>
ur gent</w>
sugge sting</w>
sh -
r ounds</w>
fi ghts</w>
costu me</w>
Tro y</w>
J o</w>
occa sion</w>
ju mping</w>
enter ed</w>
cow boy</w>
chan nel</w>
Af gh
y a
w ears</w>
te ch</w>
p acking</w>
main tain</w>
investig ating</w>
bab y
Tra vis</w>
F our</w>
Da le</w>
quot e</w>
pat ch</w>
mother fuckers</w>
lo ck
for med</w>
Indi a</w>
Ca sey</w>
li ck</w>
cri tical</w>
wa i
trage dy</w>
re mark
li eutenant</w>
in spi
p ages</w>
ex posed</w>
P .
Mi ckey</w>
L en
Di dn</w>
5 0,000</w>
va ri
sli de</w>
mo mmy</w>
bon d</w>
ba sic</w>
Y ear</w>
Mitch ell</w>
K in
Alex ander</w>
ver i
ce i
you --</w>
ti vely</w>
pla yers</w>
fi anc
be lly</w>
Mo re</w>
y e
sa tions</w>
fi elds</w>
car go</w>
b bi
vul ner
tra dition</w>
thir sty</w>
che er</w>
Lou ise</w>
J ess</w>
Bri dge</w>
si e</w>
sho t
pit ch</w>
inst itu
equ al</w>
e- mail</w>
re present</w>
mee tings</w>
ho pes</w>
f ans</w>
dre w</w>
dre ssing</w>
di ce</w>
co caine</w>
b on</w>
An ton
E .
under wear</w>
relev ant</w>
ne ls</w>
lo cated</w>
homi cide</w>
bear d</w>
al li
Star fleet</w>
A m</w>
- All</w>
ware house</w>
vi sual</w>
min ate</w>
inv itation</w>
ght ning</w>
experi enced</w>
dra ma</w>
coordin ates</w>
St one</w>
5 -
war p</w>
roo t</w>
multi ple</w>
mag ne
imp act</w>
fai ry</w>
S par
priv acy</w>
N ate</w>
Ca mer
wea kness</w>
sen ds</w>
pas sport</w>
na ils</w>
gr abbed</w>
do c</w>
Bl ack
pi gs</w>
gu t</w>
clos est</w>
b or</w>
K ing
Feli x</w>
z ar
we ir
oxy gen</w>
human ity</w>
exist ence</w>
Wat son</w>
Den nis</w>
Bra vo</w>
ste pped</w>
sal ad</w>
safe ly</w>
ma ll</w>
inde pen
hi stori
ten der</w>
so ber</w>
seri al</w>
pun k</w>
bar n</w>
assig nment</w>
A s
2 7</w>
u nex
squ ir
Par ty</w>
B enny</w>
rea u</w>
N el
D ur
pay ment</w>
p .
ne tte</w>
mon t</w>
confi dent</w>
- Just</w>
tt ering</w>
temper ature</w>
sca le</w>
k le</w>
it ors</w>
gran ted</w>
H ans</w>
suspec ts</w>
j eez</w>
Christop her</w>
AN D</w>
sta tions</w>
sna p</w>
mar ked</w>
Swe dish</w>
Bur t</w>
wi l
tun e</w>
imagin ation</w>
concer t</w>
bu d</w>
be gun</w>
Ni co
t .</w>
o tic</w>
fo ld</w>
e b</w>
d --</w>
sh ee
ri dge</w>
re plac
oo dy</w>
mp son</w>
mach ines</w>
ha bit</w>
f ted</w>
dama ged</w>
curren tly</w>
Mi ck</w>
D O
sugge sti
struc ture</w>
fu ll-
dri ven</w>
docu ments</w>
do me</w>
clini c</w>
a wa
shar ing</w>
re turning</w>
lou sy</w>
le ment</w>
boo ze</w>
Dav is</w>
v au
sti cking</w>
requi res</w>
mu d</w>
gen tle</w>
deb ate</w>
cho os
be side</w>
zomb ie</w>
stro ke</w>
par ent</w>
fe e</w>
concer ns</w>
ag en
N ic
Gu y</w>
strea m</w>
lo cate</w>
gri ef</w>
bo thering</w>
T re
Rever end</w>
K han</w>
High ness</w>
Gl en
An ything</w>
thir ty</w>
scienti st</w>
pen ny</w>
myst eri
anno ying</w>
N eal</w>
G ro
3 -
suc ce
r ine</w>
che at</w>
H m</w>
Fo x</w>
- in</w>
twel ve</w>
i f
d rank</w>
ble ed</w>
Man ny</w>
Ju ly</w>
Che ster</w>
stre tch</w>
sa s</w>
ff y</w>
E ag
C re
ss ment</w>
sa il
re view</w>
op ens</w>
l ene</w>
b out</w>
Ro ber
ff ing</w>
cha os</w>
W ol
- Not</w>
survi val</w>
specifi cally</w>
sau ce</w>
pri ority</w>
mor on</w>
la ds</w>
ki lo
c tion
Ju lian</w>
through out</w>
ni c</w>
itu re</w>
fre sh
St ev
wol ves</w>
smoo th</w>
Tar zan</w>
S ho
F it
E S</w>
Al bert</w>
sibi lities</w>
W ea
T emp
R and
R I
P ear
symbo l</w>
p ron
li mit</w>
er -
ea ble</w>
cap ture</w>
assu med</w>
a h
V ice</w>
Bea u
coun ts</w>
cir cus</w>
Ser vice</w>
K ha
t i</w>
re pea
ous ness</w>
min or</w>
de -
che f</w>
batt ery</w>
Nor man</w>
D is
you th</w>
tra iler</w>
stru ggle</w>
is m</w>
gi an</w>
bla h</w>
satis fied</w>
ra dar</w>
cha mber</w>
s nu
fli p</w>
Y oun
Mm- hm</w>
Gree k</w>
wor ries</w>
re ver
ologi cal</w>
ghos ts</w>
co ke</w>
ca tching</w>
A bra
- Did</w>
y ell</w>
ti l</w>
supp er</w>
sear ched</w>
j am</w>
inten tion</w>
deser ved</w>
ali ens</w>
L ou</w>
unfortun ate</w>
ti a</w>
produ ction</w>
lo w-
la h</w>
in tru
emo tions</w>
can e</w>
bor ro
admi re</w>
R ag
Kir k</w>
Bar ney</w>
w ood
ow ned</w>
hand led</w>
environ ment</w>
chi ps</w>
I an</w>
H otel</w>
stea k</w>
s ks</w>
pro mot
dea f</w>
Ha y
Afgh ani
A llen</w>
pi sto
cal cu
b end</w>
at ory</w>
al ley</w>
a to
Wal t</w>
Vi et
hu mor</w>
ca li
T it
- Hi</w>
v ation</w>
ra il
g loves</w>
ffi cient</w>
collea gue</w>
cha sed</w>
Son ny</w>
tro l</w>
la ying</w>
comple x</w>
b oot</w>
Ro ad</w>
O ut</w>
Gl oria</w>
resi st</w>
musc le</w>
d less</w>
ab du
Swe den</w>
Mon sieur</w>
H al</w>
2 nd</w>
- lt</w>
jun k</w>
b our
L O
C as
t anks</w>
brea ch</w>
R oom</w>
N y
ven s</w>
kne e</w>
h r
cou ra
Kur t</w>
terri fied</w>
clo wn</w>
Wel come</w>
U C
N ev
Isa ac</w>
1 .
un ts</w>
repor ting</w>
guit ar</w>
develo ped</w>
Secre tary</w>
3 0
sig ning</w>
mista ken</w>
identi fied</w>
deman ds</w>
cer ti
appro ve</w>
Y an
O F</w>
Ni k
M itch</w>
wi s
strate gy</w>
sh i</w>
me t
k ings</w>
fra ud</w>
Y u
V ar
un happy</w>
ne ck
muse um</w>
hoo ked</w>
ex cu
char m</w>
bea ts</w>
W arren</w>
occur red</w>
ma ture</w>
W ester
Qu inn</w>
Mar shal</w>
Ar i</w>
A ma
ri ot</w>
rai sing</w>
pu mp</w>
pra yer</w>
pla tes</w>
an ony
Jer e
C ho
ti er</w>
ta ke
squee ze</w>
so da</w>
so -
rev ea
logi st</w>
le s
imagin ed</w>
enter ing</w>
ch ri
ro bot</w>
r act</w>
gen e</w>
di son</w>
daugh ters</w>
Some one</w>
S O
P at
O l
L ong</w>
C assi
ph ra
less ons</w>
d ney</w>
ab an
Ne il</w>
H os
insu lt</w>
di strict</w>
der i
d ous</w>
Can ada</w>
&apos; s-
we b
trans ferred</w>
shoo ter</w>
reli ef</w>
poison ed</w>
dee per</w>
d re</w>
Viet na
st abbed</w>
free zing</w>
en der</w>
coo kies</w>
a ms</w>
To o</w>
Cour t</w>
Afghani stan</w>
x on</w>
whe els</w>
protoco l</w>
pi ed</w>
jam in</w>
ir man</w>
in spir
g ant</w>
epi so
O lymp
Cra w
su m</w>
ro cket</w>
promi ses</w>
k it</w>
collea gues</w>
Sea ttle</w>
G y
Co llins</w>
ri pped</w>
religi ous</w>
ex t</w>
corpor ate</w>
V a
Rus sell</w>
A -
v ar
manag ement</w>
assist ance</w>
S pain</w>
G ina</w>
Ber n
ta tions</w>
puni shed</w>
p our</w>
lun gs</w>
P ol
Fre ddie</w>
E llen</w>
ta stes</w>
obse ssed</w>
inter nal</w>
inf ection</w>
h it
gl ori
fanta sy</w>
dy na
dri ves</w>
Th ink</w>
Hou ston</w>
H allo
Con gress</w>
2 8</w>
wor rying</w>
va mpi
re ment</w>
pu ppy</w>
pre si
pas ses</w>
missi le</w>
continu es</w>
smar ter</w>
n in</w>
S how</w>
Ri chie</w>
P in
Je ws</w>
Brook lyn</w>
ru mors</w>
radi ation</w>
pro fit</w>
pre t
head quarters</w>
fol k</w>
Ste ph
un able</w>
too th</w>
sti ce</w>
sea led</w>
p rea
m in</w>
g ons</w>
disci pl
de ss
blan ket</w>
Ever ybody</w>
thr one</w>
chemi cal</w>
bea ten</w>
abi lities</w>
Red dington</w>
Gre g
remot e</w>
person nel</w>
H as</w>
D ri
Ca mp
Au gust</w>
stor age</w>
ster o
ph ine</w>
parano id</w>
p ag
mi gra
f it
drea med</w>
classi fied</w>
Prin cess</w>
19 9
tw ins</w>
ten s</w>
quie tly</w>
pr o</w>
gr ay</w>
f rac
dre y</w>
co des</w>
cade my</w>
an ce
Ke ith</w>
Coun cil</w>
testi mony</w>
condu ct</w>
app ly</w>
W ill
P os
L ance</w>
A very</w>
wa n</w>
ma tches</w>
h in
S tra
C E
wr apped</w>
pha se</w>
individu al</w>
hor se
c ities</w>
Nor way</w>
Dani sh</w>
1 st</w>
signific ant</w>
psy cho</w>
immedi ate</w>
distri bu
d son</w>
bur den</w>
E i
Ben jamin</w>
photograp h</w>
ke e</w>
employ ees</w>
co lonel</w>
ble ssing</w>
Lo gan</w>
Gir l</w>
&apos; m
Y up</w>
F ort</w>
D eath</w>
stu b
produ ce</w>
negoti ate</w>
mi stress</w>
le e</w>
i ses</w>
gre e
end ant</w>
differ ently</w>
di ve</w>
di al</w>
bur ns</w>
bu ck</w>
ad ver
F an
wa ves</w>
v et</w>
propos al</w>
man ner</w>
la p</w>
l ings</w>
A x
n -
Ti mes</w>
T r
Si x</w>
Eu ro
in ner</w>
en i
ca su
be ans</w>
a than</w>
W est
o p</w>
no w
j ah</w>
g on
forgi veness</w>
de ton
Wy att</w>
Den mark</w>
exi sts</w>
dou ble-
coo kie</w>
3 2</w>
uni versity</w>
do s</w>
2 6</w>
u ne
p here</w>
mot el</w>
con test</w>
be tray</w>
Se ba
Ita ly</w>
H ector</w>
2 ,000</w>
st ring</w>
pro te
ol a</w>
gu m</w>
gen u
engin es</w>
coun tries</w>
cl ou
Jo han
Cor por
st ates</w>
pla gue</w>
home less</w>
bu tter
S .
P M</w>
min ated</w>
m ouse</w>
foo ls</w>
co lu
R ita</w>
L .A.</w>
C am
schoo ls</w>
p le
los op
j i</w>
explos i
di sor
aff ect</w>
T .</w>
Ro yal</w>
Ali son</w>
- There</w>
wis dom</w>
sc ho
men tary</w>
fri dge</w>
destru ction</w>
clai med</w>
attach ed</w>
Mi a</w>
- Get</w>
ste p
re sistance</w>
po ker</w>
lo w
comp ound</w>
cho p</w>
busin ess
a mon
S car
zo o</w>
requ ired</w>
re tired</w>
mysteri ous</w>
di g
ban ds</w>
B at
A C
pro m</w>
inten se</w>
di um</w>
blo ws</w>
tou ri
t our
leg ally</w>
j i
g age</w>
furn iture</w>
f red</w>
Jen ni
wi dow</w>
vulner able</w>
tru cks</w>
t s
rin a</w>
fi a</w>
dro ps</w>
d ley</w>
wh el
we en</w>
sh ri
sal es</w>
pre -
gu id
dre sses</w>
discu ssion</w>
con de
ac cent</w>
st atu
s giving</w>
ro tten</w>
dia mond</w>
W ere</w>
S ur
O pen</w>
M oun
ti ger</w>
imp er
a. m.</w>
Uni on</w>
O li
Mi d
K ent</w>
Fe deration</w>
u ts</w>
shot gun</w>
kno cking</w>
just --</w>
inst ance</w>
fri ed</w>
dea d
Willi ams</w>
qu es</w>
pre scri
po ckets</w>
for en
Se p
Fu cking</w>
Ca tho
Bro dy</w>
pal ace</w>
figh ters</w>
sen ti
ro de</w>
p y
ma cy</w>
k night</w>
blon de</w>
Har ris</w>
shoul ders</w>
ma gni
at mos
absolu te</w>
Sch ool</w>
Ho lly</w>
si es</w>
popu lation</w>
fi xing</w>
en velo
da ily</w>
Wil lie</w>
Or leans</w>
Jo an</w>
Col le
B lan
Andre a</w>
- O
- F
oper ate</w>
ma xi
del ay</w>
b ling</w>
S po
La wr
Jenni fer</w>
vampi res</w>
th us</w>
relation ships</w>
kidn apping</w>
g oods</w>
Lawr ence</w>
Cal eb</w>
B ron
ha il</w>
e ments</w>
consi der
analy sis</w>
Mich elle</w>
Mar co</w>
L L</w>
Kenne dy</w>
E in
thin g
sp a
del u
aban don</w>
4 2</w>
under stands</w>
regar ding</w>
increa se</w>
P it
visit ors</w>
high way</w>
al es</w>
Sk y
R ab
Philli p</w>
Ju dy</w>
A man
- B
remark able</w>
pp i</w>
Phi lip</w>
Mu mmy</w>
19 6
to e</w>
sympto ms</w>
mo d
lea gue</w>
inten ded</w>
finger prints</w>
ev acu
en -
ch in</w>
c ried</w>
pain ted</w>
grap h</w>
engine er</w>
engag ement</w>
di vision</w>
cap ac
back wards</w>
v ali
sti cs</w>
schedu led</w>
p per
he sit
g ee
fi lling</w>
conspir acy</w>
al ties</w>
Th ank
wi ll
v ard</w>
sli ghtly</w>
passen gers</w>
op s</w>
gh er</w>
cra shed</w>
Hallo ween</w>
Gu ard</w>
perman ent</w>
m ite</w>
en ses</w>
bo l
aw fully</w>
air craft</w>
Hun ter</w>
10 -
tion ary</w>
spo tted</w>
n ell</w>
bud get</w>
Ho w
Frank lin</w>
Cur tis</w>
regi stered</w>
puni sh</w>
par ked</w>
deter mine</w>
P ort
P erry</w>
Me gan</w>
Car ol</w>
é e</w>
y --</w>
to ps</w>
to on</w>
re verse</w>
nee dle</w>
grap hi
en for
cu ffs</w>
apologi es</w>
Steph en</w>
sor ts</w>
mi r</w>
li c
gi es</w>
fon d</w>
cour te
c ti
Tho mpson</w>
S A</w>
Ju stin</w>
val ry</w>
hea vi
dea ths</w>
bul ous</w>
abu se</w>
L ang
B each</w>
ar ch
a tic</w>
Mon ica</w>
L as
Ju d
to s</w>
con vi
bud dies</w>
advi se</w>
acci den
L loyd</w>
Jon as</w>
D re
Camer on</w>
to re</w>
sho ve</w>
near by</w>
la tor</w>
honey moon</w>
ex hi
acqu ain
Ro cky</w>
Lin d
Direc tor</w>
A po
pi ll</w>
or phan
o lu
imp ul
dea dly</w>
d ant</w>
comp e
S even</w>
D ro
to ys</w>
ri a</w>
pe an
journa list</w>
gress man</w>
fi ve-
ex press</w>
Con nor</w>
ver t</w>
v i</w>
therap ist</w>
prepar ing</w>
n it
al -
Ex actly</w>
C er
&apos; mon</w>
threa ts</w>
threa ten</w>
ta te</w>
room mate</w>
o ath</w>
mar rying</w>
i gh</w>
di sh
descri ption</w>
commit ment</w>
Val ley</w>
V e
- ha</w>
super vi
peace ful</w>
n ea
mon itor</w>
contro lled</w>
chap ter</w>
Tea m</w>
C enter</w>
ten nis</w>
sla p</w>
s w
phi losop
mo b</w>
lli n</w>
ga mbling</w>
e mail</w>
di et</w>
L .
ur s</w>
shee ts</w>
pro ph
ca bin
bu cket</w>
sh h</w>
loa ding</w>
gr ounds</w>
dess ert</w>
ch a</w>
as signed</w>
U l
Na ta
G oo
E mpire</w>
Ba ker</w>
oper ations</w>
li ghtning</w>
g g</w>
disp os
chec k
a do</w>
sur geon</w>
re stra
civi lian</w>
bu mp</w>
Au drey</w>
tur key</w>
ter ia</w>
suspec ted</w>
preci sely</w>
discu ssed</w>
chea ted</w>
R .</w>
Ira q</w>
I R
F ord</w>
v ere</w>
tra gic</w>
thi eves</w>
si onal</w>
sha king</w>
religi on</w>
pa tion</w>
mp tion</w>
li se</w>
ju ana</w>
j et</w>
bac on</w>
Sto ck
Ab solu
four -
ent it
electri c</w>
a mp
re ha
pri mary</w>
la me</w>
fi res</w>
commer cial</w>
K or
E N</w>
skin ny</w>
shi re</w>
lan e</w>
la us</w>
ic y</w>
deni ed</w>
Jon athan</w>
I --</w>
B ell</w>
A ir
6 00</w>
wit ches</w>
suspi ci
s have</w>
o wn
missi ons</w>
hi p</w>
g rin
Sta tion</w>
Nic ho
H ugh
- My</w>
tu be</w>
mo thers</w>
ho o</w>
de la
d ary</w>
arrange ment</w>
accep table</w>
Oc to
5 0
vau lt</w>
un ning</w>
swal low</w>
ser va
oper ating</w>
mea sure</w>
fif teen</w>
ch ess</w>
avo i
Seba stian</w>
min us</w>
i ley</w>
dis cover</w>
boar ding</w>
ali bi</w>
B j
pre ssed</w>
p ti
g st</w>
fi led</w>
cor pse</w>
cla sses</w>
bo dy
Mi key</w>
Mc C
B ene
we e</w>
t ance</w>
no ld</w>
lar gest</w>
hon ored</w>
eri e</w>
employ ee</w>
casin o</w>
boo ked</w>
stub born</w>
min es</w>
is er</w>
invest ment</w>
inva sion</w>
compu ters</w>
Sher man</w>
Ju dge</w>
sub j
slu t</w>
rev eal</w>
pil low</w>
g lu
er man</w>
al o
Sophi e</w>
L Y</w>
E die</w>
stu died</w>
soa p</w>
os ity</w>
fun ds</w>
el ing</w>
dro wn</w>
crac y</w>
Wen dy</w>
P am</w>
terr or</w>
sa mples</w>
re ception</w>
intelli gent</w>
hand ling</w>
for mation</w>
de par
cor rup
ab bing</w>
Mi gu
ti re</w>
ro ws</w>
pra ying</w>
pos itions</w>
police man</w>
pi c</w>
li ze</w>
her d</w>
far mer</w>
fa thers</w>
ec tions</w>
dr one</w>
Enter prise</w>
wi cked</w>
vi e</w>
tar ge
bar gain</w>
Vi k
Rand all</w>
P h
Nor we
G O
wre ck</w>
vo d
te mple</w>
stitu te</w>
sa kes</w>
pos ted</w>
plan ted</w>
o int</w>
mother fucking</w>
extre me</w>
depos it</w>
cont acts</w>
Nu mber</w>
Dal las</w>
An derson</w>
grou ps</w>
expla ined</w>
dra matic</w>
def endant</w>
cros sing</w>
c tly</w>
ac tress</w>
tea chers</w>
si re</w>
p lot</w>
nice ly</w>
fe sti
bal lo
L ad
C rai
Bi shop</w>
to wel</w>
te dly</w>
so cks</w>
m our
develo pment</w>
ch -
belon ged</w>
Stu art</w>
tr yin</w>
succe ed</w>
st ag
so re</w>
rac ing</w>
for mu
din al</w>
det ec
app eal</w>
B E
4 7</w>
we igh
sugge sted</w>
s wore</w>
ri c</w>
ho lo
confli ct</w>
br ac
a tional</w>
Wo lf</w>
Che ck</w>
CT U</w>
Aman da</w>
x ima
to ler
ti ps</w>
surviv ors</w>
re j
plu g</w>
missi oner</w>
m less</w>
fir st-
b b</w>
No ve
Migu el</w>
M en
Ar nold</w>
1 50</w>
a mu
P ra
Del ta</w>
swee p</w>
re treat</w>
loo p</w>
di gn
bi an</w>
Je w</w>
E ven</w>
C al</w>
st ink</w>
request ed</w>
m at</w>
le f
l it</w>
exhau sted</w>
e nor
chi cks</w>
apologi se</w>
Mo on</w>
sc ru
poli te</w>
esti mate</w>
comp ared</w>
centu ries</w>
bar rel</w>
Vic tori
K er
Ju stice</w>
I S
F ly
Du tch</w>
B ear</w>
Absolu tely</w>
shu ttle</w>
po le</w>
magi cal</w>
ca using</w>
ad es</w>
V il
A K
unex p
u x</w>
so il</w>
cl oud</w>
be e
Rea dy</w>
J on</w>
Ha wai
An na
A venue</w>
wa ters</w>
unti e</w>
leg iti
investi gate</w>
hel met</w>
bu gs</w>
Th ose</w>
vo y</w>
provi ded</w>
previ ous</w>
ni ece</w>
man ners</w>
make up</w>
coun sel</w>
co ws</w>
co in</w>
ha ck</w>
compla in</w>
amon gst</w>
Su z
Ho me
Hi lls</w>
Don nie</w>
shi elds</w>
ph ant</w>
p har
lim its</w>
liber ty</w>
ta xes</w>
se vere</w>
in ha
de er</w>
che ster</w>
a thle
Sovi et</w>
H ei
Bon d</w>
ap es</w>
ac id</w>
a i</w>
x y</w>
tar gets</w>
pa int
har d-
civili ans</w>
S till</w>
E s
ty pical</w>
separ ated</w>
person ality</w>
par ole</w>
ko v</w>
fi sh
cur sed</w>
by e-bye</w>
K itty</w>
u te</w>
th is
rea r</w>
luc ki
gro w
comp re
al o</w>
Wa de</w>
Le ster</w>
Cin dy</w>
Au stra
re gard</w>
lar ger</w>
b ears</w>
Z a
W A
Har rison</w>
visit ed</w>
t ful</w>
reli eved</w>
oo p</w>
in ches</w>
an tly</w>
vod ka</w>
superi or</w>
im ing</w>
fa st
fa bulous</w>
exa min
al bum</w>
Nove mber</w>
Jon ah</w>
J i
B rea
whi p</w>
for ts</w>
bas is</w>
Do yle</w>
stra te</w>
se t
scen ari
re turns</w>
over whel
ke tball</w>
compli ment</w>
Trac y</w>
Thank sgiving</w>
P ur
win d
sho cked</w>
pro ved</w>
der ship</w>
cu p
comb ination</w>
bri ck</w>
bor g</w>
an i</w>
stu re</w>
happ ier</w>
elec tr
do ms</w>
cha mp</w>
bur st</w>
bott les</w>
U p</w>
S ki
D evil</w>
A ra
te mber</w>
ri k</w>
ga tions</w>
fascin ating</w>
d man</w>
conveni ent</w>
cele bri
candi date</w>
S wi
re cover</w>
oo kie</w>
mo tiv
li sm</w>
introdu ced</w>
in qui
he ir</w>
ear th
day light</w>
can cel
believ ing</w>
b earing</w>
T ran
Sha ll</w>
Li fe</w>
war t</w>
ta tt
ra w</w>
poe try</w>
per pe
m uni
gene tic</w>
com a</w>
G rac
whe el
st ain</w>
she et</w>
pro motion</w>
or n</w>
aci ous</w>
U N
Qu e
Mos cow</w>
An gel</w>
under cover</w>
su cking</w>
inter f
associ ate</w>
ab s
C at
tor n</w>
ti gh
sen ten
l eng
inclu de</w>
co pies</w>
co m</w>
ama te
W on
W it
N ee
D C</w>
vi l</w>
tal ented</w>
scre wing</w>
man -
liz ation</w>
k u
dan cer</w>
Sil ver</w>
Octo ber</w>
O hh</w>
Crai g</w>
B run
Af ter</w>
- Thank</w>
vi gi
ta lity</w>
pas sage</w>
ga thered</w>
d ose</w>
ad ded</w>
K id</w>
C ec
u h
mean while</w>
ma ssa
list ed</w>
fair ly</w>
disagre e</w>
contro ls</w>
be ings</w>
Lea gue</w>
Lau rel</w>
3 6</w>
t oss</w>
la wn</w>
enti ally</w>
bor ne</w>
ad orable</w>
Sep tember</w>
Sen ate</w>
S olo
Ma x
Li am</w>
Gri mm</w>
Co lu
A mb
mis understanding</w>
ma dness</w>
communi cate</w>
ap ing</w>
19 7
tt an</w>
too th
surpri ses</w>
s p</w>
ru mor</w>
ow es</w>
atmos phere</w>
Sa mu
J .
I -</w>
Hugh es</w>
8 00</w>
y ton</w>
suit case</w>
scienti sts</w>
s ers</w>
mi ll</w>
dra wer</w>
app eared</w>
I i
H A
Di ego</w>
C am</w>
po em</w>
k ot
gro cer
cooper ate</w>
adu lts</w>
Fl int</w>
De bbie</w>
su ite</w>
ss en
pre dic
obe y</w>
no vel</w>
le ton</w>
le gi
expla ins</w>
depre ssed</w>
crac ked</w>
communi cations</w>
W ells</w>
2 .
z el</w>
u pper</w>
tw enty-
ra d</w>
oun d
ho lm</w>
ar a</w>
appro xima
Th er
K een</w>
I mp
Dan a</w>
C ree
than k
on ey</w>
glori ous</w>
en er</w>
emb assy</w>
diag nos
af fairs</w>
Pre tty</w>
rea ct</w>
pro vo
na ugh
i o</w>
episo de</w>
en sure</w>
champ i
ap ti
anxi ous</w>
alter native</w>
Y ou
P at</w>
Naz i</w>
six -
ro lled</w>
neck lace</w>
gi g</w>
fri es</w>
app earance</w>
TH AT</w>
Re ed</w>
y u
mi cs</w>
a ries</w>
S it</w>
S id</w>
B .</w>
scienti fic</w>
na vi
en cing</w>
bi g-
Cla us</w>
y man</w>
y i
ti ous</w>
par a
arri val</w>
X -
T own</w>
R ev
10 0,000</w>
tu ral</w>
sho w
j unior</w>
gri p</w>
gr en
expre ssion</w>
du g</w>
dign ity</w>
R ei
Oli via</w>
K en</w>
J ean</w>
twi st</w>
re pair</w>
plan ts</w>
per spec
men u</w>
k n
ha tch</w>
fashi oned</w>
bro ad</w>
aggre ssive</w>
Vietna m</w>
Ne ws</w>
B oss</w>
ro d</w>
i um</w>
ex pos
el ected</w>
def ea
co pe</w>
a x</w>
Jap an</w>
H .
E M
C ly
p an</w>
me d
la zy</w>
de ed</w>
bas ket</w>
To wer</w>
Su lli
Po lly</w>
P a</w>
B ank</w>
visit or</w>
st are</w>
sen ator</w>
pisto l</w>
fai thful</w>
ex pe
cho pper</w>
c cer</w>
an ces</w>
J an</w>
wi ped</w>
insu l
ha ttan</w>
frea ked</w>
ev ol
comp ar
bar be
appro val</w>
L ena</w>
E asy</w>
Bo y
par ade</w>
organi zed</w>
ma ils</w>
hu mble</w>
fi cent</w>
aff ected</w>
T rev
H ope</w>
su cked</w>
Ly n
n i</w>
mi a</w>
happ ily</w>
execu ted</w>
bas ketball</w>
ar chi
Mu sli
Mer lin</w>
Lat in</w>
D ol
4 th</w>
wit z</w>
trans mission</w>
hi lls</w>
head ache</w>
g ins</w>
frequ ency</w>
deli cate</w>
announ cement</w>
advan ced</w>
Ever yone</w>
Ch ee
temp er</w>
ri g</w>
recor ded</w>
neu ro
lo bby</w>
anony mous</w>
Cha se</w>
ru g</w>
pra yers</w>
mar ine</w>
lea ther</w>
hos tile</w>
ex tin
bro ther
ar eas</w>
any a</w>
S imp
un fair</w>
st ling</w>
quali fied</w>
ou tra
met res</w>
che er
cabin et</w>
buil dings</w>
Sulli van</w>
M .</w>
tis sue</w>
t reason</w>
sta b</w>
shi rts</w>
rea ds</w>
os e
for getting</w>
dis co
coo ked</w>
ar se</w>
an ch
Catho lic</w>
su b</w>
sh rink</w>
sel or</w>
revolu tion</w>
re infor
lea dership</w>
gi mme</w>
f oul</w>
en na</w>
dea ls</w>
con stant</w>
ce ssa
ca tes</w>
bu ff
Stan ley</w>
O per
C rane</w>
wa shing</w>
par adise</w>
ill ness</w>
envelo pe</w>
def ending</w>
a ye</w>
K ay</w>
Fly nn</w>
Ex cell
Do g</w>
trac ked</w>
the irs</w>
shi pment</w>
over night</w>
bur nt</w>
be ers</w>
Nico le</w>
L ight</w>
B il
volunte er</w>
so le
ser ves</w>
rea r
ima ges</w>
guaran te
ev ing</w>
bb les</w>
S tri
Ree se</w>
O ri
Ber nie</w>
wel s</w>
weal th</w>
wait ress</w>
ser van
roman ce</w>
poin ted</w>
no- one</w>
in jury</w>
def ence</w>
Mar ine</w>
thu mb</w>
sh outing</w>
pop s</w>
jud ging</w>
in i</w>
er ror</w>
ef forts</w>
di ary</w>
celebra ting</w>
ag a</w>
Loo ks</w>
B lake</w>
t ool</w>
sca l
s worn</w>
naugh ty</w>
am mo</w>
Pier ce</w>
Dea d</w>
Atlan tic</w>
wor m</w>
m ere</w>
grap hy</w>
g it
ff le</w>
du des</w>
M .
Isra el</w>
H and</w>
B -
tor tured</w>
t less</w>
so le</w>
produ cer</w>
pe t
maxi mum</w>
lo wed</w>
go -
P aw
th west</w>
sc and
re tri
pla t
lab or</w>
la tes</w>
hor ror</w>
el ly</w>
car pet</w>
bo thered</w>
achi eve</w>
ven ge
val ley</w>
tt ery</w>
tap es</w>
sin ger</w>
j an
crea ting</w>
ca ly
c ran
announ ce</w>
U R
Ros ie</w>
Den ise</w>
Ca stle</w>
An gie</w>
th al</w>
ne at</w>
drow ned</w>
clu bs</w>
Li ber
Go ld
Emp eror</w>
Ash ley</w>
- ass</w>
warri ors</w>
vi an</w>
sp ray</w>
so ccer</w>
gen tly</w>
ga thering</w>
for bi
enfor cement</w>
S li
Man hattan</w>
Juli ette</w>
vot es</w>
st ors</w>
perspec tive</w>
ne cessa
en coura
co ffin</w>
Re x</w>
Ka therine</w>
Do min
Car ol
Ac tually</w>
z er
un conscious</w>
th am</w>
tatt oo
stu ffed</w>
shar k</w>
reti rement</w>
re covered</w>
any ways</w>
S S</w>
3 1</w>
stre ssed</w>
sin g
privile ge</w>
impre ss</w>
ess a</w>
du ties</w>
crea tive</w>
con cept</w>
cen tre</w>
c tu
boo k
Shan e</w>
Ma ya</w>
Jere my</w>
Di ana</w>
Al fred</w>
st all</w>
lar s</w>
fa g
do re</w>
a like</w>
Co dy</w>
Bro ther</w>
wor thless</w>
t down</w>
op ti
enor mous</w>
ea ger</w>
S n
M ea
L ars</w>
vehi cles</w>
per mit</w>
f s</w>
convic ted</w>
ack er</w>
ab les</w>
Trev or</w>
Ran dy</w>
Offi ce</w>
Fo yle</w>
Don o
A men</w>
psychiatri st</w>
me dal</w>
it em</w>
bru tal</w>
S now</w>
tan e
reti re</w>
der ly</w>
cl er
cau ses</w>
Fi ona</w>
A dri
stor es</w>
rac ist</w>
gh ted</w>
flo ating</w>
eter nal</w>
entit led</w>
deli ber
bon us</w>
Ca be</w>
web site</w>
to ma
o line</w>
necessa rily</w>
ke y
in ju
g ori
do me
col ors</w>
b are</w>
Victori a</w>
Uni versity</w>
pi rate</w>
o v</w>
in spec
gro ws</w>
comple ted</w>
appro ved</w>
allo ws</w>
re st
fa re
defea ted</w>
blu e
b ani
ado pted</w>
Mon a</w>
Hea ther</w>
Dor o
Cly de</w>
wa king</w>
ss er</w>
motor cycle</w>
lli on</w>
d itch</w>
courte sy</w>
compla ining</w>
ci ans</w>
borro wed</w>
att acking</w>
argu ing</w>
Egy pt</w>
D e</w>
war s</w>
spec tac
sen sors</w>
pro ven</w>
phra se</w>
photograp hs</w>
man tha</w>
fortun ately</w>
dea lt</w>
ck in</w>
ac cel
a mi
Wal sh</w>
Mi chi
E vel
5 th</w>
trau ma</w>
po d</w>
mb ia</w>
l end</w>
ele phant</w>
Ru by</w>
M ul
Co lo
3 7</w>
sex u
recogni zed</w>
pota toes</w>
ne ys</w>
gra vity</w>
explosi ves</w>
cau tion</w>
car t</w>
T en
S I
v ans</w>
super -
sno w
sla ughter</w>
reli able</w>
on ship</w>
on ica</w>
na ment</w>
cru shed</w>
cra wl</w>
Wal lace</w>
J ill</w>
J ar
4 4</w>
z u
tor pe
li a
grea t-
ex cep
comp en
attemp ted</w>
assass in</w>
T ina</w>
P aci
Ni cky</w>
Bu ddy</w>
ra tional</w>
ex- wife</w>
dev ot
che w</w>
blo cked</w>
bi lity</w>
ap h
Z ach</w>
Sar ge</w>
Re publi
Di a
Con trol</w>
zz ie</w>
trou bles</w>
ser ver</w>
phi a</w>
distur bing</w>
confu sing</w>
au dition</w>
St u</w>
Mar ch</w>
G PS</w>
whi stle</w>
wer e
tain ment</w>
servan ts</w>
re servation</w>
pi rates</w>
pe ts</w>
ef s</w>
compromi sed</w>
climb ing</w>
cli ff</w>
cel lar</w>
bo xing</w>
assu red</w>
P O
G host</w>
Fin n</w>
Elli e</w>
El ena</w>
sna kes</w>
reco very</w>
pas sword</w>
mo le
cor ri
bo ld</w>
be ds</w>
a shes</w>
Mos es</w>
For get</w>
- of-
- C
v ital</w>
ol dest</w>
distur b</w>
cont acted</w>
consi st
com mission</w>
K ong</w>
Han na</w>
Gu ys</w>
F ace
susp ended</w>
ri sing</w>
re placed</w>
n ever
mari juana</w>
elec tro
bran ch</w>
be lle</w>
app er</w>
Gabri el</w>
Co lt</w>
unexp ected</w>
li zed</w>
hand ler</w>
assi st</w>
ad mitted</w>
Fi f
Chri sti
Ale c</w>
A bi
twi sted</w>
thri lled</w>
stri kes</w>
poin ting</w>
ha un
explo de</w>
destro ying</w>
an ing</w>
R ec
Po wers</w>
L il
I ris</w>
Afri can</w>
we d
ten se</w>
sla ugh
gro wn
electri city</w>
bomb ing</w>
a ire</w>
V ul
- Right</w>
u mp
ex trac
din ing</w>
accu rate</w>
abs ence</w>
Nicho las</w>
Har vard</w>
Bu ll
3 rd</w>
- and-
ty pes</w>
ti de</w>
se du
our ing</w>
in ev
el se
ck e
Secre t</w>
Bar bie</w>
sha dows</w>
sea s</w>
sa ddle</w>
s kill</w>
ru bber</w>
re stri
ra ted</w>
kin dness</w>
di me</w>
capac ity</w>
as set</w>
announ ced</w>
W ard</w>
Ver onica</w>
Solo mon</w>
Ru n</w>
Ru dy</w>
Good bye</w>
E .</w>
B ree</w>
wi shed</w>
sick ness</w>
physi cally</w>
newsp apers</w>
grand pa</w>
gra titude</w>
go s</w>
eter nity</w>
estab lish</w>
camp us</w>
ba tion</w>
a stron
wh ale</w>
si cs</w>
ri bb
resi dence</w>
lun atic</w>
laugh ed</w>
do w
car riage</w>
Sa mantha</w>
Me li
schoo l
pan ties</w>
missi les</w>
mean ing
man kind</w>
hall way</w>
gos sip</w>
de cla
col our</w>
b ent</w>
Ben nett</w>
9 9</w>
ris ks</w>
princi pal</w>
f oster</w>
f ing</w>
ben ch</w>
bac hel
app et
T ry</w>
H il
sy l
sh out</w>
s car</w>
ru led</w>
rea ching</w>
j ar</w>
dra in</w>
di men
dep lo
M I
La st</w>
Evel yn</w>
Dono van</w>
De mo
p li
ma il
interf ere</w>
ab sur
U r
S id
Ro gers</w>
Kel so</w>
Gra ham</w>
Cal m</w>
2 9</w>
trans mit
swea ter</w>
stor ed</w>
ot h</w>
magne tic</w>
Co ast</w>
Can adi
Be tter</w>
v enti
sli ce</w>
pa d</w>
brea sts</w>
alco holi
Re member</w>
K ling
Geor gia</w>
G -
Cal vin</w>
CE O</w>
Be a</w>
B ella</w>
wi e</w>
tici ans</w>
th ed</w>
t ο</w>
ni es</w>
ha gen</w>
con cu
ber ries</w>
an nu
Scot land</w>
Han g</w>
Da mi
C ross</w>
A L</w>
tal s</w>
ta ining</w>
stea m</w>
sab ot
respec ted</w>
po int
ner ves</w>
lin ess</w>
T en</w>
Se a</w>
Sau l</w>
Ro bbie</w>
Norwe gian</w>
Hur ry</w>
Glen n</w>
Doro thy</w>
oo -
mani fe
insi sted</w>
ga sp
docu ment</w>
do min
Youn g</w>
Tur n</w>
O .</w>
Dec e
sequ ence</w>
scenari o</w>
mor t
g ator</w>
conne ctions</w>
colu mn</w>
col lar</w>
ar k</w>
am bush</w>
W es
Sa tan</w>
Co x</w>
A ren</w>
up date</w>
tri be</w>
sub way</w>
se ctor</w>
sc or
mot or</w>
mini mum</w>
gh test</w>
ce iling</w>
broad cast</w>
b bs</w>
adver ti
Vi c</w>
Si ster</w>
Me di
Da w
Ch er
- W
- Have</w>
zomb ies</w>
ru m</w>
recei ving</w>
nee ding</w>
f ect</w>
eri al</w>
e tti</w>
disp lay</w>
asse ts</w>
St ella</w>
Paci fic</w>
Her r</w>
E m
3 ,000</w>
y ce</w>
vi ch</w>
ri tual</w>
la x</w>
inter ven
id en</w>
be lls</w>
advi sed</w>
Rag nar</w>
Gil bert</w>
De f
tr ed</w>
ro s</w>
miser y</w>
lo vers</w>
la mp</w>
jewel ry</w>
instin ct</w>
indepen dent</w>
fac tion</w>
ene tra
celebra tion</w>
ban k
Vo y
Pa ki
ti mer</w>
ta ils</w>
sp ots</w>
qu an
mo le</w>
ma ster
le e
la del
kin dly</w>
ed itor</w>
dis missed</w>
cry stal</w>
con stitu
as m</w>
amb assador</w>
Nor a</w>
Kan sas</w>
Co ach</w>
tri c</w>
to p
th a
magni ficent</w>
han dy</w>
emp ire</w>
develo p</w>
ar row</w>
approxima tely</w>
am ine</w>
T anya</w>
Lo is</w>
K ane</w>
.A .
te ss</w>
shi p
re pa
mani ac</w>
ladel phia</w>
hr er</w>
grand son</w>
da ms</w>
confir mation</w>
cl ing</w>
cen tral</w>
a ward</w>
Y o
Ru ss</w>
Mi ssi
D own</w>
A B
x er</w>
th m</w>
sc out</w>
r ack</w>
professi on
occu pied</w>
inst al
exp ec
en ch</w>
disc har
demo cracy</w>
can non</w>
boo th</w>
S wee
Pru e</w>
N E
whisp ering</w>
vo k</w>
v ate</w>
to m</w>
six th</w>
ra in
manu fac
loo k
ite ms</w>
dedi cated</w>
M en</w>
I ron</w>
Ho me</w>
D ata</w>
C ab
wh ores</w>
up er</w>
sla m</w>
sa yin</w>
rou gh
qu est</w>
he ight</w>
hau l</w>
fu g
fil ms</w>
c roo
S ounds</w>
F ire</w>
v or</w>
pan cakes</w>
formu la</w>
el ine</w>
dest ination</w>
con stantly</w>
O wen</w>
Me g</w>
De b</w>
C ool</w>
Bro ad
Al right</w>
the ft</w>
t ney</w>
ss ors</w>
pen alty</w>
instin cts</w>
in tri
good- looking</w>
execu tion</w>
div ine</w>
co al</w>
beli ef</w>
be tting</w>
attrac ted</w>
Naz is</w>
4 3</w>
sp rin
po ly
pi cks</w>
fare well</w>
f ting</w>
ex am</w>
er son</w>
b outs</w>
Ter esa</w>
suggesti on</w>
r ors</w>
p raise</w>
fi st</w>
f ears</w>
ch est
arri ving</w>
agen da</w>
Van essa</w>
v on</w>
spo on</w>
sp reading</w>
sh itting</w>
sal ary</w>
pic nic</w>
oo h</w>
life -
le m</w>
f led</w>
exi sted</w>
disapp oint</w>
di shes</w>
cu ri
cra wling</w>
clea rance</w>
bo ards</w>
ba ld</w>
Bo o</w>
3 3</w>
stu dies</w>
sof t
pur suit</w>
me -
Mel anie</w>
Camp bell</w>
B ring</w>
tri gg
tch a</w>
se ed</w>
lap top</w>
la mb</w>
it able</w>
h ori
cros s-
bit ter</w>
Uh- oh</w>
H op
Face book</w>
Bu reau</w>
Bren dan</w>
5 5</w>
x u
vag ina</w>
ti cian</w>
st rings</w>
remin ded</w>
por k</w>
kid do</w>
doub ts</w>
disco very</w>
cont ent</w>
Tu vok</w>
Nel son</w>
9 5</w>
un to</w>
ste pping</w>
sha res</w>
re vie
me ds</w>
ma x</w>
inter pre
he els</w>
ha w
gg age</w>
Sa int</w>
Jen na</w>
ri sky</w>
regi ster</w>
rebe ls</w>
legiti mate</w>
honest y</w>
foo led</w>
e yed</w>
Le on</w>
F un
D re</w>
Con nie</w>
t ack
see king</w>
pre cin
pota to</w>
lec ture</w>
authori zed</w>
T ess</w>
Pear l</w>
O ver</w>
A be</w>
&apos; you</w>
pit al</w>
g ated</w>
deci des</w>
T A</w>
Phi ladelphia</w>
ER E</w>
C hel
ver dict</w>
oper a</w>
ma les</w>
excu ses</w>
distrac ted</w>
denti st</w>
de z
cho ke</w>
certi fi
cap it
al lies</w>
T .
S prin
venge ance</w>
t sy</w>
sandwi ches</w>
pros p
me tery</w>
h ears</w>
de sc
al a</w>
Ma dam</w>
E very</w>
E van</w>
De puty</w>
3 8</w>
&apos; t--</w>
tra ding</w>
so- called</w>
scu m</w>
prosecu tor</w>
plat form</w>
par aly
op ar
ne e</w>
mon it
men ted</w>
la rious</w>
ke en</w>
ha ts</w>
er a
aba se</w>
Tar a</w>
Ste wart</w>
O mar</w>
Bur ke</w>
4 0
&apos; s--</w>
wi g</w>
sit ter</w>
ph er
paint ings</w>
k it
in fin
ho ckey</w>
gr o</w>
P .</w>
I r
Good night</w>
z a
stin ks</w>
rema ining</w>
p ean</w>
o wed</w>
metho ds</w>
lu ggage</w>
li d</w>
la dder</w>
emo tion</w>
cooper ation</w>
bl ank</w>
UC K
K now</w>
sun shine</w>
ra ft</w>
los es</w>
ir ri
inspir ed</w>
guid ance</w>
f ry</w>
ev i
electri cal</w>
econo my</w>
descri bed</w>
deli ghted</w>
con tain</w>
clos ely</w>
E T</w>
&apos; s
tun nels</w>
sp ill</w>
sh ining</w>
quar ter
or bit</w>
mun ition</w>
m ant</w>
lu xu
glo bal</w>
g le
fu r</w>
for mal</w>
for k</w>
NO W</w>
M ir
L enny</w>
Bat man</w>
Att orney</w>
tri cky</w>
sit u
s light</w>
ou ch</w>
mi st</w>
ex amine</w>
discu ssing</w>
c ease</w>
admini stration</w>
ac o</w>
Zo e</w>
Ri ley</w>
O x
Hawai i</w>
th east</w>
t ness</w>
p ace</w>
o ven</w>
mo di
else where</w>
deca des</w>
cla ss
ba d
Stock holm</w>
H I
wa kes</w>
sc hi
rela tives</w>
re con
pre ssing</w>
pre ce
n us</w>
musi cal</w>
mon keys</w>
min g
execu tive</w>
diffi cul
dat abase</w>
Abra ham</w>
tw in</w>
p enetra
nu mb
me tap
le gen
interro gation</w>
hair cut</w>
g han</w>
fi es</w>
decla re</w>
decl ared</w>
ch i</w>
arrange ments</w>
S A
Po int</w>
Do esn</w>
ve ster</w>
n ap
ligh ter</w>
iti ous</w>
har mless</w>
ga ined</w>
back yard</w>
Wester n</w>
O i</w>
K laus</w>
Hea ven</w>
sto ck
st ur
spi der</w>
f ab
ad dict</w>
Y e
Ja mal</w>
G wen</w>
Coun t</w>
- ha
t ments</w>
su l
lo gic</w>
gradu ate</w>
cri tici
cre ep</w>
cei ved</w>
Re y
- Go</w>
sp la
shi pping</w>
re ference</w>
massa ge</w>
hea vens</w>
dev i
continu ed</w>
cha ins</w>
b ster</w>
assa ul
al ind</w>
Jan u
How dy</w>
Hea d</w>
Euro pean</w>
x ter</w>
watch es</w>
thi a</w>
ru ining</w>
r ally</w>
qui re</w>
mi se</w>
el even</w>
V ER</w>
Ro bin
K il
pur pos
pat ri
nea rest</w>
nar row</w>
mar shal</w>
inst ant</w>
hi larious</w>
emb race</w>
ar mor</w>
am munition</w>
aller gic</w>
ag ger
L ex
Jo el</w>
- Hello</w>
wri st</w>
thu si
stu pi
s well</w>
poli ticians</w>
ne s
forbi dden</w>
establi shed</w>
activ ities</w>
Bon nie</w>
vot ed</w>
un likely</w>
ta ined</w>
ros es</w>
ou ter</w>
m ly</w>
ea bouts</w>
discipl ine</w>
appli cation</w>
acciden tally</w>
absur d</w>
W end
Port land</w>
- P
wi ck</w>
n ate</w>
la in</w>
graphi c</w>
gg les</w>
exclu sive</w>
en thusi
conclu sion</w>
ca de</w>
The a</w>
Spo ck</w>
Pau lie</w>
Car oline</w>
Bar nes</w>
6 5</w>
tr act</w>
p ani
ot y
fru stra
Some body</w>
Har per</w>
Car dinal</w>
C ir
An dre</w>
tre men
psychi c</w>
pro test</w>
ing ham</w>
import antly</w>
hea ling</w>
cock tail</w>
co vers</w>
clou ds</w>
butt ons</w>
brea st</w>
Tur ner</w>
M un
Bern ard</w>
spo il</w>
soft ware</w>
off ers</w>
o w</w>
o mi</w>
mi d-
holi days</w>
fla mes</w>
fe ds</w>
f ers</w>
el u
du ll</w>
direc tions</w>
bene fits</w>
arri ves</w>
arch it
Sa vage</w>
M ount</w>
E sp
DE A</w>
B as
wait er</w>
righ te
i le</w>
foun dation</w>
de ss</w>
d ens</w>
ci l
bar ri
ax y</w>
A hh</w>
vi er</w>
so ever</w>
por ch</w>
jour nal</w>
e m
detec tives</w>
bo wling</w>
Tal k</w>
Hos pital</w>
se -
rail road</w>
passen ger</w>
on aire</w>
ma tely</w>
leg acy</w>
le tt</w>
hun ters</w>
f east</w>
d ge
ban ging</w>
Ver a</w>
Ba iley</w>
old- fashioned</w>
no ther</w>
S ci
Do m</w>
6 -
war den</w>
swit ched</w>
spec u
s ma</w>
recogni se</w>
mee ts</w>
l ined</w>
ja zz</w>
fu ss</w>
clo thing</w>
boo bs</w>
Su e</w>
C are
travel ed</w>
sti ff</w>
sh man</w>
op pon
nightma res</w>
los ers</w>
indi cate</w>
har sh</w>
gra ms</w>
d u</w>
compromi se</w>
Se con
B .
7 -
wa ld</w>
spiri tual</w>
snea king</w>
sal es
run g</w>
ren dez
pro cee
man ual</w>
import ance</w>
i sh</w>
g rity</w>
ent in</w>
distur bed</w>
di so
Uh- uh</w>
Ros e
Di vision</w>
Char ley</w>
C had</w>
ulti mate</w>
sta ined</w>
pan el</w>
olu tion</w>
inju ries</w>
gi l</w>
flu sh</w>
di stress</w>
caly pse</w>
S uper</w>
P on
K al
F en
D ru
9 -
2 0,000</w>
z ie</w>
tour nament</w>
inten tions</w>
ce ments</w>
brief ing</w>
be ts</w>
Gu sta
F r
Eag le</w>
Di strict</w>
7 th</w>
4 1</w>
spl en
respon ding</w>
practi cal</w>
or -
mb ly</w>
it ement</w>
h en</w>
ang ers</w>
O P
Je ffer
Haw k</w>
E S
B o</w>
what soever</w>
vir tu
up side</w>
techni cal</w>
mi d</w>
la ter
indu stri
guar dian</w>
di cted</w>
b y-
Con gressman</w>
Cl ary</w>
C li
B ates</w>
A P
the less</w>
se cured</w>
re bel</w>
r it</w>
prosecu tion</w>
mo on
la ge</w>
fi e</w>
du mb
desp er
co tton</w>
civi lization</w>
bi shop</w>
b reed</w>
Pen n
I van</w>
&apos; R
w yer</w>
tiv ity</w>
stri ctly</w>
sp li
pu p
off ensive</w>
mu tual</w>
inte grity</w>
hi de
execu te</w>
cu lar</w>
convin cing</w>
R as
L ei
Au stin</w>
thin kin</w>
rehear sal</w>
predic table</w>
pre me</w>
pop ped</w>
pa le</w>
on i</w>
lun g</w>
k en
je opar
fi cial</w>
con ce
Po tter</w>
Pe ter
Mor ris</w>
H ong</w>
H im</w>
Ea stern</w>
C lea
B east</w>
An ton</w>
A i
wor lds</w>
wi red</w>
sma sh</w>
pi lots</w>
me ssy</w>
hoo ker</w>
drow ning</w>
can dles</w>
Moun tain</w>
E z
z ona</w>
u cin
tox ic</w>
ran som</w>
o me
lo ads</w>
hi p
dra ft</w>
con temp
Robin son</w>
Do mini
t -</w>
shel f</w>
sau sage</w>
ro lls</w>
ra sh</w>
hi o</w>
heavi ly</w>
contr ary</w>
Mur ray</w>
Janu ary</w>
un a</w>
un -
thea tre</w>
t ories</w>
sympa thy</w>
ren e
pe st</w>
l on</w>
fo g</w>
f u</w>
dome stic</w>
K le
Cop en
3 4</w>
vio lation</w>
st ings</w>
ssen ger</w>
per fu
l n</w>
hu ll</w>
g love</w>
frea ks</w>
fil tra
ele ment</w>
dev ast
beg ged</w>
batt le
N ext</w>
Missi ssi
Ha mil
Con gratulations</w>
some what</w>
in spector</w>
confe ssed</w>
compla int</w>
ali zed</w>
accel er
Pho e
L E</w>
Ho mer</w>
Gen e</w>
E sco
Cu ba</w>
Corpor al</w>
ti more</w>
si zed</w>
scand al</w>
ro ad
qu ila</w>
princi ple</w>
precin ct</w>
grow th</w>
festi val</w>
Qu entin</w>
Fla sh</w>
Ari zona</w>
w ron
un ited</w>
t resp
star d</w>
st ash</w>
rela tions</w>
questi oned</w>
murder ers</w>
h l</w>
ge sture</w>
fast est</w>
anti cip
ank le</w>
L as</w>
sign als</w>
shoo ts</w>
prot ective</w>
la ser</w>
g ents</w>
fini shing</w>
enter tainment</w>
d ine</w>
consci ousness</w>
cancel ed</w>
boun ce</w>
bal l
ad ap
Sco tty</w>
R ou
Meli ssa</w>
In telli
Gu ar
smo ked</w>
por ts</w>
inclu ded</w>
el et</w>
do o</w>
cha irs</w>
auto psy</w>
Y a
Wor f</w>
T ate</w>
techni que</w>
ri bs</w>
represen ta
qu et</w>
la ughter</w>
hall ucin
genu ine</w>
g led</w>
exp ose</w>
bun ny</w>
R ain
Hamil ton</w>
C up</w>
Bu ck
we b</w>
vani shed</w>
tri ump
ti ck</w>
rescu ed</w>
regi on</w>
ra z
promi sing</w>
ma tt
is le</w>
help less</w>
h n</w>
exp an
dyna mite</w>
da w
business man</w>
Thi r
Sou thern</w>
Ni ght
Hel ena</w>
win ds</w>
terrori sm</w>
t les</w>
ren ted</w>
pro ves</w>
ni ck</w>
mb a
inv iting</w>
in appropriate</w>
immun e</w>
fac tor</w>
den cy</w>
T I
O la
Mississi ppi</w>
M ot
Copen hagen</w>
ó n</w>
y -</w>
syl vani
st ine</w>
re ls</w>
pla sma</w>
lo ve
inti mate</w>
hu sh</w>
exc itement</w>
dep end</w>
ca sting</w>
N ap
Gri ffin</w>
secon d-
rendez vous</w>
qui cker</w>
min ded</w>
le tte</w>
N SA</w>
u ti
spea ker</w>
re store</w>
pur sue</w>
les bian</w>
la ine</w>
hy per
embarra ss</w>
con gratu
circu it</w>
ce -
casu alties</w>
au ction</w>
T rin
Re ggie</w>
E llis</w>
Cree k</w>
Com mand</w>
ñ or</w>
ver sus</w>
tri ple</w>
tra ins</w>
subj ects</w>
p ts</w>
oper ator</w>
ni bal</w>
na iled</w>
min ent</w>
hy steri
hard t</w>
gener ations</w>
ff rey</w>
en vy</w>
conven tion</w>
choos ing</w>
be y</w>
as y
any how</w>
ac ed</w>
S ookie</w>
Per haps</w>
Ma dison</w>
M el</w>
D wi
3 .
sni per</w>
sme lled</w>
screa ms</w>
s words</w>
hy dra
fli r
cre te</w>
c ough</w>
bu tcher</w>
blo w
a ven
Voy ager</w>
Michi gan</w>
B ook</w>
su p
reci pe</w>
pur su
lia ment</w>
lea f</w>
lan der</w>
l la
invol ve</w>
g ha
fu se</w>
fag got</w>
di ck
comp os
bu ys</w>
be hold</w>
batt eries</w>
Z i
U .
ON E</w>
Har t
Esco bar</w>
A cademy</w>
A D
7 2</w>
&apos; M</w>
the l</w>
st ack</w>
revea led</w>
re tar
pu mp
mi dd
metho d</w>
issu ed</w>
fun ction
emp eror</w>
cir cles</w>
ch ron
bra in
O hio</w>
prea cher</w>
l ant</w>
int el
engine ering</w>
e th
d get</w>
d ful</w>
ch ant</w>
celebri ty</w>
auth enti
S pea
S al</w>
Mar nie</w>
Home land</w>
ve ter
to --</w>
sti r
seven th</w>
ro ast</w>
practi cing</w>
mar ke
le mon</w>
fla sh
fa x</w>
bul le
Samu el</w>
Mar ines</w>
K ry
Alli son</w>
you -
wri tes</w>
squ ea
sen ses</w>
scar ing</w>
sa dly</w>
pur ple</w>
la bel</w>
gener ator</w>
colle cting</w>
clo th</w>
bu zz</w>
bo lt</w>
bit ing</w>
ac ha
Syl vester</w>
N one</w>
Lau ren</w>
Hu dson</w>
Dwi ght</w>
Dun can</w>
- Thanks</w>
tt le
sylvani a</w>
sett lement</w>
pe pper</w>
medi c</w>
li p
i ze</w>
fel lows</w>
dar n</w>
Shi r
Phoe be</w>
Nata lie</w>
H au
Gre y</w>
F ol
Austra lia</w>
ta s</w>
g roo
f itting</w>
er as
dist ant</w>
bac king</w>
ag ger</w>
V I
N ar
Lu ther</w>
Intelli gence</w>
Dami en</w>
A R</w>
sp oo
r he
l y-
institu tion</w>
fortun ate</w>
fla me</w>
coun ted</w>
co mic</w>
be es</w>
alli ance</w>
ali ze</w>
St or
OU T</w>
Ma li
L yle</w>
Dece mber</w>
Car d
Ap ache</w>
A M
shor ts</w>
replac ement</w>
n an</w>
me te
maj ority</w>
du mmy</w>
d os
con crete</w>
barbe cue</w>
ad dition</w>
ac comp
x ie</w>
war ming</w>
suc cee
stero ids</w>
st it
ra ining</w>
prostitu te</w>
pel ess</w>
pe tty</w>
parti cip
mater i
int act</w>
impro ve</w>
ha cked</w>
fa iling</w>
c le
boun ty</w>
ar mor
Pri vate</w>
Mari anne</w>
C hang</w>
Boy d</w>
tra ditional</w>
thea d</w>
ta il
sa iling</w>
re ll</w>
presu me</w>
o on</w>
na ive</w>
mor gue</w>
me o</w>
mar tial</w>
ma ss
lor ds</w>
ha lt</w>
gla s</w>
gall ery</w>
con tra
ch erry</w>
ali on</w>
H a</w>
E mer
Chel sea</w>
Bal timore</w>
Ba xter</w>
tit les</w>
sp ect</w>
sma shed</w>
os is</w>
ologi st</w>
ni ka</w>
jun kie</w>
j e</w>
it er</w>
in coming</w>
ho peless</w>
fav ors</w>
din os
cou sins</w>
con fron
comp are</w>
cea sed</w>
brief case</w>
appet ite</w>
W ay</w>
P as
-A -
- Sure</w>
wor ship</w>
ta h</w>
scen es</w>
sca res</w>
kid ney</w>
ha tred</w>
disgu ise</w>
come dy</w>
al ee</w>
ab sor
Hen dri
H ood</w>
Go ld</w>
Com muni
ve ments</w>
va rious</w>
stru ggling</w>
photograp her</w>
fu cks</w>
collap se</w>
Mi ddle</w>
M oo
Ly nette</w>
witne ssed</w>
v acu
suspici on</w>
se lls</w>
ple a</w>
pick up</w>
part ner
p ec
lock down</w>
for bid</w>
distrac tion</w>
d ron
chee k</w>
bur gh</w>
ance stors</w>
air plane</w>
activ ated</w>
Squ are</w>
Bo w
B ad</w>
yo ga</w>
surpri sing</w>
quar an
p. m.</w>
just -</w>
follo ws</w>
flo ors</w>
esti mated</w>
bot s</w>
bar tender</w>
S ton
Re lax</w>
Po wer</w>
N Y
Do wn
C at</w>
th under</w>
pi ssing</w>
liqu id</w>
gi le</w>
f ear
cor d</w>
chick ens</w>
alcoholi c</w>
ah em</w>
Mi ster</w>
M E
Har ri
G rin
F our
Card assi
Ab u</w>
sta ir
spi es</w>
sea ted</w>
sc ores</w>
off ended</w>
lea sh</w>
hun ger</w>
gar s</w>
disp atch</w>
d war
bla ming</w>
ad ditional</w>
accompli shed</w>
R ap
B ol
Anton io</w>
An y
- to-
wi res</w>
wher eabouts</w>
war ded</w>
tho le</w>
refer ring</w>
phe no
patter ns</w>
f eared</w>
ex ception</w>
ci st</w>
S eri
P lan
Kir a</w>
G rou
spin ning</w>
rac ks</w>
own ers</w>
k el
inf o</w>
di p</w>
cou ples</w>
bi ological</w>
ac tors</w>
Lo ck
Jo han</w>
F ind</w>
7 00</w>
va st</w>
tru sting</w>
to l
to bac
straigh ten</w>
pre y</w>
inten ance</w>
ea u</w>
clea ring</w>
avoi ding</w>
Ri ch
R it
z i</w>
v or
un ch</w>
tr y
t ler</w>
sp ying</w>
set up</w>
ri ght
pu b</w>
occu r</w>
nur ses</w>
ma y
fa ther
expla ining</w>
e da</w>
bo w
Vik tor</w>
Ste phan
Si x
Paw nee</w>
K ore
Ea ster</w>
Dra gon</w>
spo iled</w>
sacrifi ced</w>
s ch</w>
r us</w>
profe ssion</w>
on g
in o
en han
din er</w>
dic ta
dea rest</w>
ce metery</w>
b apti
anch or</w>
Z ack</w>
Rey no
Pier re</w>
P ee
En ough</w>
Co lin</w>
C lev
Be fore</w>
Abi ga
A sian</w>
y land</w>
ur ge</w>
une mp
posse ssed</w>
fianc ée</w>
ffi ci
ex agger
dea lers</w>
co tt
clean er</w>
can cell
ca ra
Vi o
Na omi</w>
valu es</w>
ori an</w>
m sy</w>
k u</w>
initi al</w>
e --</w>
den tal</w>
corri dor</w>
ck i</w>
char t</w>
Dar k</w>
2 50</w>
stron gly</w>
stra w
slee ps</w>
pl ed</w>
le en</w>
inspi ration</w>
h ose</w>
f ty</w>
er ce</w>
dist ract</w>
dis respect</w>
dep th</w>
chemi stry</w>
car tel</w>
cal en
b acked</w>
ar i</w>
ans en</w>
ad mir
a. m</w>
Sa me</w>
Reyno lds</w>
Mag nus</w>
D I
tro it</w>
ten sion</w>
tal es</w>
ra rely</w>
ob serve</w>
mu le</w>
lli es</w>
fu s</w>
eli minate</w>
cor rupt</w>
cha irman</w>
black mail</w>
bi scu
Wi th
S ter
R un
IN G
C ut</w>
Bo ys</w>
vi cious</w>
ul ty</w>
tremen dous</w>
tac tical</w>
t el
star board</w>
si mu
s so</w>
rela tive</w>
regar dless</w>
pi mp</w>
pean ut</w>
pas sion
men tally</w>
go ose</w>
fl u</w>
end less</w>
en cry
dri vers</w>
crea tion</w>
correc tly</w>
Ver non</w>
O b
Kar a</w>
D -
A ct</w>
stron gest</w>
star ve</w>
physi cs</w>
offici als</w>
ma sks</w>
l ever
dish on
T rea
Shir ley</w>
G ide
Co ke</w>
Clar a</w>
Ar m
&apos; Bri
ta li
sail or</w>
poison ing</w>
nan ny</w>
me ssenger</w>
lli e</w>
ll u
di cks</w>
bur gers</w>
bu lly</w>
Z u
Fre deri
Bu ck</w>
Bec ky</w>
A dams</w>
tro phy</w>
the me</w>
sp erm</w>
sn ack</w>
scho lar
reha b</w>
re fri
pur chase</w>
my th</w>
l th</w>
kni ves</w>
el ed</w>
dru m</w>
de z</w>
ab road</w>
Su n</w>
Por ter</w>
L ING</w>
K ill</w>
El vis</w>
Con ne
C el
Bra z
A II</w>
un stable</w>
sma ck</w>
ro pes</w>
pu lls</w>
pro fits</w>
ni cer</w>
mod els</w>
lucki ly</w>
later al</w>
it -
interrup ting</w>
im it
gi ous</w>
brac elet</w>
Mari lyn</w>
Je ffrey</w>
ø r
trac es</w>
st abi
sit es</w>
shri mp</w>
refri ger
reali sed</w>
mort gage</w>
gener ally</w>
ga de</w>
fo x</w>
da ss</w>
camp ing</w>
ba th
YO U
Tw enty-
S wa
Ri ggs</w>
Pal ace</w>
Go lden</w>
GH T</w>
Bra dy</w>
Anna lise</w>
A P</w>
pun ched</w>
mou ths</w>
hor ny</w>
ha ve
confi dential</w>
bbi sh</w>
ag re
Re public</w>
Li zzy</w>
Dou glas</w>
- like</w>
v ain</w>
tur n
splen did</w>
pri or</w>
musc les</w>
moun t</w>
k ron
for ty</w>
era se</w>
d ough</w>
charac ters</w>
Sha ke
Mi k
Mar tin
Gide on</w>
Def ense</w>
De troit</w>
Com mit
wi ld
terri fying</w>
teen ager</w>
sh iny</w>
se ll
ren ch</w>
mun d</w>
gg led</w>
dra gging</w>
der man</w>
blon d</w>
U N</w>
T wi
Secon d</w>
S ee
H E
B ag
Abiga il</w>
vi bra
tobac co</w>
sil k</w>
s ity</w>
s burg</w>
re t
re land</w>
ma iled</w>
jam med</w>
ja w</w>
in mates</w>
fre y</w>
f ter</w>
f fo
el ess</w>
amate ur</w>
ac re</w>
Simp son</w>
Ran ger</w>
El i</w>
Ar t</w>
5 2</w>
- out</w>
&apos;Bri en</w>
ta -
stan tial</w>
so phi
sa int</w>
mea sures</w>
lin ked</w>
ju ris
hypo the
har dest</w>
hand ful</w>
gree dy</w>
flo at</w>
ff les</w>
drea m
do zens</w>
cru ise</w>
bachel or</w>
W es</w>
W ee
N AS
w it</w>
sur rec
st y
ski rt</w>
san ity</w>
pi pes</w>
org ans</w>
n arra
inter net</w>
ge ment</w>
det ected</w>
confu sion</w>
assass in
arti sts</w>
a --</w>
S am
Ro b</w>
Juli et</w>
Jan e
D ir
2 ,
we igh</w>
vo y
pre cise</w>
posse ss</w>
por tra
poli tician</w>
mur dering</w>
mu g</w>
kilo meters</w>
in filtra
ice -
en stein</w>
cros s
U -
St and</w>
She ila</w>
Ma sters</w>
Kenne th</w>
K .</w>
Dri ve</w>
Dar cy</w>
ll ery</w>
ligh ting</w>
k itty</w>
here by</w>
ballo on</w>
Shar on</w>
Ro dney</w>
R .
En sign</w>
B O
8 5</w>
w a</w>
the ories</w>
ten tion</w>
re presents</w>
pu zzle</w>
pos iti
organi c</w>
o me</w>
guarante ed</w>
gal axy</w>
flu id</w>
dou gh
coun selor</w>
bra kes</w>
Ron ald</w>
H O
Canadi an</w>
C yn
vac cine</w>
ti res</w>
termin al</w>
ta mp
statu e</w>
perpe tra
ligh ten</w>
fil ming</w>
ell i</w>
compe te</w>
bun k</w>
app les</w>
and --</w>
Ly nn</w>
Eu gene</w>
- Now</w>
un pleasant</w>
thro ws</w>
presen tation</w>
per sons</w>
l is</w>
conveni ence</w>
con voy</w>
con sent</w>
auth or</w>
ad ju
Christ ine</w>
CH UCK
8 th</w>
week ends</w>
wan dering</w>
stat ements</w>
re sting</w>
origin ally</w>
l en
impul se</w>
h int</w>
bu bble</w>
behavi our</w>
T O
Pi card</w>
Mi ran
Jan et</w>
A th
9 th</w>
ο n</w>
yo n
u lar</w>
reme mbers</w>
re union</w>
qua ke</w>
pro posed</w>
pos t-
p ledge</w>
mi sses</w>
m is</w>
lif ted</w>
instru ment</w>
i -
f art</w>
clu es</w>
bon ds</w>
amb ition</w>
Broad way</w>
An ders</w>
weal thy</w>
thi e</w>
teen age</w>
sco pe</w>
ri des</w>
pp et</w>
m mm</w>
hel m</w>
fi ction</w>
fer ry</w>
evacu ate</w>
diti ons</w>
differ ences</w>
d ity</w>
ar ts</w>
M Y</w>
Con rad</w>
Atlan ta</w>
- Your</w>
- Then</w>
tho ven</w>
ss en</w>
situ ations</w>
ro y
ra tions</w>
publi shed</w>
pu dding</w>
me --</w>
ex ha
dd ling</w>
Ri o</w>
Ed gar</w>
Bro thers</w>
B C</w>
wor l
sp ite</w>
shit -
scar f</w>
pregn ancy</w>
our i</w>
int ent</w>
hospit als</w>
ga u
en ne</w>
e man</w>
dis grace</w>
cover age</w>
contro lling</w>
com rade</w>
cli p</w>
c enti
ba ked</w>
S mur
Pu ll</w>
Per cy</w>
P ost</w>
H ill
Fin ch</w>
Craw ford</w>
Cap it
Bee thoven</w>
&apos; I</w>
zi p</w>
vigi lan
tou ches</w>
oper ational</w>
ma intenance</w>
leng th</w>
ig n
hon orable</w>
ex tend</w>
eni x</w>
curi osity</w>
cor p
ca ll
arro gant</w>
P E
K end
Jeffer son</w>
Ha mp
E lean
D J</w>
A pple</w>
v able</w>
tur tle</w>
to wels</w>
stand ards</w>
sophi sti
lou der</w>
intervie ws</w>
indu l
illu sion</w>
ga ard</w>
g as
fro g</w>
b rand
L D</w>
E laine</w>
D V
A nother</w>
- what</w>
sun set</w>
sugge sts</w>
su red</w>
sion ally</w>
s win
ran g</w>
m ma
im mortal</w>
ic ans</w>
gun shot</w>
I .D.</w>
Ar ne</w>
- to</w>
y ach
ve ins</w>
sol o</w>
perfu me</w>
mos ex
lin ing</w>
inter ference</w>
in car
im mi
ha th</w>
explo re</w>
et to</w>
can dle</w>
appreci ated</w>
Sco tch</w>
N an
Dro p</w>
Chap man</w>
Ad alind</w>
with draw</w>
st ly</w>
sm ith</w>
proph ec
pp e</w>
no te
li x</w>
is a</w>
i est</w>
fra med</w>
for given</w>
foo ling</w>
e d-up</w>
cu ff</w>
car ing</w>
ac knowledge</w>
ac ey</w>
Lor en
trea ty</w>
stin king</w>
shu tting</w>
sche me</w>
re vo
na tions</w>
me ster</w>
i deal</w>
fl ank</w>
cro ft</w>
co ins</w>
ca tal
b bed</w>
The o</w>
Shake spea
O k
Musli m</w>
Commit tee</w>
- Man</w>
vo ws</w>
ur i</w>
thin k
sin cer
regar ds</w>
nu m</w>
gra in</w>
ess ential</w>
de tte</w>
comp as
car ries</w>
ca te
anxi ety</w>
YOU R</w>
Dra ke</w>
B and
Au gu
un s</w>
sin gly</w>
sh ells</w>
ser t</w>
rea m</w>
neighb our
luxu ry</w>
le man</w>
imp li
exp ense</w>
bed time</w>
al ine</w>
a spir
Ra j</w>
8 -
wheel chair</w>
war ran
sur ing</w>
pheno men
nigg ers</w>
in come</w>
ho mosex
figu ring</w>
ch ur
c ence</w>
With out</w>
Ro meo</w>
Pro bably</w>
Penn sylvania</w>
Ed ith</w>
Cor in
wor ms</w>
tri ps</w>
tr oom</w>
s ly</w>
ri al</w>
offi ces</w>
nor ing</w>
lif ting</w>
ing --</w>
in se
git te</w>
edu cated</w>
dr o</w>
cra ts</w>
coo ler</w>
Nor thern</w>
Luci fer</w>
Jud ith</w>
A A</w>
- new</w>
- Look</w>
repor ters</w>
rela xed</w>
reck less</w>
or dering</w>
inter cept</w>
girl friends</w>
explos ive</w>
exper ts</w>
conta ined</w>
bu yer</w>
blo cking</w>
activ ate</w>
ac ce
Tr ust</w>
T ali
Ros alee</w>
G len</w>
Chan nel</w>
Bor is</w>
wh ack</w>
tri als</w>
tor ch</w>
re vi
pro bation</w>
over come</w>
fra gile</w>
ca tor</w>
a de
N in
G lo
Clev eland</w>
- of</w>
whisp er</w>
u mb
t- up</w>
pre p</w>
persu ade</w>
ki cks</w>
investig ator</w>
hy dro
ge ons</w>
far mers</w>
experim ents</w>
devot ed</w>
cul tural</w>
ca ta
V O
To morrow</w>
Star ling</w>
S loan</w>
S hor
N il
Isa bel</w>
Feli city</w>
Adri an</w>
A M</w>
te quila</w>
ta sted</w>
short -
obj ective</w>
nick name</w>
ma gn
le thal</w>
l ance</w>
j acked</w>
in mate</w>
for ma
ele ments</w>
bal let</w>
accomp lish</w>
Ri ver
Po lish</w>
M AN</w>
Lan ni
Elean or</w>
Bra dley</w>
Arm strong</w>
vi sits</w>
trou bled</w>
ste er</w>
sp ra
m mers</w>
less ly</w>
har t</w>
distin gui
blo wer</w>
Cyn thia</w>
Cor ps</w>
C handler</w>
po et</w>
p ear
k el</w>
fa tal</w>
cu ps</w>
cra tic</w>
co on</w>
ban ana</w>
assass ination</w>
ad ven
accoun tant</w>
V au
T in
Patt y</w>
I reland</w>
un necessary</w>
sales man</w>
ran ks</w>
pri ces</w>
p ples</w>
no s</w>
iso lated</w>
haun ted</w>
gasp s</w>
en counter</w>
asy lum</w>
Y or
Nik ki</w>
Me yer</w>
M ack</w>
M -
L e</w>
1 000</w>
youn gest</w>
trea ts</w>
ton ic</w>
ta ker</w>
respec ts</w>
mea ls</w>
la use</w>
che ering</w>
cell or</w>
ca valry</w>
O tto</w>
J ens</w>
F el
tattoo s</w>
shi pped</w>
progra mmed</w>
pa use</w>
obli ged</w>
ob servation</w>
kid nap</w>
j an</w>
hun ted</w>
gradu ation</w>
f fin
doo med</w>
def en
com mo
certifi cate</w>
calen dar</w>
c ke</w>
bo re</w>
a isle</w>
O re
K ee
Hu gh</w>
F oster</w>
Bo ard</w>
B li
wh ales</w>
tol erate</w>
ta way</w>
st ler</w>
ss ler</w>
ss -
r up</w>
por tal</w>
pi on</w>
p ouring</w>
opportun ities</w>
mer chan
kno ts</w>
gre ed</w>
cor ners</w>
conver sations</w>
con y</w>
ar ing</w>
Kno x</w>
Ju an</w>
re solve</w>
proj ects</w>
mb le
k est</w>
jud ges</w>
je ans</w>
han ged</w>
fug itive</w>
en ting</w>
crow ded</w>
b ber
W er
Sp ace</w>
R ho
Mac Gy
I II</w>
Braz il</w>
trav els</w>
th ly</w>
tex ting</w>
stra p</w>
ris king</w>
p han</w>
over -
lever age</w>
k an</w>
juris diction</w>
i sts</w>
en du
en coun
d ra</w>
cra w
conde m
compet ent</w>
TH IS</w>
Q a
M s</w>
E vans</w>
Ar row</w>
5 1</w>
&apos; re
villa in</w>
ulti mately</w>
trac ed</w>
ti les</w>
te -
sub mit</w>
sel le</w>
resu me</w>
re fer</w>
plea d</w>
ma tically</w>
lea p</w>
hypo cri
ho bby</w>
b ou
Sid ney</w>
S t</w>
M ee
Lu cious</w>
L ila</w>
I zzy</w>
Bu l
B elle</w>
B E</w>
st unt</w>
sha ft</w>
s ang</w>
pos sibilities</w>
ough ta</w>
mer ci
ha iry</w>
gra ve
gener ate</w>
ga ining</w>
for cing</w>
deb ts</w>
cour troom</w>
cancell ed</w>
brand -new</w>
bra ss</w>
app lied</w>
Wo man</w>
Jean nie</w>
J ace</w>
Egy pti
Du sty</w>
Ar ab
An der
wh oo
uni forms</w>
un lock</w>
ti se</w>
prescri ption</w>
matt ress</w>
infor mant</w>
inev itable</w>
gri m</w>
floo d</w>
fire works</w>
emo tionally</w>
compas sion</w>
char ging</w>
bea con</w>
batt les</w>
ab led</w>
R a</w>
Com missioner</w>
C au
5 7</w>
vo w</w>
tt s</w>
ta gon</w>
sun ny</w>
scholar ship</w>
po ke</w>
pher d</w>
migra tion</w>
m r</w>
hu stle</w>
ga mble</w>
econo mic</w>
cor n
co ats</w>
ci gar</w>
bb ers</w>
at tic</w>
app lause</w>
abdu cted</w>
a u</w>
a ster</w>
U P</w>
Super man</w>
Ros a</w>
O k</w>
MacGy ver</w>
G on
Ein stein</w>
Bla ir</w>
pu ke</w>
lo cking</w>
h ound</w>
fa me</w>
en courage</w>
dis ea
de fine</w>
Wh e
Stev ens</w>
So ci
Hon our</w>
Gab by</w>
G and
Domini on</w>
3 9</w>
wa x</w>
ty- five</w>
th en
sl it</w>
ru bbish</w>
re sign</w>
pla toon</w>
philosop hy</w>
gg in</w>
dra gons</w>
deca de</w>
cru ci
ari ly</w>
ab ort</w>
Re id</w>
Nu cky</w>
F ort
zar re</w>
sur f</w>
suit able</w>
sof a</w>
so lar</w>
ro bbing</w>
re se
pa ths</w>
opti mi
occa sionally</w>
obj ects</w>
mu sh
k man</w>
hy p
e tta</w>
do c
bran dy</w>
bla med</w>
b ean</w>
allo wing</w>
al ong
Vio let</w>
To k
T wo
Shakespea re</w>
spi lled</w>
sha l
rea s
pra yed</w>
passion ate</w>
nu t
mar vel
gn ition</w>
er ran
distin ct</w>
contain er</w>
attemp ting</w>
Thi rd</w>
Stephan ie</w>
P R</w>
P A</w>
Mc Co
Juli us</w>
Ju les</w>
Grou p</w>
Brun o</w>
&apos;R E</w>
ur ine</w>
tan ts</w>
rej ected</w>
qu itting</w>
purpos es</w>
produ cts</w>
op posed</w>
ma tri
igno rant</w>
b at
ar mies</w>
abor tion</w>
Ze ke</w>
N assa
J ared</w>
D ob
A sk</w>
that --</w>
te x</w>
sta ti
sta mp</w>
sp ot
sha de</w>
righte ous</w>
recei pt</w>
obj ection</w>
foren sics</w>
fore head</w>
est ee
di zzy</w>
aff ection</w>
N ur
G ru
Fe deral</w>
Co ming</w>
Bar on</w>
v id</w>
sho ps</w>
respon sibilities</w>
la sted</w>
justi fy</w>
hesit ate</w>
har med</w>
e ge</w>
de sig
d ell</w>
con tains</w>
ci dal</w>
blo ke</w>
ar do</w>
Vi enna</w>
Ga le</w>
Ga il</w>
C D</w>
Bu sh</w>
volunte ers</w>
vi sions</w>
sur gi
sti mu
sha w</w>
me y</w>
me lt</w>
ma sters</w>
ir onic</w>
immun ity</w>
gr ounded</w>
bra ke</w>
Yan kee</w>
Wend ell</w>
V el
Si de</w>
Seri ously</w>
Ro ck
Mini stry</w>
Mi ss
Col or
AL L</w>
wa ge</w>
vege tables</w>
tu ck</w>
t earing</w>
sp ace
sor ted</w>
p ony</w>
out come</w>
ex pi
do te</w>
dia c</w>
consist ent</w>
Wea ver</w>
Clau de</w>
Bri tain</w>
1 1
- Maybe</w>
ski es</w>
re solved</w>
pi er</w>
pen sion</w>
pen cil</w>
p acks</w>
oppon ent</w>
jud ged</w>
heart beat</w>
dia be
dd in</w>
app ointed</w>
ad just</w>
Lon g
Kat rine</w>
Jessi e</w>
Ho ll
Harri et</w>
F oun
D O</w>
B est</w>
Apo llo</w>
vot ing</w>
tori ous</w>
radi us</w>
po or
mor phine</w>
mer y</w>
lip stick</w>
li king</w>
k nu
in ga
gra des</w>
fin ed</w>
con s</w>
clear s</w>
Syl via</w>
Ser vices</w>
S W
Po well</w>
Lu cky</w>
L ab
Kore a</w>
Kling on</w>
ID S</w>
D. C.</w>
Bu dd
Ar chie</w>
4 9</w>
-ha -ha</w>
swa mp</w>
st ew</w>
re build</w>
psycho path</w>
p ecu
oun ge</w>
o y
exp enses</w>
dro me</w>
dri ve
disapp ointment</w>
di al
depre ssion</w>
corrup tion</w>
convi ction</w>
Under wood</w>
R ad
Mar vin</w>
Ha ven</w>
A na
wh it
sh aped</w>
run ner</w>
regu lations</w>
pro be</w>
poo p</w>
partner ship</w>
par as
gra d</w>
go tcha</w>
fer ti
fa int</w>
every day</w>
defin ition</w>
cler k</w>
be ep</w>
bar ba
associ ates</w>
acci dents</w>
W oody</w>
S ac
Par adise</w>
LA U
Colle ge</w>
un ting</w>
sto ve</w>
sp ared</w>
rea dings</w>
re serve</w>
re pay</w>
pa th
no m</w>
neighbour hood</w>
m --</w>
hu a</w>
gradu ated</w>
f rank</w>
compla ints</w>
an -
ac cuse</w>
a z
Ven ice</w>
N er
Fi sh</w>
F .
Bu il
B ren</w>
B r
trav elling</w>
to ck</w>
qu arre
mo du
kot ay</w>
it ters</w>
gre et</w>
gang ster</w>
di ving</w>
de ceased</w>
cli ck</w>
chee se
betra yal</w>
app re
Trin ity</w>
Ro dri
Que ens</w>
Lou i
F OR</w>
Color ado</w>
Cha kotay</w>
th ru
satis faction</w>
rea ctor</w>
point less</w>
pe l</w>
no tion</w>
ll i</w>
gr unts</w>
gr acious</w>
ea gle</w>
dig ital</w>
depen ding</w>
dead line</w>
col ored</w>
co tics</w>
bal cony</w>
En gin
As soci
A y
5 0-
4 .
whi pped</w>
tri cked</w>
thou ghtful</w>
thi c</w>
sub tle</w>
recomm ended</w>
psycho logical</w>
princi ples</w>
no wa
ner d</w>
mb a</w>
individu als</w>
han gs</w>
fianc é</w>
expos ure</w>
disapp earance</w>
cor oner</w>
colon y</w>
ck en</w>
ca ter
br is</w>
br ace</w>
back pack</w>
ap p</w>
S mo
Pho enix</w>
Loren zo</w>
I ren
Ha yes</w>
D s</w>
A me
A C</w>
wood en</w>
ver ing</w>
slo ppy</w>
s by</w>
regre ts</w>
recomm en
ra des</w>
man eu
li ons</w>
li mo</w>
kni ghts</w>
inno cence</w>
gue ssed</w>
cur tains</w>
auto matic</w>
an as</w>
Ri ker</w>
O ba
Li s
H at
H ag
G at
Eli jah</w>
w oul
un armed</w>
ti l
the --</w>
th on</w>
sk y
si er</w>
ro y</w>
requ ests</w>
rac es</w>
monit oring</w>
lo g
identi fication</w>
fu rious</w>
compli ments</w>
co pper</w>
ax e</w>
ag ing</w>
Wi lly</w>
Sco field</w>
Pri ce</w>
Inter national</w>
Gar den</w>
Cassi e</w>
Amb assador</w>
9 .
wel fare</w>
sum mon
ri der</w>
retri eve</w>
ma iden</w>
im o</w>
hea led</w>
gren ade</w>
ess ence</w>
dol ph</w>
dispos al</w>
collap sed</w>
cha p</w>
ano ma
Ne gro</w>
Min ne
Lor i</w>
Gu ess</w>
A y</w>
A pp
sli ghtest</w>
senti mental</w>
ri o</w>
ri cane</w>
ra il</w>
ne gle
gh etti</w>
experi ences</w>
ex- husband</w>
cra shing</w>
app ea
Sa sha</w>
NAS A</w>
K ru
In stitute</w>
Fit z
Bu d</w>
Bloo d</w>
Al -
A in</w>
z y
vi c</w>
un t
un do</w>
tex ts</w>
sav age</w>
s cars</w>
roo ts</w>
ro be</w>
rep li
pap a</w>
nowa days</w>
n y
mo vements</w>
min ary</w>
mi x
mb les</w>
gran ts</w>
fac e-
e fficient</w>
der ness</w>
custo m</w>
bo thers</w>
be lts</w>
abor ate</w>
Qu in
IC E</w>
C lin
Bir gitte</w>
2 000</w>
supervi sor</w>
stitu tion</w>
sei ze</w>
resi dents</w>
reali stic</w>
re de
phar ma
or gan</w>
metap h
la sting</w>
drea dful</w>
do t</w>
deman ding</w>
bi c</w>
Swe et</w>
S cu
Nev ada</w>
I- I-I</w>
Hu go</w>
Ham mond</w>
4 6</w>
under stand
trans late</w>
sophisti cated</w>
rea ches</w>
re set</w>
pop corn</w>
oty pe</w>
magaz ines</w>
li ve
foun tain</w>
ac commo
Wat er</w>
W ally</w>
E mili
De x</w>
ter i
sett ling</w>
sens or</w>
pre ven
ni sh</w>
m aps</w>
ho re</w>
hard ware</w>
depar ture</w>
deli ghtful</w>
civili zed</w>
Ther esa</w>
T oo
Swi ss</w>
Shel ly</w>
S ca
P y
Ni gel</w>
Je di</w>
J r</w>
Gal la
Fa mi
4 ,000</w>
- Here</w>
ti pped</w>
thor ough</w>
sor row</w>
ser y</w>
ri son
retar ded</w>
re sort</w>
pro position</w>
invol vement</w>
hei m</w>
gen i
fin ance</w>
explo ded</w>
det ect</w>
cha tter</w>
Sal em</w>
Pen tagon</w>
O z</w>
M ust</w>
Han nibal</w>
Gree ce</w>
Fi sher</w>
Engin e
20 th</w>
supp ose
slaugh tered</w>
sla very</w>
sk ele
sho vel</w>
rab bits</w>
presen ted</w>
pos ter</w>
marvel ous</w>
m ney</w>
ir relevant</w>
igno red</w>
equ als</w>
bi zarre</w>
along side</w>
Wh ose</w>
Wes en</w>
Sti les</w>
M ach
Cour se</w>
Ci sco</w>
Chi l
B ack
An nika</w>
volunte ered</w>
under water</w>
tu mor</w>
to w</w>
ssi e</w>
ro gue</w>
re d-
post p
pe ed</w>
p ine</w>
it i</w>
in tu
fla ttered</w>
divi ded</w>
diplo matic</w>
de tention</w>
de fi
champi onship</w>
bb a</w>
acquain tance</w>
Sin ce</w>
Hy de</w>
G inger</w>
Ez ra</w>
Capit ol</w>
5 .
wor kin</w>
v as</w>
targe ting</w>
sub marine</w>
ri ties</w>
raz or</w>
ra ine</w>
n osed</w>
main ly</w>
hand cuffs</w>
ha bits</w>
fun ding</w>
fe min
contrac ts</w>
cla iming</w>
bri be</w>
bar k</w>
au r</w>
ach ing</w>
Ric o</w>
Mont ana</w>
LA PD</w>
Ho t</w>
Co de</w>
Bene dict</w>
we stern</w>
un acceptable</w>
tro ll</w>
sexu ally</w>
se mester</w>
rema ined</w>
psycho tic</w>
prote in</w>
numb ered</w>
lab or
hi ring</w>
h .</w>
fa ils</w>
do -
develo ping</w>
To day</w>
Sophi a</w>
Or der</w>
Gover nment</w>
- for</w>
u c
su bur
se ls</w>
sc r
sacrifi ces</w>
reco gnition</w>
prophec y</w>
perfor med</w>
p rank</w>
kill ings</w>
bar racks</w>
b ition</w>
b -
O D</w>
Miran da</w>
Mc G
M ost</w>
Cam p</w>
C ou
surviv or</w>
secre tly</w>
sca m</w>
regi stration</w>
quaran tine</w>
po lar</w>
nu n</w>
know led
k les</w>
ge ly</w>
ex ter
don or</w>
de ce
bre w</w>
br at</w>
Moo re</w>
Mo mma</w>
M and
M all
L ee
Ii ke</w>
Cec i
Ala ska</w>
va ld</w>
request ing</w>
remin der</w>
reinfor cements</w>
progra ms</w>
premi ses</w>
pre li
min t</w>
mili tia</w>
man sion</w>
ligh tly</w>
inve st</w>
depre ssing</w>
cur tain</w>
colle cted</w>
bath tub</w>
Republi can</w>
Nee lix</w>
Ga vin</w>
E ye</w>
C and
An ti
A a
swea ting</w>
super hero</w>
stra w</w>
sho cking</w>
s dale</w>
rememb ering</w>
pron ounce</w>
pre serve</w>
par d</w>
nar ci
inclu des</w>
fra ter
fi x
du mp
dron es</w>
comp ass</w>
bo o</w>
blo g</w>
am bu
P hy
J en</w>
Goo gle</w>
Fal ls</w>
Con tin
A z
ü hrer</w>
yach t</w>
w ra
shi fts</w>
s our</w>
k y
increa sed</w>
hospit ality</w>
f ounded</w>
drun ken</w>
dream t</w>
da ries</w>
cou gh
cott age</w>
cha u
bos ses</w>
ba dass</w>
at ched</w>
W E</w>
T op
H ell
G .</w>
Fer r
Ch erry</w>
vide os</w>
touri sts</w>
tion ed</w>
st ina</w>
rif les</w>
pro gre
pen gu
p als</w>
mar ching</w>
l ur
go wn</w>
divi de</w>
continu ing</w>
certain ty</w>
atten ded</w>
Wit ness</w>
S cor
N -
K re
Frank enstein</w>
F ur
- When</w>
re lla</w>
pump kin</w>
nur sing</w>
negoti ations</w>
n it</w>
ma stur
lo gs</w>
inspec tion</w>
go mery</w>
equ ally</w>
e ing</w>
desp air</w>
cr appy</w>
com b</w>
c hard</w>
bun ker</w>
bu t--</w>
bu bbles</w>
au dio</w>
M o</w>
6 th</w>
wa y
scre w
refu ses</w>
progra mme</w>
ph oned</w>
mo dest</w>
inve sted</w>
hi ke</w>
h ence</w>
el t</w>
cock sucker</w>
break down</w>
bl end</w>
ann on</w>
ad ren
accu sing</w>
Tri sh</w>
Phi lly</w>
F F
E lla</w>
zz i</w>
ul a</w>
sun rise</w>
re sident</w>
pe op
over ride</w>
ma m
gui ded</w>
bu mped</w>
be lla</w>
ba ss</w>
W IT
S hu
Ra i
P lea
O ops</w>
I m
God damn</w>
Fit z</w>
Bull shit</w>
wa ving</w>
v els</w>
tr aps</w>
ta sty</w>
t u</w>
swea ty</w>
suppose dly</w>
spectac ular</w>
sp ine</w>
shar ks</w>
s to</w>
prin ted</w>
noti fy</w>
jack ass</w>
inf ra
hus bands</w>
han ding</w>
do g
def ensive</w>
accu sations</w>
accep ting</w>
S wit
S er</w>
Ma h
Lea der</w>
L ec
Ha -ha-ha</w>
G ate</w>
Dani elle</w>
C ass</w>
A ni
A k
A IDS</w>
w rin
v als</w>
u tter
th ra
ta ting</w>
swal lowed</w>
ri ses</w>
or ted</w>
must ache</w>
mo ck</w>
imp rison
hous ing</w>
expec tations</w>
end or
e o</w>
dis rup
ca sual</w>
bin go</w>
ac hu
Mer ce
Hor n
Cro wn</w>
Bar row</w>
wi zard</w>
ter a</w>
sc oo
rea lm</w>
r enti
pecu liar</w>
or al</w>
oper ative</w>
m n
lin ger</w>
li mb</w>
l n
har bor</w>
g i</w>
fa in
deliver ing</w>
dd les</w>
custo ms</w>
clos es</w>
ch um</w>
acqu ired</w>
Shel by</w>
Mari o</w>
K eller</w>
Jane way</w>
Go ing</w>
Eri ca</w>
E le
Cour tney</w>
- Please</w>
y an</w>
well ing</w>
to pic</w>
thi cal</w>
stri pper</w>
spon sor</w>
speci alist</w>
sh ook</w>
ro ts</w>
publi c
medi um</w>
inven tory</w>
exer ci
deliber ately</w>
d ged</w>
cul p
congratu late</w>
ca tches</w>
brea ker</w>
annu al</w>
To p</w>
S U
Man u
L -
K -
H off
H in
Fa ir
F -
Dani els</w>
B ird</w>
you -</w>
ten -
ta kin</w>
snu ck</w>
sn apped</w>
sal vation</w>
ra i</w>
intri gu
gre et
co di
bu sting</w>
bu ckle</w>
billi ons</w>
Tok yo</w>
Jo y</w>
Gran ny</w>
- T
so ck</w>
si ghts</w>
re z</w>
out standing</w>
na u
har vest</w>
h eel</w>
guar ding</w>
go ts</w>
fel ony</w>
f fe</w>
cri es</w>
cra zi
char ts</w>
S mi
S aga</w>
Par liament</w>
N ine</w>
N C
Ho liness</w>
Excell ency</w>
A mber</w>
A .</w>
- Wait</w>
tr on</w>
to p-
ti ble</w>
st ray</w>
sen sible</w>
produ ced</w>
por tion</w>
neighb our</w>
lon gest</w>
instru cted</w>
dol ph
discre et</w>
dan ced</w>
con dom</w>
boun daries</w>
ari an</w>
amu sing</w>
ag ers</w>
a ut</w>
Z ero</w>
Sy dney</w>
Or son</w>
Ke v</w>
Hen derson</w>
F loyd</w>
Al ways</w>
volu me</w>
vo mit</w>
transpor ter</w>
ti ful</w>
ster dam</w>
s ought</w>
righ t-
regi ment</w>
rac ket</w>
los ses</w>
identi cal</w>
greet ings</w>
fuck ing-
ev ac
employ ment</w>
dru ms</w>
do x</w>
daw g</w>
d ment</w>
Z one</w>
Pau la</w>
Nor th
Lar sen</w>
La w</w>
Esp hen
- Take</w>
t z
sub stance</w>
sp ends</w>
sin gs</w>
rhy thm</w>
re vol
r s</w>
perfor ming</w>
pal m</w>
os h</w>
off rey</w>
no re</w>
ma tive</w>
li o</w>
jewel s</w>
in gre
humili ated</w>
far ther</w>
exper tise</w>
eigh th</w>
diagnos is</w>
crea tes</w>
bit ten</w>
baby sitter</w>
al tar</w>
S C
P LA
No .</w>
Ch ev
Bec ca</w>
5 8</w>
3 0-
whi sky</w>
well s</w>
stal king</w>
ski pped</w>
sav ings</w>
sav ages</w>
s able</w>
re t</w>
publi city</w>
pri ests</w>
os a</w>
oin ting</w>
magi cian</w>
in fla
h em</w>
for ged</w>
electr onic</w>
ele gant</w>
drive way</w>
disor der</w>
d ner</w>
conqu er</w>
bli n</w>
Sha wn</w>
Pit ts
Hal ey</w>
D oo
Ben net</w>
- if</w>
va r</w>
tex ted</w>
ta rian</w>
stra in</w>
serva tions</w>
sco tch</w>
sc he</w>
re sig
mon ia</w>
mirac les</w>
me th</w>
mar ty
kne el</w>
foren sic</w>
d ship</w>
bo s</w>
as hore</w>
a ma</w>
W ag
Qui et</w>
H as
Esphen i</w>
Ed wards</w>
Da vi
Ca thy</w>
C lo
&apos; ll
tal ler</w>
sta d</w>
sli pping</w>
s miles</w>
que z</w>
mo ms</w>
mo men
ma ti
la m</w>
inv ent</w>
fee ds</w>
evac uation</w>
e di
cou p</w>
con spi
compen sa
cli mate</w>
cha mbers</w>
bi l</w>
apo calypse</w>
al together</w>
W ell
Fi eld</w>
F lo
Er in</w>
Daw son</w>
Bry an</w>
Ben son</w>
B ar</w>
A gn
wan der</w>
wal ker</w>
sta tic</w>
se ñor</w>
respec tful</w>
ren tal</w>
pri m
preten ded</w>
materi als</w>
it --</w>
emplo yer</w>
comm ents</w>
bl ink</w>
ab out
Mar go</w>
Fami ly</w>
A D</w>
3 0,000</w>
u sal
tru ce</w>
survi ving</w>
pu ppet</w>
obli gation</w>
house hold</w>
fre ely</w>
eri c</w>
di ent</w>
dev ices</w>
demo i
dd led</w>
d well</w>
bo ws</w>
awa its</w>
an ey</w>
amb itious</w>
Tur tle</w>
S kin
R angers</w>
Phi li
O. J.</w>
N ei
Mi ka
Man dy</w>
Loui si
K es</w>
Jo yce</w>
Iren e</w>
G r
B our
Au stri
usal em</w>
ti cking</w>
ta b</w>
rebe llion</w>
re consider</w>
power ed</w>
per vert</w>
mba g</w>
ki sses</w>
ir a</w>
ho g</w>
d is</w>
ctu ary</w>
att ract</w>
al titude</w>
Sla de</w>
Merce des</w>
Chin a
Car l
B lo
wri ters</w>
tos sed</w>
thor ough
th read</w>
sti r</w>
sou thern</w>
sar ca
ru sty</w>
p ins</w>
orphan age</w>
ne ts</w>
law suit</w>
ja mas</w>
j ec
j ac
ir ing</w>
in go</w>
i ster</w>
hun ch</w>
dou che</w>
dee pest</w>
cor respon
climb ed</w>
buff alo</w>
bu zz
bree ze</w>
bi dding</w>
af t</w>
Th or</w>
Su l
Ou ch</w>
M it
Li v</w>
Jer usalem</w>
D el</w>
tra ded</w>
tr ous
swin ging</w>
squ a
ro ller</w>
re stored</w>
pin ch</w>
out si
mon es</w>
mer ry</w>
lo cals</w>
jan itor</w>
gin a</w>
flir ting</w>
examin ed</w>
ev a</w>
eigh t-
camp s</w>
butter fly</w>
br ed</w>
bas h</w>
Su san
Sli m</w>
Paki stan</w>
P l
Lau rie</w>
G .
Char le
Ba ttle</w>
B att
under estimate</w>
time line</w>
refle ction</w>
men tor</w>
i cal</w>
grea se</w>
free zer</w>
cla ws</w>
cata stro
bar king</w>
W ild</w>
R -
Ha stings</w>
Corin ne</w>
Ca me
C af
6 4</w>
tt est</w>
thank ful</w>
sei zed</w>
redu ce</w>
promot ed</w>
pro ving</w>
par l
mor r
gro ans</w>
g ments</w>
de co
compani on</w>
ble y</w>
b son</w>
ac company</w>
a while</w>
a qu
Un it</w>
Philli ps</w>
Mor ay</w>
Miss ouri</w>
Li zzie</w>
A va</w>
y- ass</w>
touri st</w>
to wns</w>
ris ked</w>
p. m</w>
memor ial</w>
k ling</w>
inter cep
id ers</w>
i sing</w>
gi ble</w>
ge o
fun dam
flo wn</w>
fli ghts</w>
fle e</w>
en cies</w>
el bow</w>
e some</w>
cri b</w>
chap el</w>
assaul ted</w>
ali sm</w>
ad rant</w>
Sa wyer</w>
Pitts burgh</w>
Mont gomery</w>
Gen tle
Eng li
5 6</w>
0 1</w>
u t
tal ents</w>
su ckers</w>
sp ac
see ds</w>
refriger ator</w>
psy ch</w>
produ ctive</w>
pani cked</w>
mer cen
ke es</w>
initi ate</w>
in cl
hysteri cal</w>
gre y</w>
function ing</w>
fi cations</w>
cru cial</w>
cla n</w>
atten ding</w>
as s-
arro ws</w>
af fi
W ei
Re u
P lu
Os lo</w>
Or i</w>
McCo y</w>
Louisi ana</w>
H. I.
Den ver</w>
vacu um</w>
shor ter</w>
sco ffs</w>
sc rap
restaur ants</w>
re fre
par achu
ma tics</w>
interrup ted</w>
grocer y</w>
god damned</w>
eras ed</w>
difficul ty</w>
consi deration</w>
chi se</w>
bro w
as sing</w>
achi eved</w>
The o
Spi rit</w>
Ra dio</w>
R eal</w>
M ind</w>
Kra mer</w>
G ates</w>
G arre
Bar k
Am sterdam</w>
A de
y elled</w>
tch y</w>
ot t</w>
on board</w>
n ay</w>
ma the
m mel</w>
m its</w>
lon g
ki sh</w>
k not</w>
ga p</w>
exa mination</w>
ev a
du cks</w>
deser ted</w>
demoi selle</w>
contain ment</w>
car rier</w>
bit es</w>
bi cycle</w>
bar rier</w>
arti llery</w>
Sh oot</w>
S c
Isa belle</w>
D ON</w>
Cra zy</w>
Bu ll</w>
Al mighty</w>
Agn es</w>
A ga
ske tch</w>
scu mbag</w>
re surrec
pop ping</w>
pon d</w>
obse ssion</w>
loy ment</w>
lli ed</w>
kron er</w>
guar ded</w>
god dess</w>
endu re</w>
du ct</w>
desper ately</w>
cour ts</w>
ch er
bu rial</w>
b ate</w>
aspir in</w>
W oo
W on</w>
Stev ie</w>
Sand ra</w>
S tran
L and</w>
Ha le</w>
whisp ers</w>
vi sa</w>
vi or</w>
transmit ter</w>
tane ous</w>
sa iled</w>
s ked</w>
roo kie</w>
recru it</w>
pay roll</w>
no t
life style</w>
li ans</w>
leg it</w>
l k</w>
is --</w>
invol ving</w>
intel lec
har ds</w>
glo be</w>
g na
f ly
f i</w>
ed ith</w>
dee ds</w>
d agger</w>
consu lt</w>
cla ssy</w>
candi dates</w>
ca m</w>
Un til</w>
O ver
LAU GH
K NOW</w>
Har lem</w>
A ssa
&apos; T
tou ch
suppor ting</w>
st oned</w>
pas sports</w>
outra geous</w>
neighb ours</w>
na vy</w>
me mo</w>
laun ched</w>
histori c</w>
expl or
di se</w>
convi ct</w>
bi es</w>
Ton ight</w>
O ak
Co man
Bri dget</w>
B ad
Ari a</w>
- Stop</w>
thro ats</w>
succee ded</w>
sp ells</w>
se ment</w>
sci ssors</w>
respec table</w>
r one</w>
protoco ls</w>
p tic</w>
overwhel ming</w>
mu ck</w>
ir ony</w>
gra sp</w>
fea thers</w>
faci lities</w>
fac ial</w>
disc ount</w>
dev o
comman ding</w>
bi as</w>
Y ay</w>
Suz anne</w>
S ad
Os wald</w>
Jean -
Emi lie</w>
Clea r</w>
Be tsy</w>
wher e
vie ws</w>
sabot age</w>
s wo
ri gged</w>
representa tive</w>
os ev
nick el</w>
n ab
mechan ic</w>
gu er
g man</w>
dela yed</w>
concu ssion</w>
ani ce</w>
Temp le</w>
T ob
S at
Qu a
O w
N ad
HA VE</w>
Er nie</w>
E w</w>
Dor is</w>
Da g</w>
Broo ke</w>
B eng
utter ly</w>
to mb</w>
tea m
sal ute</w>
nu mer
ma dman</w>
li est</w>
inter n</w>
ine a</w>
indi cates</w>
impro vi
extrac tion</w>
dro be</w>
cri p
co zy</w>
au d
ac le</w>
Tu be</w>
Mar k
Ar ch
AR E</w>
tun a</w>
reli eve</w>
pu pi
physi cian</w>
mon k</w>
mid st</w>
mi lla</w>
ly ri
infin ite</w>
exp and</w>
do lls</w>
comm en
T- shirt</w>
S lo
Ric hards</w>
Mi lls</w>
Li on
H all
Craw ley</w>
- down</w>
super st
su fficient</w>
spar k</w>
se wer</w>
rec y
in stantly</w>
i ss
g room</w>
dis abled</w>
confi sca
c ere</w>
bru ary</w>
associ ated</w>
app ers</w>
anti bio
W u</w>
US T</w>
T ot
Su mmer</w>
Son ja</w>
Pro ph
NY PD</w>
La mb
L ang</w>
For ces</w>
F ree</w>
Eli as</w>
Ed mund</w>
Bea tri
B anks</w>
Al aba
6 6</w>
yi eld</w>
ta u
on able</w>
off ence</w>
meaning less</w>
lo ttery</w>
inqui ry</w>
gh t-
gen s</w>
flo wing</w>
e ger</w>
ck ery</w>
ch or
catal o
b u</w>
approach ed</w>
aph ne</w>
anti dote</w>
Su preme</w>
H ear
- Really</w>
ti est</w>
sta kes</w>
re l
ra tt
pin ned</w>
pa ins</w>
opini ons</w>
occu pation</w>
mor tality</w>
mi ss
inde er</w>
ic ed</w>
ci des</w>
bol locks</w>
ad just
P il
P H
Oba ma</w>
No lan</w>
Clar ence</w>
Carol ina</w>
C ash</w>
Bur k
Bry ce</w>
Be li
9 8</w>
12 -
vol can
tou gh
sn itch</w>
ou sy</w>
no od
haw k</w>
gre n</w>
grand daughter</w>
frigh ten</w>
emplo yed</w>
door bell</w>
di sin
comman ds</w>
abu sed</w>
Tri stan</w>
T ammy</w>
Stan ford</w>
Sa y
Pre ston</w>
Ni els</w>
Mer edith</w>
L op
I V</w>
Galla gher</w>
Fl or
Di e
Dar yl</w>
B rand
An drea
5 3</w>
zer land</w>
ver n</w>
termin ate</w>
tel lin</w>
t it</w>
sme lling</w>
ru m
profession als</w>
pre fer
pi er
p m</w>
oun ts</w>
mo de</w>
min ing</w>
mi l</w>
mar t</w>
industri al</w>
grown -up</w>
fe teria</w>
earth quake</w>
e sca
consul tant</w>
ci le</w>
bu gger</w>
body guard</w>
bi a</w>
appre h
ac knowled
a waiting</w>
Vir gil</w>
NO T</w>
Ma ss</w>
K r
K E</w>
In du
Cu ban</w>
Af fairs</w>
A vi
1 20</w>
wee p</w>
sun light</w>
spee ches</w>
ske te
sh its</w>
or phan</w>
nor thern</w>
j elly</w>
it is</w>
inter fer
en chan
direc ted</w>
con dol
cho king</w>
ce tera</w>
a ka</w>
Ter ri
Stan ton</w>
N at</w>
Mari on</w>
C AN</w>
An s
20 -
z ers</w>
wh ites</w>
vio lated</w>
uh -</w>
time -
surgi cal</w>
suppor ted</w>
squir rel</w>
sha ved</w>
ri ans</w>
mu te</w>
invest ors</w>
insul ting</w>
hand writing</w>
gre en
g or</w>
dun no</w>
croo ked</w>
chemi cals</w>
che aper</w>
bo mber</w>
be ware</w>
ac res</w>
Yan kees</w>
Wh a</w>
W anna</w>
S E</w>
Matthe ws</w>
L. A</w>
J im
J a</w>
Har bor</w>
G ray</w>
Fe ds</w>
Do e</w>
Coo kie</w>
C ul
C age</w>
Ax el</w>
8 0s</w>
. ....</w>
tea ches</w>
sta dium</w>
sle eve</w>
radi o
procedu res</w>
o es</w>
me la</w>
liter ature</w>
l ust</w>
ir responsible</w>
inven tion</w>
impro ved</w>
hot els</w>
happ iest</w>
for ming</w>
encoun tered</w>
en ess</w>
di e
con front</w>
co lli
challen ging</w>
challen ged</w>
ch eri
bour bon</w>
bo a</w>
are z</w>
a o</w>
Won der
W inst
Ro osev
Me tro</w>
J anice</w>
Greg ory</w>
Fe bruary</w>
D est
Christ ina</w>
Ce lia</w>
Alaba ma</w>
Al lah</w>
war drobe</w>
w ley</w>
trous ers</w>
trac tor</w>
sou ven
senten ced</w>
run nin</w>
rin g
ri val</w>
re ve
re p</w>
public ly</w>
per cen
j ay</w>
hand -
gar ten</w>
ex or
ev alu
eli te</w>
do cks</w>
cu ry</w>
crac king</w>
con doms</w>
c tiv
bu ck
at -
ad mit
Y uri</w>
W O
V ati
U p
Ka thy</w>
In grid</w>
I da</w>
H assa
C happ
un d</w>
torpe do</w>
tele gram</w>
smar test</w>
sal mon</w>
redu ced</w>
pp in</w>
pay ments</w>
op h
hea p</w>
grea tly</w>
glu e</w>
frea ky</w>
follo wers</w>
exten sion</w>
demon strate</w>
cu m</w>
col lateral</w>
ca use
ca feteria</w>
attemp ts</w>
Ste p</w>
Rober ts</w>
Ki ller</w>
K y
An ita</w>
wa s
wa ges</w>
wa ger</w>
ven ly</w>
v ents</w>
tac tics</w>
spa ghetti</w>
ru shing</w>
or chest
invol ves</w>
ff ers</w>
experi encing</w>
ex tract</w>
el er</w>
di ver
dest ined</w>
desig ner</w>
c tic</w>
ba m</w>
ado ption</w>
ade qu
achi ev
Vul can</w>
Per fect</w>
Pe dro</w>
Ma e</w>
K ol
I o
H an</w>
G U
Cor rec
Ame lia</w>
were wolf</w>
veri fy</w>
susp en
smu ggling</w>
sin cere</w>
s u</w>
ri am</w>
resig nation</w>
langu ages</w>
ju ven
jeal ousy</w>
inte gra
in fan
grocer ies</w>
gla dly</w>
gen es</w>
gar den
expe dition</w>
ex otic</w>
d -</w>
coun try
cho ir</w>
c -
brother -in-law</w>
batt alion</w>
arre sting</w>
ar ch</w>
an ten
ami go</w>
Vati can</w>
T wit
Swit zerland</w>
Ros en</w>
Mc Donald</w>
Grac ie</w>
A ur
6 8</w>
wre stling</w>
vi be</w>
ve nom</w>
st unning</w>
smo kes</w>
se less</w>
r k</w>
r er
pre ssion</w>
pre dat
no ises</w>
ma iling</w>
le on</w>
insul ted</w>
fu sion</w>
fi erce</w>
fea ther</w>
fe it</w>
comp on
clo wns</w>
cin e
bru ises</w>
ap e
W as
Ti ff
K G
H unt</w>
D aphne</w>
Cal la
vari ety</w>
tea se</w>
sp a</w>
sc outs</w>
ri ages</w>
publi sh</w>
psychiatri c</w>
pro vin
po lls</w>
plan ets</w>
na tion
men to</w>
hu mour</w>
equi pped</w>
concentra tion</w>
con gre
clu msy</w>
bo il</w>
aven ge</w>
arti cles</w>
Whit e
Sa ve</w>
R ing</w>
Po mp
Peter son</w>
Mil ton</w>
Me mor
Do dge</w>
Del aney</w>
De s
A gency</w>
spi ke</w>
portra it</w>
pa sta</w>
na tives</w>
mp h
mar tin
lu mp</w>
intervie wed</w>
inher ited</w>
ho ma</w>
histori cal</w>
hero ic</w>
dru gged</w>
che z</w>
che ers</w>
ar tery</w>
ado pt</w>
ad diction</w>
Tor res</w>
Th ought</w>
T S</w>
Kno pe</w>
G au
E mb
un load</w>
transpor tation</w>
tra itors</w>
thri ll</w>
teen agers</w>
t land</w>
sa dness</w>
qu it
priv ately</w>
pos ts</w>
instal led</w>
hide ous</w>
er rand</w>
dri ed</w>
consider able</w>
advi sor</w>
accompli ce</w>
Ze us</w>
T V
N ot
Ear p</w>
Dou gie</w>
Dan te</w>
D .A.</w>
wi shing</w>
trea ch
sy rup</w>
sin king</w>
prot otype</w>
pro mp
p ren
mi ce</w>
m ity</w>
in sanity</w>
gra ves</w>
en dang
dre sser</w>
cur few</w>
corp ses</w>
comb ined</w>
co e</w>
cl ay</w>
bit ed</w>
accoun ting</w>
Wat er
Tiff any</w>
Some times</w>
Shan non</w>
Sha dow</w>
Roosev elt</w>
Ja sper</w>
Hen rik</w>
Hassa n</w>
G ö
G O</w>
G ET</w>
Di xon</w>
Di ck
Ar tie</w>
won ders</w>
v ine</w>
ta ted</w>
swe pt</w>
surr ounding</w>
se mi
sc ored</w>
re indeer</w>
prostitu tes</w>
o ak</w>
inga le</w>
fre ed</w>
fli pped</w>
fi ling</w>
enter tain</w>
e tt</w>
e sses</w>
desi res</w>
de e</w>
conne cting</w>
co yo
co war
bi ology</w>
bab y-
au to</w>
an e
ad dic
Winst on</w>
Sim mons</w>
Scar lett</w>
S. H.I.
N .
Ka y
Jo dy</w>
H ansen</w>
Fran ce
7 0s</w>
20 0,000</w>
- ups</w>
wor ld
tit ties</w>
tion ist</w>
swa p</w>
si l</w>
ser um</w>
se um</w>
re el</w>
ra h</w>
presi dential</w>
ow a</w>
nur sery</w>
musi cian</w>
mi sh</w>
metaph or</w>
me lo
ju mps</w>
in da</w>
hei st</w>
hea v
gh etto</w>
environ mental</w>
diso be
di ous</w>
battle field</w>
Kor ean</w>
K night</w>
Isra el
Four th</w>
For eign</w>
F ow
F ill
Can yon</w>
Bron x</w>
wre cked</w>
wi re
sti cally</w>
s lack</w>
ri ta</w>
no ted</w>
lin ks</w>
gri ll</w>
ga mb
dri ft</w>
discre tion</w>
disapp ears</w>
demon stra
d t</w>
cra te</w>
but ler</w>
a min
Th ings</w>
S.H.I. E.
Ro mans</w>
Ou t
Me d
Lex i</w>
K id
Her man</w>
A w
- Sorry</w>
wo o</w>
vigilan te</w>
thr ust</w>
tack le</w>
summon ed</w>
shal low</w>
sh re
sele cted</w>
run way</w>
organi ze</w>
op position</w>
la be
hel l
foot steps</w>
el aborate</w>
el -
condem ned</w>
ca t
bu reau</w>
b atch</w>
ani um</w>
alle gi
WH AT</w>
Tali ban</w>
TH E
T ER
So fia</w>
Qa eda</w>
On ce</w>
Na me</w>
H ey
Andrea s</w>
x -
tor na
toma to</w>
targe ted</w>
stri es</w>
stit ches</w>
scra p</w>
re cep
r ust</w>
pro p
preli minary</w>
po ver
pay back</w>
pa irs</w>
nee dles</w>
ne cks</w>
lo o</w>
legen dary</w>
gover n
fuck ed-up</w>
ev ic
enti als</w>
de bris</w>
d ator</w>
bi kes</w>
ba k
a lists</w>
a cademy</w>
V al</w>
Ola f</w>
Lun d</w>
For eman</w>
9 00</w>
2 1st</w>
&apos; s-</w>
é n</w>
yo υ</w>
y- you</w>
wer ing</w>
speci alty</w>
se i</w>
rin ge</w>
pee k</w>
p us</w>
orphan s</w>
mo p</w>
mb ing</w>
ma kin</w>
le mon
la dy
jo lly</w>
humili ating</w>
hi ps</w>
gg ers</w>
g ance</w>
ess entially</w>
cri pple</w>
compar tment</w>
bo ost</w>
alter nate</w>
agre es</w>
accoun ted</w>
a cade
T E
Su sie</w>
S no
Po i
La w
F .</w>
D S</w>
Bran ch</w>
wor m
wh ining</w>
traffi cking</w>
su ffo
sti cal</w>
spl ant</w>
sincer ely</w>
self- defense</w>
recommen dation</w>
rec rea
perman ently</w>
lo osen</w>
ll es</w>
imagin ing</w>
gr abbing</w>
g eri
et y-
en o</w>
e- mails</w>
cer eal</w>
asse ssment</w>
as is</w>
W is
U F
Sc out</w>
Ro man
Oper ation</w>
Lion el</w>
K at</w>
Jac ob
Horn blower</w>
Gra dy</w>
vi le</w>
star ters</w>
safe st</w>
ru ins</w>
ran o</w>
mis sus</w>
look out</w>
loa f</w>
lo dge</w>
list ens</w>
lic ence</w>
li ars</w>
i zed</w>
fa sci
ex ce
e sp
demon stration</w>
condol ences</w>
bri e
W .</w>
S ection</w>
Ri p</w>
Ray burn</w>
Patt erson</w>
P sy
Loo king</w>
Be ck</w>
Associ ation</w>
A Y</w>
6 7</w>
wer ed</w>
virtu e</w>
triump h</w>
the ore
sk et</w>
pun c
oun ced</w>
negoti ating</w>
land lord</w>
hos ts</w>
go als</w>
g ings</w>
el f</w>
dischar ge</w>
cro codi
cour thouse</w>
c ani
beli efs</w>
at i</w>
a hold</w>
R and</w>
P ad
Mar se
H ad</w>
Gu er
Gir ls</w>
D eep</w>
Cha irman</w>
Came lot</w>
Ca di
C rea
Bu ster</w>
Angel o</w>
- Give</w>
- Because</w>
uh --</w>
tran splant</w>
tou gher</w>
st ache</w>
ri ck</w>
ra ys</w>
py ra
pun ching</w>
psycho logy</w>
pop e</w>
pa stor</w>
o live</w>
kin der
inti mid
inter n
i ans</w>
head aches</w>
dwar f</w>
don ation</w>
disapp ointing</w>
d r</w>
cont ext</w>
chri st
chil dish</w>
bro ker</w>
Squ ad</w>
Sa van
S tal
R ory</w>
Mil o</w>
Hi ya</w>
G run
F on
D rac
D ance</w>
Car ly</w>
A sia</w>
5 4</w>
- ls</w>
wra th</w>
voy age</w>
stero id</w>
stan ts</w>
sor cer
qu id</w>
pre ju
pet ition</w>
parti al</w>
over time</w>
li th</w>
la rity</w>
f lock</w>
exp ects</w>
don key</w>
corpor ation</w>
cla ir</w>
ar chy</w>
adverti sing</w>
Ski pper</w>
S wan
Reu ben</w>
Nassa u</w>
Go l
Fle tcher</w>
E ven
Bri ggs</w>
B ang
- One</w>
wh eat</w>
war m
ve z</w>
tru sts</w>
to wers</w>
sub stantial</w>
str apped</w>
sti cky</w>
sing le-
ro ckets</w>
re en</w>
pup pies</w>
proce ssing</w>
pi geon</w>
never theless</w>
neu tra
nar cotics</w>
manife st</w>
la sts</w>
ki los</w>
k ened</w>
ge es</w>
four teen</w>
for tress</w>
chan nels</w>
aff ects</w>
af fir
W yn
Tru man</w>
S tea
S ing
Lu c</w>
Lat er</w>
LE S</w>
Kry p
Ja ma
Indi ana</w>
Ca p</w>
C lose</w>
An yone</w>
Ah med</w>
7 .
z ni
st abbing</w>
ssi onal</w>
squ e</w>
rea cting</w>
re no
pat ro
marke ting</w>
ma ra
long- term</w>
initi ative</w>
ig gy</w>
ha irs</w>
eye bro
ex its</w>
epi c</w>
den ial</w>
d ash</w>
bu ster</w>
break through</w>
We sley</w>
Ti ger</w>
M ine</w>
L t.</w>
Free dom</w>
De e</w>
Cher yl</w>
Ara b</w>
- see</w>
y .</w>
weir do</w>
u ce</w>
slo wing</w>
sk ating</w>
sa ves</w>
s culp
radi cal</w>
psycho logist</w>
of the</w>
mis understood</w>
gi o</w>
flash light</w>
cy ni
bea sts</w>
be having</w>
b lea
at ra</w>
Tal bot</w>
E den</w>
Bu tch</w>
Bren nan</w>
AS AP</w>
- Nothing</w>
z zing</w>
z ia</w>
ye a</w>
win ners</w>
wa l</w>
un grateful</w>
termin ated</w>
tab let</w>
restri cted</w>
p neu
on ess</w>
o g
mar ker</w>
lo cations</w>
go ver</w>
g eez</w>
ero y</w>
dis k</w>
di apers</w>
d y-
d et</w>
contrac tor</w>
car bon</w>
busin esses</w>
bar rels</w>
a wait</w>
WA S</w>
Un less</w>
Sel ina</w>
S T</w>
F li
Ever ett</w>
Com man
Ali cia</w>
ul tra
troo p</w>
star t
si ege</w>
ru thless</w>
no d</w>
ju mp
in fe
gli mp
fir mary</w>
ev al</w>
che wing</w>
bur gla
bag gage</w>
V it
O llie</w>
Nur se</w>
Mi riam</w>
Medi cal</w>
Gentle men</w>
D ee
Coun cil
Car men</w>
Burk hardt</w>
v ell
un locked</w>
sum mon</w>
si ren</w>
off end</w>
l ent</w>
hor ns</w>
grand children</w>
gee k</w>
g low</w>
docu mentary</w>
cl one</w>
black out</w>
bi li
am p</w>
X i
Savan nah</w>
Ri pper</w>
Ox ford</w>
Mar cy</w>
M O
L ost</w>
Jen sen</w>
Haw kins</w>
H it</w>
B ou
9 3</w>
vot ers</w>
vi lla</w>
temp tation</w>
sma ll-
slee py</w>
ser vers</w>
san ctuary</w>
roo f
over seas</w>
oni ons</w>
nu tri
lea ked</w>
in sight</w>
ig noring</w>
gan gs</w>
g les</w>
ear rings</w>
dri lling</w>
com missioner</w>
choos es</w>
ca ller</w>
bu shes</w>
bra very</w>
bar ge</w>
ban anas</w>
ba thing</w>
Su b
Pe t
P ass</w>
P O</w>
Mau rice</w>
Egypti an</w>
Aur ora</w>
Al most</w>
you t</w>
wre tched</w>
vi al</w>
u tter</w>
tain ly</w>
stu d</w>
se ssions</w>
ro bbers</w>
ro a
represen ting</w>
quan tum</w>
perpetra tor</w>
occa sions</w>
merchan dise</w>
lo bster</w>
land sc
ja b</w>
for -
den ying</w>
cro p</w>
crac ker</w>
commit ting</w>
co con
clos ure</w>
che que</w>
br on
band its</w>
Vau gh
US A</w>
Sy n
Sti g</w>
Olymp ics</w>
Hu man</w>
Ger ry</w>
D arren</w>
B S</w>
A gain</w>
7 6</w>
ο w</w>
tro lls</w>
t ina</w>
sp an
se da
scan ner</w>
ri pe</w>
re solution</w>
quarter back</w>
provi ding</w>
pre va
pover ty</w>
pa ste</w>
o ke</w>
mon sieur</w>
frigh tening</w>
exten ded</w>
distribu tion</w>
contro ver
con so
challen ges</w>
bulle t
bu ms</w>
blo ck
blan kets</w>
adren aline</w>
W right</w>
Tu cker</w>
Rich mond</w>
N apo
Lop ez</w>
Liber ty</w>
La ur
G E</w>
E ver</w>
Bre w
Bal boa</w>
y an
y ah</w>
warm th</w>
un ite</w>
u no
tooth brush</w>
po l</w>
persu a
nee dn</w>
mil le</w>
mid t</w>
hol der</w>
hi ve</w>
hi ll
exhi bit</w>
disapp earing</w>
break -in</w>
br oo
auto graph</w>
ar ena</w>
You Tube</w>
Vaugh n</w>
Tha i</w>
Pau line</w>
Par ks</w>
Hea d
For est</w>
Fan ta
Fan ny</w>
F air</w>
Cru z</w>
9 6</w>
9 2</w>
ö r
í n</w>
tra iner</w>
success fully</w>
stor ms</w>
sho wers</w>
ru shed</w>
ri ders</w>
re tali
ra g</w>
r ence</w>
prim itive</w>
mu stard</w>
ma tching</w>
lea king</w>
ha zard</w>
don t</w>
de cen
dan ts</w>
blin d
Y ale</w>
U T
S cy
R id
P han
Lang ley</w>
Jen nings</w>
Garre tt</w>
F il
Dia z</w>
Coun tess</w>
Colo mbia</w>
Bra d
B ei
Ab du
A ram</w>
20 s</w>
2 4-
14 th</w>
wa gons</w>
w ing
val ve</w>
trigg ered</w>
ta rily</w>
sp ice</w>
sp ear</w>
sha ck</w>
satis fy</w>
pper y</w>
nos es</w>
mo mma</w>
mi lady</w>
hur ricane</w>
gu rt</w>
gi fted</w>
easi est</w>
e cho</w>
devast ated</w>
d al
cra tes</w>
contin ent</w>
com rades</w>
co wards</w>
c ο
c oul
bor ders</w>
blu ff</w>
ap i
Veg a</w>
S pr
Re sistance</w>
Mex icans</w>
Lo w
Le x</w>
G in
Ca st
Bor g</w>
Ade le</w>
10 th</w>
with dra
tu cky</w>
secre cy</w>
ru bbing</w>
ret ard</w>
re lay</w>
re ject</w>
ow l</w>
ood le</w>
nu mb</w>
natu res</w>
hi des</w>
go l
fro ze</w>
fa g</w>
crac ks</w>
bu tch
bl unt</w>
P .D.</w>
Mu ham
KG B</w>
H ul
Go tham</w>
En d</w>
Cha mp
Bu ff
5 9</w>
tr acker</w>
so line</w>
slo wer</w>
sha ttered</w>
satelli tes</w>
rum ours</w>
pos se</w>
ori gin</w>
ni pples</w>
me se</w>
ma ting</w>
kinder garten</w>
ju icy</w>
fi rear
enter taining</w>
dd ly</w>
car ved</w>
c how</w>
ach ed</w>
San tos</w>
Po le</w>
Po land</w>
Mon te</w>
Le mon</w>
Fow ler</w>
D in
B oth</w>
7 1</w>
tribu te</w>
t ang
syn c</w>
sympa thi
sti on</w>
sta mps</w>
six ty</w>
sc rub</w>
sa ges</w>
recru ited</w>
re tt</w>
re ply</w>
pot entially</w>
o x</w>
neu tral</w>
min i</w>
m mer
ll ers</w>
it lin</w>
hori zon</w>
ext ent</w>
condu cting</w>
ci pal</w>
bomb ed</w>
am ounts</w>
Wol fe</w>
W ing</w>
Po e</w>
Na than
Mar ti
Lec ter</w>
L and
E du
Cer tainly</w>
Brew ster</w>
z oo
wil derness</w>
w oo
vir tually</w>
t ying</w>
st ated</w>
s oo
rough ly</w>
pu mping</w>
mass acre</w>
ma kers</w>
h ed</w>
fun ctions</w>
fresh man</w>
fil th</w>
dri c</w>
devo tion</w>
conclu sions</w>
car ni
bu r</w>
U tah</w>
Sy bil</w>
Su gar</w>
S coo
P ic
Ma fia</w>
Kar in</w>
Fran cine</w>
F ührer</w>
Cos ta</w>
Ch en
C ape</w>
wher eas</w>
su shi</w>
sol ving</w>
si vely</w>
sca ttered</w>
s nor
ru ling</w>
pro bab
pin e
ob stru
mp a</w>
mon o
master piece</w>
la ys</w>
kid neys</w>
ic kie</w>
ho ttest</w>
ge t-
fla gs</w>
ffin s</w>
esc aping</w>
en tation</w>
embarra ssment</w>
doc tor
dis gr
denti fied</w>
credi ble</w>
concer ning</w>
ca f
c run
blu es</w>
bal an
b able</w>
authenti c</w>
adu l
ad dresses</w>
Theo dore</w>
Ste in</w>
SW AT</w>
S ire</w>
Lev i</w>
Geor gie</w>
Cor p</w>
Ca mille</w>
A g
-E -
work shop</w>
ves sels</w>
thorough ly</w>
re ign</w>
quali ties</w>
li stic</w>
jeopar di
ho tter</w>
grave yard</w>
g ory</w>
cti cut</w>
cra z
ci pation</w>
ca fe</w>
boo ty</w>
beauti fully</w>
appar ent</w>
ain es</w>
ad ron</w>
Twit ter</w>
T R
S -
Pe tro
Mo z
Mc Car
Frederi ck</w>
F ron
Ca sti
8 7</w>
z ure</w>
volcan o</w>
to ll</w>
secon dary</w>
perf ection</w>
over board</w>
me mber
inf li
in ity</w>
ham mer
ga soline</w>
e gg
dar kest</w>
conta gious</w>
asse mbly</w>
W inter
Si bley</w>
S i</w>
Rab bit</w>
Olymp ic</w>
Ne ed</w>
Ma gic</w>
Ka sper</w>
Fran ces</w>
C E</w>
Bur rows</w>
Bi an
Andre ws</w>
to ken</w>
su ited</w>
se min
sal on</w>
sa mu
p o</w>
ori e</w>
mea t
lemon ade</w>
j or
hei mer</w>
finan ci
excep tional</w>
equ ation</w>
el der</w>
cru el
chee ks</w>
bu l</w>
ban ned</w>
ast oni
ama zed</w>
S tru
Ru fus</w>
Per kins</w>
Ni xon</w>
Na dia</w>
Martin ez</w>
Luci en</w>
Hit man</w>
Fre dri
DV D</w>
Cla yton</w>
Ber na
B on</w>
ο f</w>
ve il</w>
thu gs</w>
ta ri
sur fing</w>
su stained</w>
sei zure</w>
screa med</w>
sc oop</w>
ra mp</w>
poli sh</w>
ph ony</w>
p ounding</w>
nin e-
neu ral</w>
n ou
ma ze</w>
ma tched</w>
lef to
l ounge</w>
home coming</w>
hear ted</w>
ha ss
gra vy</w>
ga g</w>
fol ded</w>
ev al
deplo y</w>
d able</w>
cont ents</w>
bo xer</w>
be in</w>
app al
al ter</w>
a to</w>
W ra
Te ch
Sab rina</w>
Nev ille</w>
Mc Kay</w>
LI KE</w>
Jen kins</w>
J .D.</w>
Hor ace</w>
Conne cticut</w>
Bar b</w>
B oul
A mir</w>
6 9</w>
6 .
sub space</w>
sto w</w>
ski ing</w>
sail ors</w>
ro tting</w>
ri ssa</w>
re served</w>
phar macy</w>
pay check</w>
o int
manipu late</w>
legi sla
he morr
ha vin</w>
god dammit</w>
fun dra
free way</w>
e u</w>
dimen sion</w>
curren cy</w>
cree ps</w>
contribu te</w>
Val erie</w>
T ele
Pro t
Pro ject</w>
Ore gon</w>
I ran</w>
I ra</w>
Hal f</w>
Fr ost</w>
Charle ston</w>
val et</w>
tri pped</w>
symbo ls</w>
sta tioned</w>
st ering</w>
sha kes</w>
sh ers</w>
refle ct</w>
pu zz
per t</w>
on ne</w>
ne -
mour n</w>
lo ans</w>
lla c</w>
la yer</w>
kno ck
i li
house keeper</w>
grea tness</w>
ful fill</w>
fe wer</w>
f r
establi shment</w>
e mails</w>
down load</w>
dick head</w>
diag nosed</w>
di er</w>
con do</w>
com missi
ck er
br oom</w>
air line</w>
a the
Wo men</w>
So cial</w>
Shor ty</w>
M P
Holl and</w>
Har dy</w>
E min
Dol ores</w>
Com mission</w>
6 2</w>
wa its</w>
tw ood</w>
spli tting</w>
rec on</w>
quarre l</w>
pro pag
pl un
pea k</w>
p oured</w>
ob served</w>
mi ld</w>
l lest</w>
if you</w>
ha ting</w>
full- time</w>
fla vor</w>
dra wings</w>
de mic</w>
cu t
cree k</w>
compet itive</w>
com mon
coll abor
boy friends</w>
allegi ance</w>
V P</w>
Re my</w>
Mu skete
Lanni ster</w>
G I
Bun ny</w>
Bo wl</w>
6 3</w>
va h</w>
ti ck
su ry</w>
soli c
sha me
ro bots</w>
ou ted</w>
on going</w>
helicop ters</w>
gr ind</w>
ge taway</w>
ge no
fab ric</w>
du mping</w>
du m
di o
dele te</w>
d ger</w>
coo lest</w>
com ms</w>
clo a
cel lu
biscu its</w>
b ach</w>
V .</w>
Scy lla</w>
S ven</w>
Pea ce</w>
Ny borg</w>
L ine</w>
K ea
H eart</w>
G onna</w>
Con stitution</w>
C of
C O</w>
Bi g
Ap aches</w>
9 7</w>
6 0
vi ral</w>
to xi
t apped</w>
suppor tive</w>
st les</w>
refu gees</w>
rea l
rea cted</w>
rain bow</w>
po tion</w>
no torious</w>
g ler</w>
fe der
enthusi asm</w>
emplo y</w>
door step</w>
disc o</w>
be l
b our</w>
attrac tion</w>
al pha</w>
Y E
Win ter</w>
Un der</w>
Spi der
Qu ite</w>
New ton</w>
Ma ds</w>
H ad
Christi ans</w>
Ba gh
wo mb</w>
t zer</w>
stran gled</w>
soli tary</w>
s ition</w>
pre dict</w>
pe di
ob st
mi ke</w>
lyri cs</w>
impro vement</w>
gu son</w>
gi on</w>
g ating</w>
fish erman</w>
fea ture</w>
fe males</w>
emp his</w>
di cate</w>
de sign
dd ler</w>
d ging</w>
cre ws</w>
ci sm</w>
ba ke</w>
air borne</w>
Y ING</w>
WIT H</w>
