#version: 0.2
e r</w>
d e
e n</w>
e g</w>
e n
de t</w>
j eg</w>
h a
i k
e t</w>
k e</w>
d u</w>
i n
e r
o r
s t
a n
e l
s k
r e</w>
ik ke</w>
t i
o m</w>
v i
o r</w>
t e</w>
d e</w>
l i
a l
o g</w>
r e
a n</w>
t t</w>
ha r</w>
p å</w>
e d</w>
h v
a r</w>
f or</w>
a r
v i</w>
l e</w>
ti l</w>
g j
de n</w>
m m
n e</w>
a t</w>
f or
m ed</w>
de g</w>
m eg</w>
d i
s å</w>
e t
s om</w>
a k
å r</w>
ha n</w>
l e
n o
t r
. .
u n
.. .</w>
m i
en e</w>
k an</w>
s i
k o
b e
v ar</w>
sk a
t er</w>
in g
b a
o l
s e</w>
a v</w>
o t
vi l</w>
l a
d r
m en</w>
h u
o p
d er</w>
t te</w>
i l
g e</w>
ø r</w>
hv a</w>
ø r
s p
g er</w>
f r
v e
ska l</w>
b r
v æ
q u
l er</w>
qu ot
quot ;</w>
& quot;</w>
o n
n e
o s
s a
st e</w>
v et</w>
de re</w>
u t
u l
in g</w>
J eg</w>
m å</w>
s e
ba re</w>
h er</w>
k j
v er
sk j
no e</w>
s j
de tte</w>
s t</w>
hu n</w>
d a
k er</w>
r i
n å</w>
e i</w>
u r
ko mm
h en
b l
s er</w>
d a</w>
ha m</w>
d de</w>
u t</w>
mi n</w>
li g</w>
s n
h el
r a
n er</w>
er e</w>
fr a</w>
vi l
di n</w>
t en</w>
v er</w>
os s</w>
t a</w>
ing en</w>
v en
H v
h j
el i
al t</w>
p r
ø re</w>
D et</w>
m an
h a</w>
e k
hv or
vi s</w>
a p
væ re</w>
ti l
J a</w>
g en</w>
d re</w>
s l
m en
o n</w>
o b
t et</w>
d t</w>
no en</w>
t e
op p
op p</w>
a v
gj ør</w>
g an
de n
N ei</w>
t er
b li
vil le</w>
e m</w>
o m
in e</w>
ik k</w>
de m</w>
al le</w>
y n
k om</w>
v el
l o
a t
eli g</w>
i s
en ger</w>
s el
komm er</w>
s a</w>
f in
p e</w>
g o
g år</w>
l y
l a</w>
el ler</w>
h ol
i gj
a m
et ter</w>
n et</w>
gj øre</w>
s eg</w>
s en</w>
h vis</w>
f å</w>
m er</w>
for t
igj en</w>
sk y
ha dde</w>
s en
st e
tr or</w>
r t</w>
ha n
d an</w>
n en</w>
hen ne</w>
m å
t a
an t</w>
k l
m a
g i
bli r</w>
hv or</w>
o g
l ik
f år</w>
n år</w>
m or
s ik
sn ak
f ø
k k
ø n
l an
gj or
t en
D u</w>
f a
ø y
al l
bl i</w>
h et
s i</w>
d re
g å</w>
di g</w>
ko n
in n</w>
sa mm
de r
ve l</w>
Hv a</w>
k un
æ r
li g
skj e</w>
å n
h i
t ak
o k</w>
v e</w>
o k
er t</w>
b le</w>
k an
e s</w>
li tt</w>
f f
sk er</w>
ul le</w>
p er</w>
ti d</w>
y e</w>
m o
g r
den ne</w>
br a</w>
s ke</w>
o ver
d ø
o ver</w>
v å
da g</w>
u k
g t</w>
hvor dan</w>
f ør
gan g</w>
s y
- Jeg</w>
ba ke</w>
f e
dr i</w>
til bake</w>
s v
t ar</w>
in n
s k</w>
al dri</w>
hvor for</w>
t ing</w>
væ rt</w>
b or
sk ulle</w>
t o</w>
k en</w>
an dre</w>
ar t</w>
k ke</w>
j en
re i
se tt</w>
m an</w>
s ø
kan skje</w>
e l</w>
h o
a s
tr enger</w>
k et</w>
j ob
en g
f ør</w>
kun ne</w>
hj el
g i</w>
en de</w>
å r
l ø
si er</w>
m in
vi r
pr ø
st en</w>
vi s
be g
b ar
r o
V i</w>
j o</w>
sel v</w>
- H
h et</w>
m e
og så</w>
sky l
f i
v an
b et
f ol
k a
b y
k la
m ye</w>
s li
no k</w>
en n</w>
ne s</w>
hv em</w>
s et</w>
h er
d d</w>
i l</w>
mi tt</w>
p o
u tt</w>
h ør
d i</w>
han s</w>
g et</w>
b il
re s</w>
mo t</w>
m p
st er</w>
samm en</w>
le g
kj en
mm e</w>
i t
y r
man n</w>
sj on
h e
f ar
si den</w>
el l
y r</w>
tr o
v in
f l
gjor de</w>
job b
st or
u s
st år</w>
f ikk</w>
n ed</w>
g en
m ine</w>
ing er</w>
f re
mm er</w>
st r
er en</w>
fø l
di tt</w>
re t
s ån
i c
å tt</w>
- Det</w>
ti g</w>
s se</w>
n y
D e</w>
un n
t el
g a
er ne</w>
s la
t re
s s
hel t</w>
Hv or
s s</w>
an n
komm e</w>
i n</w>
m ø
tak k</w>
hel e</w>
H ei</w>
go d</w>
snak ke</w>
gj en
i r
fol k</w>
sp il
e f
b ur
v ed</w>
m u
d u
f er
g rei
gjor t</w>
l et</w>
t al
br u
k k</w>
p et</w>
k elig</w>
et te</w>
r an
p er
ak k
n a
n ing</w>
for di</w>
de l
t ok</w>
d ine</w>
re tt</w>
m er
p en</w>
st il
k vel
sj on</w>
u d</w>
dr a</w>
e ste</w>
t u
skj e
s yn
all tid</w>
go dt</w>
t ene</w>
k t</w>
beg yn
le s</w>
i e</w>
væ r</w>
ut en</w>
f ly
en s</w>
t re</w>
de res</w>
lik er</w>
re g
al l</w>
el le</w>
p re
en t</w>
li ge</w>
t ter</w>
man ge</w>
v år</w>
y g
vi te</w>
kj ø
fin ne</w>
st er
æ re</w>
a c
en ge</w>
M ar
hj em</w>
sa tt</w>
is k</w>
k e
ap os
apos ;</w>
& apos;</w>
het er</w>
mi li
skyl d</w>
0 0</w>
het en</w>
i en</w>
si n</w>
s ant</w>
s o
p a</w>
bur de</w>
k r
sån n</w>
po li
s er
g le
il l</w>
k n
v a
tro dde</w>
p ar
ha r
sp i
g ikk</w>
f an
u s</w>
s ak
st a
vel dig</w>
k te</w>
el se</w>
I kke</w>
be dre</w>
li vet</w>
H an</w>
ta tt</w>
el l</w>
hol d</w>
ol l
p p</w>
fa en</w>
in ne</w>
men er</w>
u n</w>
y l
v ar
l u
dr i
a d
hi t</w>
ut ter</w>
m e</w>
n n
f ul
p la
e g
- Du</w>
hjel pe</w>
de ne</w>
dre p
m t</w>
kvel d</w>
- S
Hv or</w>
ti sk</w>
st et</w>
u te</w>
han d
f un
- Hva</w>
sli k</w>
sk ri
ur at</w>
æ r</w>
f ar</w>
E r</w>
t y
r .</w>
b an
b i
fa mili
p as
sa m
J o
ob le
gi r</w>
kl ar
l enge</w>
vis ste</w>
r å
ing en
p ap
k ri
r ing
k al
er er</w>
mor gen</w>
akk urat</w>
g la
n av
sik k
j æ
g a</w>
sp ør
a l</w>
r un
el t</w>
be i
samm e</w>
vir kelig</w>
d s
men ne
pr oble
før ste</w>
ak k</w>
kjen ner</w>
st an
st ed</w>
sk et</w>
grei t</w>
h å
v al
s u
di sse</w>
te s</w>
a g
hol de</w>
ingen ting</w>
un der</w>
j a</w>
ti den</w>
poli ti
r ø
er s</w>
kj e
snak ker</w>
mm et</w>
fe il</w>
ar bei
ha l
f t</w>
i s</w>
et t
s on</w>
hen nes</w>
h ø
a m</w>
si ste</w>
el sker</w>
en este</w>
k vin
m or</w>
le i
sa gt</w>
hol der</w>
or d
k am
p p
skj er</w>
et ter
dø d</w>
v ik
bar n</w>
f ant</w>
man nen</w>
k or
ff e</w>
mm a</w>
sk re
ve i</w>
f f</w>
gr un
s ol
é n</w>
s øn
kla ger</w>
bli tt</w>
h ån
A n
sjon en</w>
v ak
sv ar
b ør</w>
b er
tr o</w>
hu set</w>
h øy
s m
hv er</w>
mi d
- Ja</w>
b o
å p
s må
n ø
p enger</w>
g re
k y
n ene</w>
d o
de lig</w>
n y</w>
g elig</w>
r ik
un der
Hvor for</w>
M a
kk et</w>
A l
t or
st o
v ok
hj e
al e</w>
dre pe</w>
prø ver</w>
bil en</w>
M r.</w>
vis st</w>
g ra
e i
e tt</w>
far en</w>
b e</w>
be klager</w>
et er</w>
sn ill</w>
n om</w>
fin ner</w>
Hvor dan</w>
t an
hj er
dø de</w>
h øre</w>
hjel p</w>
an net</w>
- D
hør er</w>
vå re</w>
p ri
run dt</w>
k ker</w>
ver den</w>
be ste</w>
s in
for står</w>
p lan
da gen</w>
jæ v
f il
kl ar</w>
ven n</w>
lik e</w>
el en</w>
for st
re dd</w>
b er</w>
p i
dr ar</w>
si r</w>
fort elle</w>
sk i
st or</w>
ho s</w>
an nen</w>
g s</w>
k re
m ot
di g
ve te</w>
U nn
p a
fl ere</w>
u d
be ste
men n</w>
by en</w>
ven t</w>
B a
or d</w>
e de</w>
bor t</w>
skj øn
sn art</w>
s on
må tte</w>
H er
t i</w>
ve ien</w>
de l</w>
opp e</w>
bor te</w>
r u
f ak
st ol
ti d
- Nei</w>
d y
O g</w>
mi l
f ått</w>
li v</w>
Unn skyld</w>
- Vi</w>
b y</w>
n a</w>
ma mma</w>
i g
gjen nom</w>
st j
ø de
n ingen</w>
o d</w>
se k
før st</w>
pap pa</w>
g ut
ne i</w>
v en</w>
f j
l ing</w>
m te</w>
br y
vi t
s ette</w>
skje dde</w>
k ar
hu sker</w>
sel v
a s</w>
h ør</w>
sl utt</w>
m ar
n at
sj ek
in ter
v de</w>
H ar</w>
fort satt</w>
p u
s an
hel vete</w>
l enger</w>
hel ler</w>
g am
p l
I n
t tet</w>
gla d</w>
fre m
fin t</w>
vi se</w>
b ak
kj ør
tr y
al ene</w>
N e
f te</w>
r y
ik e</w>
d år
ne ste</w>
bet yr</w>
sp e
ska p</w>
pr o
p pe</w>
dr a
ste det</w>
p eng
sikk ert</w>
da ger</w>
n ær
F or
- T
ha tt</w>
gj erne</w>
hør te</w>
n ye</w>
h un
kla re</w>
i d
r et</w>
hi stor
eli ge</w>
re sten</w>
L e
k ap
r y</w>
grun n</w>
snak ket</w>
d ør
c e</w>
unn a</w>
sik ker</w>
li ten</w>
t lig</w>
s om
s ene</w>
for el
ve m</w>
R o
ing s
spør små
k lo
s etter</w>
hv er
d y</w>
se l</w>
sk u
st en
tel ef
br uk
s sen</w>
j u
t ter
fer dig</w>
ing ene</w>
by g
le tt</w>
G ud</w>
m et</w>
t ere</w>
b ok
le i</w>
der for</w>
li l
gan ger</w>
øy e
st i
t o
job b</w>
ve kk</w>
ven ter</w>
d te</w>
klar er</w>
ven ner</w>
f em</w>
fr i
lig het</w>
an se</w>
b a</w>
g ene</w>
stor e</w>
k u
van sk
ho det</w>
jobb en</w>
re d
peng ene</w>
politi et</w>
i a</w>
d ø</w>
F ran
jæv la</w>
n u
0 00</w>
g e
jobb er</w>
p å
fø ler</w>
h vil
mø te</w>
l å
f yr
ten kte</w>
- er</w>
ek t</w>
all er
mor en</w>
S å</w>
lan gt</w>
fak tisk</w>
st ø
or den</w>
men s</w>
- G
dr it
C ar
J ac
gam le</w>
stil le</w>
J a
nav n</w>
mm en</w>
st yr
p en
l ene</w>
le ve</w>
on en</w>
sk o
fun net</w>
si g
hør t</w>
H un</w>
t or</w>
for e
al te</w>
t jen
Jo h
øye bl
ko mp
min utter</w>
vir ker</w>
famili en</w>
drep te</w>
st u
kk en</w>
di t</w>
vå rt</w>
di ge</w>
ut en
sp r
hver andre</w>
f lo
p per</w>
si tt</w>
d oll
g utt</w>
hå per</w>
en nå</w>
er te</w>
m el
ga mm
m ell
leg ge</w>
sak en</w>
el sen</w>
reg ud</w>
l ur
b å
-H an</w>
kl art</w>
ba k</w>
p ar</w>
or en</w>
drep t</w>
n ett
ne sten</w>
j e
en gang</w>
m i</w>
m a</w>
s ine</w>
beg ge</w>
de s</w>
k ene</w>
K om</w>
a li
hje mme</w>
be sky
c k</w>
fi re</w>
ell ers</w>
kon tr
gj e
for sv
mu lig</w>
M en</w>
j e</w>
sl ut
eli g
v ol
e s
doll ar</w>
o t</w>
kj ære</w>
t ul
st ør
lan d</w>
prø ve</w>
u an
in a</w>
t on</w>
må te</w>
S t
H ar
jen te</w>
her fra</w>
st y
hu s</w>
ka l</w>
dår lig</w>
spe si
er a
ta k</w>
lil le</w>
d ør</w>
for b
o ff
s ann
la gt</w>
g ått</w>
r er</w>
m on
per son
l uk
B e
gan ske</w>
r inger</w>
ful l</w>
st å</w>
g u
begyn ner</w>
D e
øn sker</w>
tal e</w>
sl å</w>
i er</w>
go de</w>
st ra
f all</w>
sla gs</w>
tr a
s c
sy nes</w>
na tt</w>
ik ker</w>
ol en</w>
skjøn ner</w>
ska p
vansk elig</w>
r ing</w>
dr ø
f eng
il le</w>
B o
aller ede</w>
ti g
p ra
ret t
ak t</w>
D en</w>
K an</w>
dr o</w>
mell om</w>
l ær
bru ke</w>
p e
ten ker</w>
st isk</w>
yg gelig</w>
D a
R e
C o
t ø
for sik
ful l
is ke</w>
s ør
- F
ra sk
E n</w>
fr y
f la
prø vde</w>
ver re</w>
ne de</w>
A r
sp or
leg g</w>
spil ler</w>
t ek
flo tt</w>
sl u
se s</w>
ro mmet</w>
uan sett</w>
e gen</w>
mi stet</w>
l kke</w>
ten ke</w>
on er</w>
t ap
le ver</w>
komm et</w>
kap te
hand ler</w>
ven te</w>
sen de</w>
år et</w>
for t</w>
Her regud</w>
nett opp</w>
k ra
P a
ten kt</w>
fan ta
st ar
f ik
b re
kon tak
r a</w>
vik tig</w>
m r</w>
r en
må ne
gamm el</w>
ær lig</w>
spørsmå l</w>
jen ta</w>
s var</w>
m at</w>
tr u
ti mer</w>
an g
fyr en</w>
E l
kvin ne</w>
en k
mil li
g alt</w>
lo t</w>
re dde</w>
al t
b il</w>
sen ere</w>
sa v
o d
hol dt</w>
be ky
ten k</w>
beky m
la ger</w>
ek te</w>
sån t</w>
f al
ny tt</w>
hel st</w>
n i
inter e
si den
in k</w>
me d
e gen
u g
un d</w>
c k
tr i
b or</w>
kjen t</w>
lig ger</w>
tu r</w>
H vem</w>
o en</w>
fort alte</w>
gan gen</w>
sy ke
g er
R a
n inger</w>
- B
menne sker</w>
leg ger</w>
et s</w>
ak s</w>
gj el
spi se</w>
l ar</w>
t t
b ø
li v
T h
Ba re</w>
ar d</w>
br ø
tel se</w>
u ke</w>
ring e</w>
i g</w>
øyebl ikk</w>
fi n</w>
si tter</w>
s ul
søn n</w>
f at
n øy
g te</w>
gut ten</w>
f yr</w>
he mm
le y</w>
- V
ik an
h yggelig</w>
L o
tre ffe</w>
d an
bru ker</w>
kj ær
ska pet</w>
il l
dr er</w>
te g
ik k
an sik
un i
C har
vi ser</w>
sp ør</w>
er es</w>
v a</w>
den s</w>
b el
in en</w>
sa k</w>
føl ge</w>
dr et</w>
for la
S i
k ur
b u
proble mer</w>
nav net</w>
J u
c h
hø res</w>
ve g
gr u
B ar
g ul
st at
i di
kj æ
p or
li e</w>
f yl
n er
st re
2 0</w>
v d</w>
fort ell</w>
st eren</w>
menne sk
br yr</w>
sk olen</w>
pre siden
fin nes</w>
L a</w>
og ra
jobb et</w>
som t</w>
S te
vi n</w>
ic k</w>
fr i</w>
. .</w>
u m</w>
or i
b en</w>
k ul
L a
de les</w>
gi tt</w>
ve d
sen t</w>
sp ar
pla ss</w>
mm er
sk en</w>
be sø
intere ss
tro lig</w>
ik ken</w>
tr eng
en da</w>
H a
vå pen</w>
dre per</w>
sek s</w>
k t
un ge</w>
kje mp
lik e
ko ne</w>
c h</w>
der en</w>
ok ker</w>
- Hvor</w>
ha v
- M
me st</w>
al er</w>
uten for</w>
dr ene</w>
el ser</w>
- K
p lei
i mot</w>
C h
rik tig</w>
spør re</w>
si de</w>
ti ge</w>
drit t
kal ler</w>
Joh n</w>
- Ikke</w>
ven n
be st</w>
van n</w>
vi dere</w>
L i
sa tte</w>
f el
m ør
h vi
hen te</w>
lig ere</w>
v t</w>
gi f
ven de</w>
ly kk
min dre</w>
s le
k li
fin s</w>
ven tet</w>
a b
t ur
p t</w>
o w
s ver
H ol
me di
kon a</w>
egen tlig</w>
mid dag</w>
ff et</w>
bar na</w>
f ot
h or
syn s</w>
lan det</w>
komm en</w>
begyn te</w>
-H ar</w>
proble m</w>
s mi
hjel per</w>
sikk er
gj er
spil le</w>
kj ef
r o</w>
ti me</w>
ring te</w>
frem deles</w>
lan g</w>
kj øre</w>
ven nen</w>
g ar
ne v
sjon er</w>
jobb e</w>
Jac k</w>
sk il
d ning</w>
yn ene</w>
hån d
kapte in</w>
d ok
la get</w>
et tet</w>
l in
Ne w</w>
an d</w>
ro lig</w>
d s</w>
slu tte</w>
be l</w>
la ge</w>
br or</w>
stor t</w>
am er
m ene</w>
av e</w>
er i
ha ter</w>
st re</w>
l en</w>
h y
bl ant</w>
sj anse</w>
fr am</w>
N å</w>
hv ert</w>
stan d</w>
u r</w>
D em</w>
b om
C a
p an
all o</w>
t s</w>
- en</w>
åp ne</w>
da g
hvil ken</w>
br oren</w>
kje m
a h</w>
kjør er</w>
lig vis</w>
fl y</w>
m un
le ste</w>
sp ur
- og</w>
an gre
sj e
vå k
g utter</w>
ø ynene</w>
S kal</w>
for sø
r om</w>
for an</w>
kjen te</w>
n or
M ic
famili e</w>
søn nen</w>
in for
K a
øn ske</w>
V il</w>
on dt</w>
tr yg
go d
a re</w>
fa st</w>
ter er</w>
1 9
S c
opp en</w>
sj ef
al v
h il
li te</w>
L u
r en</w>
J o</w>
ø y</w>
sl år</w>
ik er</w>
sann heten</w>
vi d</w>
sla pp</w>
al en</w>
ter t</w>
st ene</w>
like vel</w>
P ar
ste mmer</w>
skje dd</w>
en n
f ten</w>
an d
i m</w>
ga l</w>
mi s
T akk</w>
ø s</w>
j a
kr y
lø s</w>
de ss
b o</w>
hån d</w>
e y</w>
D ette</w>
ti v</w>
st o</w>
G ra
ek sp
S a
fanta stisk</w>
ly st</w>
val g</w>
bl od</w>
k il
k ter</w>
kvin ner</w>
g es</w>
b all
skri ve</w>
måne der</w>
kl u
un g</w>
s et
r ak
st und</w>
g ere</w>
u trolig</w>
per f
telef onen</w>
o s</w>
sl o</w>
- De</w>
a gen
W il
amer ikan
p okker</w>
re sp
f øre</w>
3 0</w>
ik kelig</w>
le ver
før er</w>
vel kommen</w>
mm y</w>
k le
kjø pe</w>
- Hvorfor</w>
ko l
rei se</w>
ik t</w>
gi ft</w>
ad vok
å l
s set</w>
G e
lig heten</w>
spil l</w>
pas ser</w>
s or
k i
m y
d om</w>
fre d</w>
In gen</w>
an er</w>
men te</w>
dri tt</w>
sli pp</w>
dri ver</w>
bl å
her r</w>
5 0</w>
kor t</w>
H allo</w>
ma sk
begyn ne</w>
man n
tid lig</w>
d uk
si st</w>
for an
b en
ra pp
v ondt</w>
ri s</w>
-H un</w>
l ære</w>
D eres</w>
fø les</w>
S e
K an
å ende</w>
- Hvordan</w>
ff er</w>
bet ale</w>
d on</w>
J e
r om
is s</w>
re tte</w>
t n
mm e
opp er</w>
pr os
r æ
k ir
se x</w>
sin t</w>
M or
lo ver</w>
el sk
M e
snak k</w>
t ør
sen dte</w>
om rå
sy k</w>
t y</w>
r yg
tr en
feng sel</w>
da tter
ti de</w>
har dt</w>
histor ie</w>
st oppe</w>
s ert</w>
fort eller</w>
D o
k ne
O k</w>
unn skyl
tal en</w>
bor d</w>
- så</w>
l ingen</w>
sj en</w>
sla g</w>
sl å
jen ter</w>
tr ø
D a</w>
le ge</w>
s j</w>
s vært</w>
sen der</w>
an sen</w>
rapp or
n å
kjef t</w>
g år
va re</w>
k tet</w>
h in
gr en
Y or
gen er
rei t</w>
gjel der</w>
kn u
forsik tig</w>
kk a</w>
forst å</w>
d yr</w>
min i
bor t
dritt se
må ten</w>
tid ligere</w>
u ker</w>
hen dene</w>
lø p</w>
i re</w>
r ot
e -
l un
bar net</w>
æ rt</w>
r art</w>
E n
id é</w>
so ve</w>
W al
n ær</w>
ik a</w>
fol k
føl ger</w>
si tte</w>
1 0</w>
se kun
besky tte</w>
kon tor
en s
het ene</w>
M c
ar re
kjær lighet</w>
klar te</w>
t et
bl o
st ri
li ve</w>
van lig</w>
si tu
k el</w>
e p
pas s</w>
a en</w>
i t</w>
bru k</w>
vir k
T e
Fran k</w>
gr å
hal v
D an
bruk te</w>
n ar
le k
arbei d</w>
el sket</w>
s mer
fj er
m et
ka stet</w>
F or</w>
alt så</w>
fort alt</w>
spi ser</w>
ek te
sje f</w>
føl gelig</w>
in s</w>
ol l</w>
t h
sk ikkelig</w>
k ø
dør en</w>
hu l
fr am
lo v</w>
D i
skj ø
fa re</w>
b uk
s si
prø v</w>
op pr
r s
j ak
situ a
fre m</w>
is en</w>
u l</w>
R ic
str ø
-H ei</w>
milli oner</w>
a y</w>
f alt</w>
lik te</w>
sto l</w>
li k</w>
m ak
nu mmer</w>
fort jen
st opp</w>
s må</w>
dig het</w>
R ob
ær er</w>
t h</w>
k at
str aks</w>
sjef en</w>
treng te</w>
d r</w>
svar te</w>
r øy
sp ø
gi fte</w>
sj e</w>
pri s</w>
du m</w>
far lig</w>
T o
v ene</w>
ran g
sky te</w>
br en
H en
- P
M on
l eter</w>
s al
T r
sli ppe</w>
for sk
.. ..
spur te</w>
p te</w>
c a</w>
yl lu
kvel den</w>
ko m
el e
da mer</w>
da me</w>
in nen</w>
b ut
Yor k</w>
fe st</w>
T om</w>
nø d
g li
for ret
K e
ør er</w>
dør a</w>
ska de</w>
g ri
fi en
sli pper</w>
v ant</w>
gle m</w>
B er
Ge or
o ko
k v
l å</w>
red det</w>
stør re</w>
br yllu
vin ne</w>
opp dra
fort sette</w>
skre v</w>
d der</w>
di e</w>
U S
- kan</w>
ne d
ær en</w>
de ler</w>
dr ikke</w>
le se</w>
di re
kontor et</w>
kn i
kontak t</w>
f ter</w>
vå pen
ti ske</w>
be hand
p ak
dr ap
rå d</w>
slut tet</w>
mor somt</w>
nat ur
k un</w>
h ot
histor ien</w>
S am</w>
u e</w>
sk utt</w>
pre sen
beg ra
hjer tet</w>
proble met</w>
lø g
pra te</w>
M o
kontr oll
kri gen</w>
men nene</w>
infor ma
c ol
eg ne</w>
n ings
ul y
tu sen</w>
da tter</w>
øn sket</w>
perf ekt</w>
bar ne
ansik tet</w>
hemm elig
1 5</w>
å tte</w>
forel drene</w>
t ten</w>
le der</w>
fin n</w>
lo v
men t</w>
- men</w>
b ar</w>
ten de</w>
for skj
opp et</w>
M i
gj ør
ell et</w>
d ing</w>
E d
o fte</w>
hen ter</w>
datter en</w>
S ar
fø dt</w>
ski pet</w>
i mp
j er
lur er</w>
en ten</w>
r ene</w>
idi ot</w>
B ri
sy ste
se p
ma sse</w>
kri g</w>
j ø
le des</w>
H e
øy e</w>
man g
m ere</w>
C la
en delig</w>
ly s</w>
bet aler</w>
tra ff</w>
skjø t</w>
vak ker</w>
A le
f ing
un g
n ak
ø st</w>
d o</w>
van net</w>
st ikke</w>
i r</w>
t alt</w>
s elig</w>
t s
J am
l eng
bekym ret</w>
e get</w>
y s</w>
ær ne</w>
selv sagt</w>
z z
m ob
her rer</w>
bil de</w>
ka ffe</w>
g ave</w>
for klare</w>
f tet</w>
ann er
H an
syn d</w>
fø le</w>
lø se</w>
D r.</w>
stol en</w>
lik t</w>
hi mm
het s
r us
fi r
r ol
P e
sig n
g øy</w>
tjen este</w>
arbei det</w>
la g</w>
v ur
per son</w>
in e
kam p</w>
i ge</w>
h om
sto le</w>
p sy
R i
E t</w>
j ene</w>
0 -
C on
ver dt</w>
no m
år ene</w>
for hold</w>
et a
p il
sak er</w>
skj ed</w>
ing e</w>
p ene</w>
skri ver</w>
j or
st ikker</w>
d yr
t v
en er
n ing
sen dt</w>
sjek ke</w>
nat ten</w>
W e
ve s</w>
anner ledes</w>
ri sik
alv or
pl an</w>
av tale</w>
mi sten
try kk</w>
an tar</w>
fl ink</w>
svar et</w>
N or
pr ogra
enk elt</w>
fun g
f elle</w>
he v
vin ner</w>
ven stre</w>
fe il
hu ske</w>
Q u
ste der</w>
-H vem</w>
Mic ha
- L
h el</w>
- A
mmer et</w>
am p
ø l</w>
e vi
m at
bl an
slå ss</w>
J ø
c y</w>
kam era
H el
bet jen
j ør</w>
høy t</w>
B en
b la
skyl dig</w>
s å
C ha
J es
ik ket</w>
klo kka</w>
ska det</w>
re ste</w>
før t</w>
sø ster</w>
k as
h vite</w>
Char lie</w>
må l</w>
ven nene</w>
ar s</w>
B ro
m ek
F B
gjen nom
K ar
pas se</w>
kn ap
M iss</w>
an e</w>
be vis</w>
f is
vi st</w>
s ser</w>
li n</w>
ra di
f y
m yn
in er</w>
stør ste</w>
ri ge</w>
G a
di sk
f t
plan en</w>
la g
fly tte</w>
I I
ff en</w>
høy re</w>
fore går</w>
sn ing</w>
p pet</w>
full t</w>
u se</w>
S o
kam er
t om
Kan skje</w>
be skjed</w>
øde legge</w>
opp tatt</w>
t on
ann y</w>
l ar
selv følgelig</w>
spesi elt</w>
u m
ver t</w>
H o
tr an
til la
bruk t</w>
ri k</w>
mi ster</w>
Th e</w>
sky ter</w>
ens inne</w>
vi de
sol da
or dre</w>
s ærlig</w>
el ske</w>
gle mte</w>
g s
1 2</w>
V i
ho ved
stol er</w>
tak et</w>
no ensinne</w>
k s</w>
O K</w>
vi ste</w>
vel se</w>
komp is</w>
agen t</w>
de lige</w>
mm ene</w>
medi sin
n i</w>
k vi
nø dt</w>
menne ske</w>
sv art</w>
ør t</w>
t un
kjemp e
b al
st a</w>
b us
mor d</w>
g al
se x
pro fe
opp da
skyl der</w>
po si
en t
samm en
kjør te</w>
k alle</w>
mer k
s -
kontr oll</w>
øy et</w>
S u
as s</w>
angre p</w>
av sl
T a</w>
ski p</w>
os t</w>
le vende</w>
s ere</w>
t te
j en</w>
under sø
hu sk</w>
f ug
fil m</w>
S ha
m eter</w>
ak er</w>
l n
b ok</w>
ti s</w>
stol t</w>
st ikk</w>
L on
sk yn
- N
rask t</w>
lø y</w>
in ner</w>
S an
øde lagt</w>
hen t</w>
har d</w>
stj er
dr on
t ingene</w>
Micha el</w>
s se
min ste</w>
bor det</w>
M an
V et</w>
for bry
c o</w>
ver ste</w>
r s</w>
sø steren</w>
å l</w>
N år</w>
M rs
ter te</w>
forst yr
el se
Mrs .</w>
stj el
sekun der</w>
Jø ss</w>
forla te</w>
B ra
b art</w>
mer ket</w>
syke huset</w>
fe sten</w>
G ar
kjem pe</w>
lykk elig</w>
T a
J er
p un
T i
sjek k</w>
N o
j o
ret ten</w>
nø kk
kjæ resten</w>
all et</w>
L in
Hol d</w>
fort sett</w>
s over</w>
kr oppen</w>
prø vd</w>
ska ffe</w>
ster k</w>
sp er
sel ge</w>
ste in</w>
sm art</w>
over alt</w>
bil der</w>
Da vid</w>
pl ut
ver dens</w>
ord ne</w>
sl ikt</w>
-D en</w>
l y</w>
1 00</w>
in t</w>
sl ått</w>
op era
B u
h ek
ol d</w>
Jo e</w>
mi ste</w>
b all</w>
D ere</w>
sp or</w>
ul l</w>
k a</w>
in vi
dr ink</w>
at ene</w>
ak ti
for ber
vir ket</w>
ak tig</w>
ud s</w>
p s</w>
hån den</w>
kjø pte</w>
d om
J on
kj ør</w>
tre d
del se</w>
Jam es</w>
ri st
mi dt</w>
re kker</w>
lur te</w>
der er</w>
i de
grei a</w>
her re</w>
g ende</w>
M ike</w>
pap ir
skre vet</w>
k rang
v et
klo kken</w>
del en</w>
bl om
p pen</w>
le gen</w>
vin du
lær er</w>
p ul
bil det</w>
ti n</w>
sk e
kvin nen</w>
B ur
fortjen er</w>
t ol
alvor lig</w>
b ån
ter en</w>
for nøy
s ma
fort setter</w>
kal te</w>
her i
fr u</w>
mø tt</w>
s vi
dok tor</w>
o v
fly et</w>
fly ttet</w>
sy k
ska tt</w>
-S kal</w>
G od</w>
2 0
presiden t</w>
c o
er ende</w>
or den
br i
fan get</w>
dø den</w>
do mmer</w>
sj ansen</w>
dess verre</w>
ill y</w>
rol le</w>
øn n</w>
lig ge</w>
plut selig</w>
interess ert</w>
områ det</w>
l er
P i
j ul
gle mt</w>
drittse kk</w>
forb i</w>
over rask
i et</w>
S el
g el
f æ
le m</w>
e v
lær te</w>
vik tig
syste met</w>
kj er
P eter</w>
B en</w>
klu b
a ter</w>
stj al</w>
ka ste</w>
forel sket</w>
en g</w>
mili t
r ør</w>
pr in
kam pen</w>
Geor ge</w>
ryg gen</w>
c i
al p</w>
-T akk</w>
N a
øy ne</w>
sø t</w>
t å
gle mme</w>
F re
ø l
for m</w>
bl od
u mulig</w>
presiden ten</w>
an sk</w>
betjen t</w>
br an
f leste</w>
be kre
be vise</w>
t tes</w>
val gte</w>
le st</w>
ei er</w>
hen der</w>
A nn
ly kke</w>
sol utt</w>
j ek
vel en</w>
G u
hjer te</w>
stø tte</w>
en ig</w>
pa si
en ny</w>
- Kom</w>
mor ges</w>
i blant</w>
me ster</w>
l en
V ar</w>
ek lager</w>
bl in
skj u
sj u</w>
4 0</w>
informa sjon</w>
i den
l et
fung erer</w>
le te</w>
kon gen</w>
S om</w>
væ r
ob er
bå ten</w>
on d</w>
- vil</w>
vel ge</w>
p ur
hj alp</w>
C ol
on kel</w>
P o
person lig</w>
b ol
tul erer</w>
pri v
ma ten</w>
sel ger</w>
bet alt</w>
jen tene</w>
gen s</w>
C or
mer ke</w>
vak t</w>
nu mmeret</w>
K on
sl ike</w>
plei er</w>
gi e</w>
kj ek
n ie</w>
k ere</w>
s dag</w>
n ingene</w>
hun d</w>
føl te</w>
G o
G re
hel dig</w>
de rt</w>
men ing</w>
k alt</w>
mer kelig</w>
plei de</w>
kv inn
bru dd</w>
kl ær</w>
en en</w>
r op
p ot
ti vt</w>
unnskyl dning</w>
ven dig</w>
v og
ing ton</w>
for rige</w>
J i
in ne
sl utter</w>
in di
nev n
fil men</w>
arbei der</w>
P å</w>
K o
w o
over ra
ve k
telef on</w>
tr ent</w>
ka ster</w>
H vis</w>
advok at</w>
D on
tre kk</w>
ar men</w>
Har ry</w>
spr ø</w>
f ulle</w>
in et</w>
A mer
du mt</w>
B la
tr å
svar er</w>
t ik
ny heter</w>
b un
ver den
du mme</w>
for fer
kri min
sen d</w>
m y</w>
m al
sku dd</w>
er ing</w>
ser i
h året</w>
ly ver</w>
st on</w>
grei er</w>
tre et</w>
b in
as si
st akk
bok en</w>
men tet</w>
k l</w>
am a
ei en
be vis
on y</w>
US A</w>
G uds</w>
ter et</w>
fer dige</w>
S k
J im</w>
st akk</w>
ræ va</w>
jæ vel</w>
F a
hø y</w>
etter på</w>
ba s
G i</w>
av del
de le</w>
d ob
H u
dr ikker</w>
sel skap</w>
hu s
ba by</w>
disk ut
Mar y</w>
or gan
ly set</w>
beste mt</w>
nar ko
l inger</w>
ter r
kon kur
sy n</w>
B ill</w>
ma g
iden ti
Bo b</w>
drit ten</w>
o f
grun nen</w>
D anny</w>
f av
st in
fal ler</w>
Ju li
interess ant</w>
ap p
pla ssen</w>
D u
l ært</w>
a ten</w>
L y
m akt</w>
C hi
lo vet</w>
tal er</w>
t og
sta sjonen</w>
d at</w>
fr oko
arre st
V ær</w>
rei ser</w>
d us
ang ri
sj ø
sav net</w>
fol kene</w>
FB I</w>
M er
b b
V er
tryg g</w>
sk y</w>
sp un
mø tes</w>
& #
&# 9
mø ter</w>
der ne</w>
sav ner</w>
mor gen
rik e</w>
luk ter</w>
sjek ket</w>
m us
teg n</w>
ann a</w>
hul l</w>
bå de</w>
kk ene</w>
hvil ket</w>
fre mm
våpen et</w>
do mmen</w>
besø k</w>
sj el
far vel</w>
kjen ne</w>
M il
de m
sk r
-D ette</w>
gr unn
forsv ant</w>
kk en
o mmet</w>
må let</w>
kjæ reste</w>
skje b
str a</w>
hun dre</w>
j ør
kul t</w>
le vde</w>
k var
re gjer
p ent</w>
a u
h t</w>
hen ger</w>
sv are</w>
mob il
un gene</w>
for et
d ik
be dt</w>
mun nen</w>
kjø per</w>
sul ten</w>
syn tes</w>
- R
gif tet</w>
o tt</w>
sv ø
s h
ti da</w>
dø ds
s heri
f ine</w>
vil lig</w>
S e</w>
resp ekt</w>
fol ket</w>
sl an
si sk</w>
e d
ø se</w>
i d</w>
un net</w>
gener al</w>
mø tte</w>
ot te</w>
ord ner</w>
hel l</w>
b ud</w>
en der</w>
P er
ur en</w>
r i</w>
Joh nn
sjon s
tred je</w>
sen tr
bl ø
lo g
før te</w>
E R</w>
må ned</w>
an a</w>
Th om
øy tn
stil ler</w>
s ve
tjen er</w>
orden tlig</w>
fan ge</w>
off i
br å
r os
k er
for lot</w>
f o
sk ul
pi stolen</w>
M ac
sp ek
skj er
tak ke</w>
lik som</w>
M at
G reit</w>
telef on
mor o</w>
sikker het</w>
sv ik
k in
ring t</w>
L ar
nær heten</w>
spørsmå let</w>
hjer nen</w>
dre s</w>
Ra y</w>
foran dret</w>
folk ens</w>
a dre
ver e</w>
eg g</w>
ste mme</w>
dra p</w>
ut vik
ne y</w>
san g</w>
en es</w>
T y
D ar
uni ver
V e
r ingen</w>
re gi
sky t</w>
M r</w>
bort sett</w>
sik re</w>
føl g</w>
kn ul
2 5</w>
himm elen</w>
w e
po eng
bre v</w>
da m</w>
h en</w>
resp ek
øn n
ut for
ti dig</w>
nær mere</w>
spil te</w>
la ter</w>
fr ø
ek se
inn om</w>
b on
S p
ny delig</w>
mor der</w>
or det</w>
grei e</w>
b bel</w>
gle de</w>
g l
komm an
fry kt
G r
V ent</w>
l ett
o l</w>
hå pet</w>
stil ling</w>
le vd</w>
hun den</w>
try gt</w>
av en</w>
dr ing</w>
bet y
u be
hal v</w>
slut ten</w>
ap pa</w>
ø res</w>
Tr or</w>
t ingen</w>
so v</w>
an svar</w>
sk it
a k</w>
E li
ten s</w>
mus ikk</w>
N ick</w>
ek stra</w>
sko gen</w>
ner v
la te</w>
O r
Lon don</w>
til gi</w>
lur t</w>
on s</w>
sta ur
lan ds
sa t
s året</w>
it y</w>
sik t</w>
a d</w>
ver di
C lar
pr at</w>
til fel
tre kke</w>
ekse mp
d anse</w>
fik se</w>
de i
å pen</w>
W a
arbei de</w>
H vil
R om
spil let</w>
inn rø
t jene</w>
kre ver</w>
Johnn y</w>
-D a</w>
pr ot
t ør</w>
le d
f ok
A b
Ale x</w>
le ke</w>
kvi tt</w>
fr isk</w>
beste mmer</w>
br inge</w>
skj el
s ho
B ra</w>
ska per</w>
bok a</w>
a sjon</w>
an ske</w>
Gra tulerer</w>
re de</w>
m alt</w>
m s</w>
fr a
ma et</w>
t tene</w>
kjø kken
an s</w>
me ste</w>
sjek ker</w>
by tte</w>
lan d
al et</w>
A li
min st</w>
star te</w>
ør en</w>
sn u
lun sj</w>
ak ter</w>
tr enge</w>
ta li
st ått</w>
ty pe</w>
bry te</w>
kon ge</w>
ti ds
al y
for vir
sk a</w>
lo ven</w>
sk o</w>
P hi
sak ene</w>
g å
ab solutt</w>
van n
sn u</w>
øytn ant</w>
som het</w>
re staur
min ner</w>
av gjør
skj or
dra tt</w>
a ut
situa sjonen</w>
vir ke</w>
ret ter</w>
forst ått</w>
Ja så</w>
dig vis</w>
begyn n
Wil li
ty pen</w>
R u
tri st</w>
far s</w>
mot or
lø st</w>
H er</w>
de tal
k ie</w>
sp rø
sel en</w>
åp en
st iske</w>
m rs</w>
k y</w>
Pa ul</w>
vol d
bekym re</w>
mø tet</w>
M ag
le de</w>
1 0
h ei</w>
l ing
ster er</w>
hen gi
n s</w>
- E
trø bbel</w>
dår lige</w>
mu sik
del sen</w>
et en</w>
mm eren</w>
j orden</w>
p is
sten dig</w>
- For
mu lig
sku e
star tet</w>
forfer delig</w>
k es</w>
stakk ars</w>
me get</w>
etter forsk
ha vet</w>
vindu et</w>
- Bare</w>
par ten</w>
sk al
gli pp</w>
pla ss
ri g</w>
begyn t</w>
lig st</w>
hemm elig</w>
imp on
l o</w>
k le</w>
star ter</w>
vel ger</w>
ober st</w>
jæv lig</w>
V al
spi ste</w>
lei ligheten</w>
fl aks</w>
mang ler</w>
T u
fat ter</w>
st oppet</w>
kon tor</w>
.... ....
yn g
val gt</w>
hj ør
be ve
bak ken</w>
R os
tek n
br y</w>
tre kker</w>
vak re</w>
oppdra g</w>
kar er</w>
on g</w>
as on</w>
poeng et</w>
sø v
tru ffet</w>
a st
el sk</w>
spi st</w>
stat s
ri g
ak en</w>
gle mmer</w>
as h
for resten</w>
D en
må l
h år</w>
pi stol</w>
r ul
nøy aktig</w>
til hører</w>
øde la</w>
A u
uly kke</w>
den de</w>
B illy</w>
inn i</w>
mu lighet</w>
ek si
bl å</w>
L an
drø m</w>
- O
k ny
styr ke</w>
s inn
p s
id n
vil je</w>
hvi t</w>
us s</w>
solda ter</w>
le ser</w>
be hø
hu r
frø ken</w>
enn ende</w>
en dre</w>
å let</w>
over leve</w>
hand le</w>
forber e
en ter</w>
var er</w>
feng sel
M al
gla ss</w>
c hi
t -
sø ker</w>
en e
o fr
T er
dy pt</w>
mi sl
k ler</w>
sør ge</w>
ne kter</w>
T V</w>
forsø k</w>
Al t</w>
- for</w>
tr us
j eg
k all</w>
tjen e
skyn d</w>
tur en</w>
ansik t</w>
ur o
føl else</w>
kl ene</w>
byg ge</w>
nød vendig</w>
mo dig</w>
knap t</w>
sko le</w>
sen g</w>
gra vid</w>
alt for</w>
vi a</w>
st yg
Ji mmy</w>
or it
B r
pra ter</w>
f e</w>
y a</w>
lik et</w>
en a</w>
vi ten
K at
t om</w>
un ger</w>
jo ur
N at
u er</w>
m lig</w>
vit ne</w>
but ikken</w>
unn gå</w>
gan g
Par is</w>
N ic
ver k</w>
av talen</w>
akk ert</w>
r ør
os j
Mar tin</w>
F ar
mor a</w>
su per
be ina</w>
kl ærne</w>
tul ler</w>
føl elser</w>
S ta
til felle</w>
th e</w>
Ste ve</w>
C al
gut ta</w>
m on</w>
ga ta</w>
b ærer</w>
B ob
styr et</w>
rett ferdig</w>
gut tene</w>
tog et</w>
l at</w>
mø ttes</w>
hå p</w>
ti e</w>
Hen ry</w>
fr ue</w>
U n
t ner</w>
h y</w>
sån ne</w>
spil l
kjør t</w>
bo dde</w>
ik ke
mennesk ene</w>
s uk
f isk</w>
J os
kal les</w>
V ic
inter v
f tig</w>
sp y
ban en</w>
str uk
G jør</w>
st yr</w>
wo od</w>
forb in
T or
an te</w>
all fall</w>
oppda get</w>
el sene</w>
be veg
1 1</w>
nøkk elen</w>
ak sep
Lo u
profe ss
opp merk
da te</w>
lø pe</w>
angre pet</w>
W o
kra ft</w>
sty kker</w>
stjel e</w>
o v</w>
T ra
el ek
ven t
sver ger</w>
Sar ah</w>
F l
væ ret</w>
p lik
bå t</w>
l øytnant</w>
st opper</w>
str u
forel dre</w>
luk k</w>
k idn
e m
v akkert</w>
en ige</w>
blå ser</w>
el dre</w>
Jes us</w>
blo det</w>
F o
ve i
høy ere</w>
komm un
hvi le</w>
E ri
åp ner</w>
ro man
komp li
be holde</w>
øde legger</w>
par a
kir ken</w>
An dre
t in
vå p
ter i
bry ter</w>
kamer at</w>
j or</w>
sten gt</w>
poli ti</w>
ell en</w>
forla ter</w>
T il</w>
fornøy d</w>
ret tet</w>
ska der</w>
froko st</w>
to al
sex y</w>
on de</w>
Fran c
B eklager</w>
5 00</w>
in c
ful gte</w>
N oen</w>
ska pe</w>
kun st
b jør
on d
re sul
gen ting</w>
Al le</w>
lu re</w>
he ster</w>
sp rå
sol dat</w>
hj ul
drø mmer</w>
ju l</w>
i allfall</w>
bil dene</w>
en hver</w>
lå ne</w>
l ette</w>
Dan i
w ay</w>
C an
stil t</w>
ka st</w>
na li
br o
un gen</w>
S y
i følge</w>
la tt</w>
at or</w>
ser er</w>
ti I</w>
nerv øs</w>
lø pet</w>
Å h</w>
- Ok</w>
To mmy</w>
b ert</w>
øyebl ikket</w>
an svar
2 00</w>
sto ff</w>
spesi ell</w>
dess uten</w>
stu di
for klar
tap er</w>
sann syn
inn til</w>
so mme</w>
si r
sj ant</w>
1 6</w>
tre ffer</w>
sm ar
reg lene</w>
o le</w>
om trent</w>
lan g
pp ene</w>
syn ge</w>
s mu
stj ålet</w>
ri m
er et</w>
an ten</w>
M ed</w>
da ma</w>
sta dig</w>
S i</w>
gru ppe</w>
sp an
gul vet</w>
psy ko
m yr
pu bl
j er</w>
W hi
var m</w>
kjem per</w>
gra tis</w>
sla get</w>
før ste
str an
a -
oll y</w>
sky g
van lige</w>
k ning</w>
der fra</w>
b ul
øy a</w>
ko ster</w>
tal l</w>
- La</w>
t allet</w>
ru mp
c ha
væ p
gr an
ku le</w>
w n</w>
G å</w>
el s</w>
se y</w>
An gel
- Nå</w>
veg gen</w>
1 8</w>
venn ligst</w>
dire kte</w>
sk ur
mor som</w>
en or
tak kne
dig hetene</w>
d je
ing s</w>
fik ser</w>
t ikk</w>
al d</w>
der te</w>
s ur
F i
for andre</w>
St ar
Thom as</w>
na sjon
hje m
dire kt
tor en</w>
- Jo</w>
Ma x</w>
O m</w>
fly tter</w>
ti tt</w>
j el
ho de</w>
el en
mi ss</w>
tul l</w>
1 4</w>
lø per</w>
ti ve</w>
tan ken</w>
bil er</w>
T ony</w>
åp net</w>
i de</w>
ak ten</w>
o ter</w>
sko le
fer d</w>
var mt</w>
brø d</w>
na bo
ln gen</w>
hol det</w>
gle der</w>
over vå
arrest ert</w>
ak te</w>
K en
stil l
hvil ke</w>
bor ger
En g
syke hus</w>
kjø pt</w>
sto d</w>
skri tt</w>
k utt</w>
t vi
sp ennende</w>
Ja ke</w>
A d
våp nene</w>
in ene</w>
hin dre</w>
hal sen</w>
t opp</w>
for d</w>
di a</w>
W ill</w>
m ul
b ud
he st</w>
n ord
mid del
so si
en er</w>
try kket</w>
ar m
k m</w>
uk t</w>
k yl
P re
m ik
eksemp el</w>
y en</w>
lu f
- i</w>
sy kk
k ar</w>
g an</w>
kar ri
amerikan ske</w>
situa sjon</w>
pa use</w>
frykt elig</w>
vel sen</w>
a vi
D er</w>
lig ner</w>
vil l
tel l</w>
y le</w>
ta b
sikker het
overra sket</w>
ok ay</w>
ban k</w>
Wal ter</w>
B i
skj ul
B et
sen s</w>
an ser</w>
ver n
beste mor</w>
si ske</w>
r ent</w>
g g</w>
w a
bø l
V el
J an
D ra
unn skyld</w>
begynn elsen</w>
hor e</w>
bi t</w>
l i</w>
par tn
mennesk e
in vol
mor deren</w>
l t</w>
O li
sk ål</w>
ber ø
L il
For di</w>
u g</w>
de mon
hot ellet</w>
sp re
mer ker</w>
forsv inner</w>
kjemp et</w>
spø k
eng elsk</w>
W ash
våk ne</w>
bren ner</w>
pr ak
tak ket</w>
ell ene</w>
dø mt</w>
dei lig</w>
t at
kjøkken et</w>
u skyldig</w>
g ud
by r</w>
ø ko
m ber</w>
A -
etter for
Sel v
E R
plan er</w>
m p</w>
ky ss</w>
fly r</w>
Ch ris</w>
sk ud
kal dt</w>
fry kt</w>
Mar ia</w>
F å</w>
ve sen
elsk ling</w>
byg ningen</w>
H al
av hengi
t ta</w>
ne tt</w>
B ran
l utt</w>
R ac
o f</w>
sjon ene</w>
nær mer</w>
be in</w>
ali tet</w>
e ff
li t
kjø tt</w>
ul ov
Ric hard</w>
st em</w>
Rob ert</w>
B an
kor tet</w>
sj å
der s</w>
b ære</w>
s vin</w>
t oppen</w>
s h</w>
i fra</w>
else s
forskj el
6 0</w>
Amer ika</w>
vi dt</w>
mid dagen</w>
f u
gj øres</w>
stan s</w>
sk ra
nat ta</w>
tid spun
behø ver</w>
gul l</w>
M ur
min utt</w>
R us
ly ve</w>
besø ke</w>
al der</w>
st ående</w>
lo j
t øy
skil t</w>
sel skapet</w>
fun ker</w>
ver st</w>
ste mmen</w>
dok u
for nu
sty re</w>
m pe</w>
spar ken</w>
drap s
A t
j ø</w>
fr on
da t
g o</w>
br a
her lig</w>
igj en
en dret</w>
ba d</w>
C ity</w>
ver ken</w>
stil te</w>
S hel
ord net</w>
ok k</w>
K ir
te or
spor et</w>
lu kket</w>
d det</w>
bet alte</w>
G i
hjer te
1 8
w hi
hen dt</w>
g ud</w>
dre p</w>
ti et</w>
si vi
pros ent</w>
forst å
sy ke</w>
ver k
te mp
p us
min ne</w>
sprø tt</w>
tr oss</w>
e k</w>
st it
lett ere</w>
oppdra get</w>
ban ken</w>
besky t
ar m</w>
lov te</w>
st art</w>
pro duk
C ra
rett fer
nevn te</w>
ff er
T ur
rett s
tan ke</w>
S er</w>
t ikk
diskut ere</w>
opp ly
he sten</w>
lo kal
kil om
m es</w>
i te</w>
sk ru
h yl
Ed die</w>
stu den
P al
in i
forret ninger</w>
Cla ire</w>
stan se</w>
æ re
ny tte</w>
Wash ington</w>
Mar c
Char les</w>
sn inger</w>
ik op
sen ga</w>
kk es</w>
sj er</w>
øn ner</w>
mor s</w>
F er
stil lingen</w>
halv parten</w>
f er</w>
se es</w>
p ik
B el
k va
er far
rø de</w>
be slut
c a
vil l</w>
s lett</w>
po eng</w>
Sc ott</w>
da men</w>
brø t</w>
br ann
be skje
1 7</w>
tø ff</w>
C I
ro e</w>
br inger</w>
1 3</w>
ve st
ser sjant</w>
y n</w>
bus sen</w>
blan det</w>
ar i
b ie</w>
le ir
f le
gjel d</w>
f a</w>
ma gen</w>
bar en</w>
a u</w>
M u
re kke</w>
full stendig</w>
sam talen</w>
la tter
dy k
hand let</w>
E N
t ju
skyl dige</w>
profess or</w>
inn en
R y
In genting</w>
reg ler</w>
x ic
tilla telse</w>
for en
sj el</w>
san n</w>
nor malt</w>
b it
pas set</w>
g as
al ko
sl and</w>
V el</w>
k elen</w>
ha gen</w>
ur op
N i
sk ar
na l</w>
sp en
g y
overrask else</w>
ir ri
ic e</w>
gr øn
ut tet</w>
sam let</w>
k ende</w>
selv mord</w>
person er</w>
duk ker</w>
- Ingen</w>
gar an
so v
V ir
- å</w>
sk or
ot en</w>
S treet</w>
fri het</w>
ad var
u set</w>
kri gs
identi fis
. 00</w>
tr ik
bar n
eri et</w>
t år
le ker</w>
br il
mar ke
F år</w>
over be
me steren</w>
li sten</w>
t eller</w>
du kket</w>
il t</w>
-D ere</w>
lever e</w>
hel ikop
gi en</w>
g ale</w>
-V et</w>
milli on</w>
la pp</w>
går de</w>
di a
ma l</w>
fø d
ti on</w>
ar en</w>
t opp
an kla
hje mmet</w>
g eren</w>
sen gen</w>
kk e
M in</w>
Mar k</w>
D el
ko pp</w>
ta l</w>
da ta
str ål
sl et</w>
op er
tan te</w>
pak ke</w>
h oppe</w>
- kanskje</w>
sam tidig</w>
klub ben</w>
igjen nom</w>
str å
h æren</w>
hen tet</w>
o li
T re
de kket</w>
S us
J ane</w>
leg e
ber g</w>
D an</w>
van ligvis</w>
S mi
p op
S er
t ann
lei lighet</w>
B or
la ste
tø y</w>
pri sen</w>
ama sk
ba byen</w>
H a</w>
gre p</w>
nø klene</w>
v amp
hav net</w>
leng re</w>
beste mme</w>
rei st</w>
over for</w>
mun n</w>
fir maet</w>
uk a</w>
hen ge</w>
skap s
hel vet
li t</w>
d on
rå d
for ræ
T ar
lø sning</w>
f art</w>
fj erne</w>
mask inen</w>
mu s</w>
hje mme
tig het</w>
dr u
alv or</w>
presen tere</w>
offi si
f tene</w>
in o</w>
kn ulle</w>
bi ter</w>
S her
r ob
gje mme</w>
el te</w>
arbei ds
te am</w>
el d</w>
b le
Bob by</w>
tal te</w>
ck y</w>
knu st</w>
-T a</w>
kr ing</w>
yn et</w>
la s</w>
kilom eter</w>
reg net</w>
ell y</w>
til bak
skju le</w>
skri v</w>
sk ene</w>
pla ger</w>
o kk
viktig ste</w>
ty de
prot e
sø pp
on a</w>
kapte inen</w>
gj eng
progra mmet</w>
par tner</w>
besky tter</w>
ster ke</w>
ser te</w>
pra tet</w>
il d</w>
ret ning</w>
D in</w>
virk elig
4 5</w>
kje delig</w>
fien den</w>
er i</w>
terr ori
sol gte</w>
jæ velen</w>
-H old</w>
t vil</w>
li pp</w>
hil se</w>
eksp lo
b ler</w>
beste mte</w>
- når</w>
morgen en</w>
smer te</w>
re vol
fa br
for ut
le s
val get</w>
bryllu pet</w>
bom be</w>
å re
med lem</w>
l d</w>
y d
prin se
T en
P or
D N
tran spor
sam tale</w>
hev n</w>
bl et</w>
Car l</w>
hemmelig het</w>
re ser
B ren
vok sen</w>
uk en</w>
hav ner</w>
re par
hen dte</w>
v an</w>
gla de</w>
ster et</w>
et ten</w>
tr oll
misl y
mi rak
hø f
fer ie</w>
ri e</w>
hj el</w>
mør ket</w>
frem tiden</w>
e vent
tu sen
da gens</w>
op er</w>
under lig</w>
tel sen</w>
por ten</w>
gre i</w>
r øre</w>
ol og
sv in
gr us
fil mer</w>
pa tr
h opp</w>
su ger</w>
H ow
sk i</w>
spi s</w>
fre dag</w>
bø ker</w>
vik tige</w>
t hu
ra sk</w>
kar ene</w>
treng s</w>
su r</w>
r ar</w>
ter na
sø tt</w>
øko no
går den</w>
f alle</w>
De an</w>
2 4</w>
etter middag</w>
- var</w>
p ike</w>
g h</w>
fly tt</w>
ver s</w>
konkur ran
l ør
løg n</w>
av ly
te ste</w>
or ker</w>
ho de
spø k</w>
me ssi
by ttet</w>
n o</w>
j akt</w>
mo del
dat amask
z a
kj ell
in tet</w>
be inet</w>
s ne</w>
de ts</w>
spur t</w>
men ingen</w>
mel ding</w>
S tan
S en
sø ke</w>
ny lig</w>
evi g</w>
dri ter</w>
ven s</w>
i se</w>
brå k</w>
gren sen</w>
brø dre</w>
politi mann</w>
Willi am</w>
person en</w>
k ak
fj or</w>
Eng land</w>
Lu c
fyl t</w>
løg ner</w>
fok us
dri ve</w>
by r
virk elige</w>
sla g
sikker hets
lu ft</w>
S an</w>
no lo
Me xic
kun n
om kring</w>
J en
milit ær
gif ter</w>
p y
El ler</w>
ang ående</w>
t yn
priv at</w>
C hu
va ske</w>
for ban
S al
C ali
B re
oko la
dr ag
de t
forst o</w>
o -
be fal
ly der</w>
- -</w>
re ag
opp fat
dr uk
ør te</w>
ster kere</w>
ska pen</w>
S n
sc enen</w>
sty kke</w>
hel gen</w>
gjen opp
de fin
musik ken</w>
over lever</w>
o de</w>
forla tt</w>
Hvil ken</w>
G er
Ann a</w>
vå ken</w>
fan ger</w>
stj erne</w>
vi d
f ot</w>
bån d</w>
bet y</w>
S to
skap t</w>
p ol
t le</w>
i tt</w>
D er
is a</w>
gul l
lag de</w>
ulov lig</w>
jour nali
priv at
mel d
o ne</w>
mini steren</w>
dan s</w>
beste far</w>
Le e</w>
sol gt</w>
ma jor</w>
sam le</w>
gjen g</w>
di sk</w>
st ere</w>
be ho
med le
kur s</w>
D ave</w>
si der</w>
sn ingen</w>
mobil en</w>
spesi al
n ig
åpen bart</w>
y -
ve ier</w>
s dagen</w>
Mar i
tan ker</w>
sheri ff</w>
fav orit
z i
tr ap
r or</w>
ny hetene</w>
m per</w>
ne ppe</w>
sy stem</w>
føl elsen</w>
bet h</w>
b I
an ta
Le on
Ar thu
kla sse</w>
ba det</w>
for venter</w>
d op
vok ste</w>
ten ner</w>
stol te</w>
lå st</w>
hal vt</w>
J ason</w>
regjer ingen</w>
lu ft
P et
un t</w>
al li
K i
jen ner</w>
i ene</w>
lan ge</w>
t vil
da gene</w>
tet en</w>
mann s</w>
R on
for lo
si e</w>
plan lagt</w>
H y
w s</w>
s erne</w>
r an</w>
Ch rist
ut h</w>
t van
am et</w>
V an
v å</w>
kø dder</w>
ful gt</w>
tru et</w>
ter s</w>
li ste</w>
ty sk
tyde ligvis</w>
No e</w>
tan kene</w>
g elige</w>
elek tr
br utt</w>
si t
El li
C at
dr akk</w>
bet al
Sar a</w>
H ør</w>
se i
Ka te</w>
indi an
st il</w>
stil l</w>
pros e
gu vern
reg n
for nær
fe m
fe ire</w>
B ru
st ir
fore slår</w>
fing er
be un
posi sjon</w>
ot ek
vel sig
for m
kle dd</w>
off en
w ar
bre vet</w>
- Unnskyld</w>
sy v</w>
G år</w>
vi se
mør ke</w>
gje mmer</w>
fl å
A t</w>
ky sse</w>
- som</w>
t ne</w>
g ar</w>
sj okola
doku men
foret rekker</w>
An dy</w>
var me</w>
D or
tr av
avdel ingen</w>
R ed</w>
stør r
styr er</w>
far ten</w>
forskjel lige</w>
sy m
col lege</w>
in tel
forsv inne</w>
an ne</w>
mell om
dan ser</w>
ty delig</w>
elsk ede</w>
fel les</w>
de kk</w>
Mexic o</w>
sj al
eff ek
c he
t ål
våk net</w>
hjer ne
for slag</w>
y er</w>
fot ogra
kol leg
san gen</w>
h ær</w>
tro dd</w>
skre mmer</w>
j uk
ball en</w>
Te x
L or
II e</w>
C he
te st</w>
rask ere</w>
T ro
tryg ge</w>
må ter</w>
T an
sø te</w>
sig nal</w>
nå de</w>
ff es</w>
p in
ver en</w>
sn ø
ha tet</w>
E N</w>
re ak
ko p
amerikan sk</w>
T ri
r ører</w>
M an</w>
po st
lil le
j ord
medi sin</w>
ma teri
no n
fien der</w>
al terna
misten kte</w>
interv ju
stan den</w>
mør kt</w>
kr opp</w>
M it
våk ner</w>
g aven</w>
ag o</w>
J or
for tiden</w>
Arthu r</w>
byg get</w>
tø ft</w>
de ri
an satte</w>
j ur
h oppet</w>
dron ning</w>
mask in</w>
m ale</w>
ku l</w>
W ar
mu sk
rø d</w>
n ia</w>
sek su
am i</w>
kamera et</w>
d in
h opper</w>
Eri c</w>
run de</w>
ba ga
ansvar lig</w>
advok aten</w>
ur t</w>
mm elig</w>
Si mon</w>
sø l
områ de</w>
hjel pen</w>
S tor
1 ;</w>
&#9 1;</w>
pas sende</w>
ic a</w>
a tt</w>
-H er
tap e</w>
re presen
c el
skr u</w>
grå t</w>
gru ppen</w>
si s</w>
for år
v inn
hel lige</w>
l an</w>
u sen</w>
st ig
kjell eren</w>
i mm
for svar
fi eld</w>
ban e</w>
liv s
hil s</w>
sta sjon</w>
3 ;</w>
-V ær</w>
&#9 3;</w>
ti der</w>
s y</w>
pl uk
an aly
sør g</w>
pi zz
sol en</w>
ør et</w>
pre ss</w>
knu se</w>
grå te</w>
yd my
spr eng
g ol
s ha
oll en</w>
A my</w>
- lkke</w>
nøy e</w>
famili e
eta sje</w>
os k</w>
le ger</w>
drap et</w>
ut d
pu ste</w>
bren ne</w>
1 2
t v</w>
sn ilt</w>
E r
ta s</w>
sle m</w>
fri tt</w>
ve st</w>
fengsel et</w>
forvir ret</w>
fly kte</w>
sma k</w>
ac h</w>
pu st</w>
ss on</w>
Her ren</w>
kal d</w>
S am
åre vis</w>
z a</w>
le ie</w>
i tali
Rac hel</w>
-G reit</w>
til lit</w>
de tek
p pa</w>
le gi
ån n</w>
bas sa
vansk elig
dr in
c her</w>
ban k
Han k</w>
nat t
vol d</w>
forsv are</w>
an o
sko ene</w>
s sa</w>
regi str
3 00</w>
- på</w>
skjøn n
pre sset</w>
off er</w>
v o
toal ettet</w>
t ot
B al
de kke</w>
kidn ap
va re
tol v</w>
ster kt</w>
Dani el</w>
vit s</w>
for holdet</w>
kj olen</w>
sta ten</w>
myr det</w>
A T
ul ike</w>
høy e</w>
fyl le</w>
dig heter</w>
sø k
bom ben</w>
oppmerk somhet</w>
dy re
kni v</w>
ar mene</w>
syn ger</w>
skre mme</w>
r ut
mp en</w>
s år
mm ende</w>
van d
tvi ler</w>
ter ap
spil t</w>
mini ster</w>
h on
e st</w>
d ningen</w>
ast ro
sy kt</w>
ra ss
væp net</w>
rot et</w>
in klu
Ke vin</w>
tak ler</w>
sp ri
r ende</w>
er kl
arbei d
Jer ry</w>
sv ak</w>
av slutte</w>
. 000</w>
Jon es</w>
s ne
Bar ry</w>
sp la
rappor ten</w>
Oli ver</w>
Fran kr
sv ak
pap pa
ga ten</w>
byg ger</w>
adre ssen</w>
tr ene</w>
p ost</w>
ka ke</w>
dre v</w>
ut styr</w>
skjeb ne</w>
I N
hemmelig heter</w>
gjen gen</w>
hjør net</w>
tr ag
do p</w>
ly den</w>
ka tt</w>
fin an
del ser</w>
ri d
ret s</w>
invol vert</w>
kompli sert</w>
fla ske</w>
Chi c
skre mte</w>
sk rik
lo tt</w>
-G od</w>
dr ikk</w>
g het</w>
A dam</w>
A R
ul l
syk dom</w>
g erne</w>
sø kt</w>
fan tes</w>
bok sen</w>
skjøn te</w>
n ord</w>
ik a
sk ol
e te</w>
an else</w>
sm aker</w>
c ker</w>
je stet</w>
hø l</w>
fun gere</w>
at om
s over
hån da</w>
forskj ell</w>
v unnet</w>
Cali for
ga s</w>
br ent</w>
tap t</w>
tr ak
kr opp
dø g
vis se</w>
søv n</w>
kk elig</w>
G l
A N
y d</w>
vak ten</w>
tren er</w>
at or
all ene</w>
seri øst</w>
ma mm
mar k</w>
kjær ligheten</w>
opp fører</w>
fe st
al ler</w>
Al an</w>
rul le
til gang</w>
T he
Jac k
or dene</w>
røy k</w>
H or
ti men</w>
no n</w>
br oen</w>
8 0</w>
-G i</w>
om bi
of re</w>
p os
tek nolo
sav ne</w>
s ler</w>
p per
etterfor sker</w>
lo ve</w>
en den</w>
am bassa
rå det</w>
fr u
bi bli
rei s</w>
bran sjen</w>
v ing</w>
til bu
fug l</w>
bø kene</w>
stra ff</w>
is er
hul let</w>
n ende</w>
myn dighetene</w>
lø fte</w>
- U
hi e</w>
all en</w>
vær ende</w>
s år</w>
R am
venn lig</w>
for klarer</w>
2 2</w>
for dø
ste de</w>
S T
skap te</w>
pur k</w>
k o</w>
F aen</w>
s gjer
offen tlig</w>
fal ske</w>
erfar ing</w>
kl an
fæ lt</w>
forb anna</w>
te tt</w>
S ett</w>
M el
G ri
j ord</w>
gra ve</w>
Tex as</w>
o b</w>
eri tt</w>
kvinn ene</w>
kjek k</w>
C u
-B ra</w>
stjel er</w>
o ven
te amet</w>
lu ften</w>
spor e</w>
rappor t</w>
for vand
an ti
y ne</w>
n is
leir en</w>
forklar ing</w>
ba sen</w>
ad y</w>
T o</w>
stø tter</w>
ska dd</w>
sinn s
behand let</w>
B on
kon sentr
innrø mme</w>
Sus an</w>
ter ing</w>
ro t</w>
k val
trav elt</w>
kk er
P ri
p h</w>
ord in
fly plassen</w>
fi l</w>
ar tikk
S tr
plan eten</w>
ky sset</w>
vi I</w>
vak t
lå s</w>
lykk es</w>
stit u
sjø en</w>
or drer</w>
b et</w>
L uke</w>
-V ent</w>
strål ende</w>
du st</w>
mar eritt</w>
tr er</w>
sam vit
blin d</w>
1 5
ta sjon</w>
fir ma</w>
ø st
p øl
le k</w>
jor da</w>
hel dige</w>
g is
forbere dt</w>
til bud</w>
blom ster</w>
9 0</w>
univer si
ba de
a I
lør dag</w>
luf ta</w>
el a
pan ikk</w>
oppr ørt</w>
en som</w>
ekte skap</w>
buk sene</w>
spar ket</w>
sl ø
jer n
tom t</w>
Ch ri
Bri an</w>
dri t</w>
smi l</w>
ko ka
el d
reg ner</w>
histor ier</w>
dyk tig</w>
helvet es</w>
K elly</w>
H un
ø d
si ga
rump a</w>
ra d</w>
pre ssen</w>
T ob
radi oen</w>
sy mp
for sin
beho v</w>
F e
sa d
publ ik
ly d</w>
1 7
t og</w>
ska m</w>
foran drer</w>
Ma mma</w>
hjul pet</w>
gr er</w>
E urop
sku ffet</w>
kil o</w>
besky ttet</w>
T V
tap te</w>
eksp eri
Leon ard</w>
n ull</w>
n ar</w>
i ste
hel digvis</w>
s eren</w>
forsv unnet</w>
dag s
d ar
S lutt</w>
A s</w>
hun dre
sak te</w>
re kla
man i
fe ir
n ettet</w>
mor e</w>
le det</w>
kamer a</w>
C ap
t ha</w>
sp ir
for ventet</w>
t lige</w>
le dning</w>
dra g</w>
bruk es</w>
ten nene</w>
hal ve</w>
beskyt telse</w>
begyn n</w>
- Et</w>
latter lig</w>
In ter
B lo
unn tatt</w>
profe sjon
kni ven</w>
an dres</w>
20 0
perf ekte</w>
re isen</w>
po sten</w>
tak le</w>
feil er</w>
Ro ger</w>
økono mi
eli gi
Mag gie</w>
suk se
pr op
l osj
enk el</w>
dron ningen</w>
Frankr ike</w>
-T ror</w>
kre fter</w>
h e</w>
fø ttene</w>
Joh n
- se</w>
m o</w>
u vanlig</w>
fot en</w>
H ann
g ående</w>
stø v
papir ene</w>
p set</w>
Phi l</w>
S on
I sa
hå pe</w>
må nen</w>
j om
an o</w>
Y o
tel ser</w>
s le</w>
de par
Lu cy</w>
ko st
for svar</w>
kon fer
F red
D ri
ve is</w>
t unge</w>
p likt</w>
ør ene</w>
ver dig</w>
in ve
dia man
W or
on ene</w>
kj ole</w>
bevis st
H it
ny sgjer
ni vå</w>
el va</w>
D un
yng re</w>
g get</w>
dr os
be viser</w>
mi l</w>
hu m
fi ende</w>
et tene</w>
vå ger</w>
angri pe</w>
an går</w>
F y</w>
Pa tr
Califor nia</w>
kor t
fremm ede</w>
bryllu p</w>
beve ger</w>
Qu e
so mmer
ski fte</w>
om t</w>
av stand</w>
an svaret</w>
B ig</w>
Ali ce</w>
val g
takkne mlig</w>
elen dig</w>
T ed</w>
G ran
Chic ago</w>
re k
pil ler</w>
ny t
mik ro
me ster
kø dd</w>
J ef
trø tt</w>
språ k</w>
bok s</w>
off eret</w>
ty der</w>
grå ter</w>
m ur
ke y</w>
dø dd</w>
tra di
l etter</w>
kl in
tat over
over levde</w>
n ære</w>
mel k</w>
me g
fil m
ver d</w>
T il
red der</w>
for rå
all y</w>
F ri
skyl den</w>
dø mme</w>
ser vi
ra l</w>
V en
r eligi
fl otte</w>
How ard</w>
tun gen</w>
tidspun kt</w>
mi e</w>
vok sne</w>
mu ligheten</w>
enk elte</w>
ad jø</w>
svik tet</w>
li den
far ge</w>
åp ent</w>
til by</w>
h under</w>
t he
se il
by er</w>
ap t</w>
an mel
hot ell</w>
O R
til fre
gra der</w>
sannsyn ligvis</w>
patr ul
P ro
lei e
Han s</w>
vit ner</w>
skri ve
is ol
St .</w>
A m
vak tene</w>
pop ul
ha t</w>
u tro</w>
f en</w>
dom s
D et
st av
hjel p
b ør
M id
sjal u</w>
leg get</w>
v o</w>
K ri
m ert</w>
Jo ey</w>
sti an</w>
avhengi g</w>
D re
sv a
mm el</w>
P appa</w>
veg ne</w>
inn blandet</w>
for syn
nak en</w>
kre ft</w>
fan ken</w>
dru kket</w>
Lo s</w>
........ ........
kontroll ere</w>
2 1</w>
CI A</w>
1 9</w>
sø kte</w>
rei ste</w>
ha m
gamm elt</w>
kat astro
ut merket</w>
R an
I r
mon ster</w>
man dag</w>
angri per</w>
kontroll en</w>
grun ner</w>
by rå
y o
h i</w>
sti d</w>
ska I</w>
Mor gan</w>
K im</w>
D E
sn ille</w>
sj elen</w>
el ef
ran et</w>
de kker</w>
Do c</w>
marke det</w>
men g
depar te
C re
p ert</w>
Ma tt</w>
defin i
Eli za
vil t</w>
tu m</w>
brø drene</w>
t åp
sor g</w>
hand ling</w>
ener gi</w>
i ser</w>
am bul
Chu ck</w>
0- tallet</w>
viktig ere</w>
ver ket</w>
tr akk</w>
se te</w>
be gren
leg g
S ol
natur lig</w>
sla ppe</w>
s o</w>
j ap
føl tes</w>
ban ker</w>
T -
ry dde</w>
pros jek
mm es</w>
m ap
it h</w>
i sa
but ikk</w>
S he
snak kes</w>
si es</w>
pun kt</w>
mm ere</w>
k ro
grei ene</w>
da mene</w>
c on
ne ktet</w>
fjer net</w>
F r
t ning</w>
sør en</w>
strø mmen</w>
n ere</w>
whi sky</w>
søn dag</w>
k tes</w>
hu sket</w>
S ch
B ir
li a</w>
kjær lig
en het</w>
d d
N ord
ut styret</w>
ster s</w>
sl ak
or e</w>
år ing</w>
partn eren</w>
mp et</w>
fr ak
skju ler</w>
av trykk</w>
Ko mmer</w>
sk ar</w>
ga ver</w>
ug h
tvan g</w>
lan gs</w>
smer ten</w>
l ord</w>
k el
idi oter</w>
kjø p</w>
innen for</w>
Ma jestet</w>
lin je</w>
vur dere</w>
reg el</w>
pas sa
behand ling</w>
ly n</w>
la ger
la vt</w>
inn så</w>
føl t</w>
fik set</w>
a tr
N an
.. ..</w>
vok ser</w>
tilbak e
ob ser
intel lig
0 000</w>
høf lig</w>
hemm elige</w>
ekte skapet</w>
a mm
plan legger</w>
kva li
h yg
direkt ør</w>
F eli
sp ei
avi sen</w>
An ne</w>
sad vok
lo mme
Z o
Smi th</w>
spe il
ska ffet</w>
fr ansk</w>
sjel den</w>
u skyldige</w>
R ick</w>
m inn
Lar ry</w>
sj er
ly tte</w>
fore stille</w>
c ca</w>
st an</w>
ju le
er stat
ban ket</w>
skjeb nen</w>
han del</w>
ban ke</w>
Rom a</w>
skjøn ne</w>
kon g</w>
2 -
inn ser</w>
br akte</w>
vin den</w>
ten t</w>
sør ger</w>
mennesk elig</w>
fremm ed</w>
Kar en</w>
te de</w>
s ør</w>
pp e
bil ene</w>
Jef f</w>
Ale x
vamp yr
nevn t</w>
le deren</w>
di str
del t</w>
par ken</w>
se s
ha tten</w>
de kning</w>
P r
lø ser</w>
bran n</w>
al e
lo s</w>
M is
mulig heter</w>
der som</w>
L isa</w>
D on</w>
messi g</w>
lin jen</w>
drø mmen</w>
ap p</w>
re d</w>
fing rene</w>
sk å
f løy</w>
ur a</w>
organ is
mil y</w>
ha gelig</w>
bekre ftet</w>
Jack son</w>
u middel
rettfer dighet</w>
publik um</w>
P enny</w>
hi a</w>
forb u
O l
over fla
- hvis</w>
na bol
l ak
ar l</w>
be satt</w>
se d
ma gi</w>
fort ere</w>
forret nings
ann else</w>
Ry an</w>
kjen n
invi tert</w>
in f
h is
f an</w>
at jeg</w>
b ær
nak ken</w>
opp gave</w>
l øn
dr inger</w>
a tet</w>
verden en</w>
k ine
hand l
Gar y</w>
spr øy
gje st</w>
for ster
dre vet</w>
N y
sek ven
opera sjon</w>
ko de</w>
kan di
h år
g av</w>
Marc us</w>
mot stan
i um</w>
forbin delse</w>
trus sel</w>
resul ta
e go
A v
b i</w>
S a</w>
gje ster</w>
ut ny
et h</w>
ta p</w>
ster te</w>
A L
pre sse</w>
om p
mø t</w>
undersø ke</w>
nor mal</w>
in si
P at
try kke</w>
het ens</w>
p isk</w>
Lin da</w>
knul ler</w>
fød sel
bø d</w>
b s</w>
Eliza beth</w>
Den ne</w>
u ri
informa sjonen</w>
føl elsene</w>
dig heten</w>
ve kke</w>
sekun d</w>
ly tter</w>
kn inger</w>
O i</w>
-H er</w>
mer ende</w>
dør ene</w>
dyr et</w>
di ske</w>
an der</w>
til byr</w>
h yr
gu dene</w>
vi sning</w>
ska ffer</w>
li p</w>
gje mt</w>
de retter</w>
en si
- I
sho w
ek stre
st ek
skjøn t</w>
sk in
k s
be handler</w>
vit ne
v art</w>
an tak
V in
Europ a</w>
en dte</w>
b elen</w>
Ro se</w>
universi tet
u hell</w>
t yg
m øn
bryllu ps
O ver
I ig</w>
ok ra
rø d
bån det</w>
sk on
progra m</w>
ang re</w>
am a</w>
ved der</w>
styg g</w>
so faen</w>
se ier</w>
opera sjonen</w>
k enen</w>
ska ff</w>
M in
sm ør
dri v
bo dd</w>
ba se
s un
prinse sse</w>
tru kket</w>
pla ge</w>
ide er</w>
hå p
yn d
opp før
misten kt</w>
ko den</w>
ek k
bel øn
S tu
pre st</w>
or a</w>
ko ffer
he stene</w>
do en</w>
Gra ce</w>
st in</w>
w ell</w>
w ard</w>
pr ins</w>
fry kter</w>
d ol
beskje den</w>
b ik
tre ffes</w>
skjul t</w>
tre ff</w>
ne ga
hel se
Mar ty</w>
kon tan
bibli otek
g in
to mme</w>
gre pet</w>
be hold</w>
tak ker</w>
rø mme</w>
re y</w>
set ning</w>
v ettet</w>
lø sla
Jes si
E d</w>
dre ier</w>
Shel don</w>
knul let</w>
k aker</w>
gar a
ek sa
offisi elt</w>
Z e
par ker
jer n</w>
itali en
fa der</w>
ven dt</w>
-G jør</w>
mar k
lo ck</w>
k å
fl uk
fak ta</w>
bla d</w>
rass høl</w>
li de</w>
ar ki
or s</w>
nær meste</w>
l art</w>
kjø ret
eng el</w>
lig get</w>
d -
K rist
fal sk</w>
T im</w>
G al
sivi li
kjø tt
ka li
ff e
Ro y</w>
M ad
milli ar
j u</w>
sek ret
1 4
men ter</w>
Jac ob</w>
u el</w>
ret tig
pur ken</w>
kn ingen</w>
Pe te</w>
K ra
stu kket</w>
ste inen</w>
spi on
off ent
event yr</w>
dob bel
bal ler</w>
sam ler</w>
kla ge</w>
kar tet</w>
fri villig</w>
ko stet</w>
is co</w>
in spek
y tter
for men</w>
R eg
person lige</w>
fortjen t</w>
styr ken</w>
p und</w>
c e
re ss
kontak ter</w>
G ord
mp ag
knu ste</w>
ve y</w>
kon ser
ill s</w>
hen g</w>
Ra y
K ap
- J
vok se</w>
sti g</w>
gr av</w>
uro lig</w>
mu lige</w>
fr ika</w>
eien dom</w>
S lipp</w>
7 0</w>
-Her regud</w>
sign alet</w>
s ing</w>
over hodet</w>
Vic tor</w>
M en
2 3</w>
e z</w>
L yn
1 6
nabol a
ky sten</w>
kontak te</w>
ri r</w>
La u
E mily</w>
be dri
S ør
Bla ck</w>
-F år</w>
tra fik
komp an
in va
forstyr rer</w>
er -
Juli a</w>
kun st</w>
bjør n</w>
p ikken</w>
dø d
krang le</w>
k no
gj ett</w>
at ori
en drer</w>
t ar
N ik
kry p
forskj ellen</w>
W en
skj ære</w>
on i
kr av</w>
ig nor
sp re</w>
fi sk
den for</w>
W ol
skil smi
offi ser</w>
forstå else</w>
fjer de</w>
san ne</w>
gjen ta</w>
av sky
skit ne</w>
om sten
- alt</w>
tun gt</w>
s no
per i
pen sjon
hal l</w>
Si r</w>
P rø
spesi elle</w>
dy p
b elt</w>
ud y</w>
tv inge</w>
sj ar
si l
behand le</w>
1 ,
t osk</w>
ko pi
vis s</w>
fi tte</w>
f all
ski ftet</w>
fj ellet</w>
f ler</w>
Ve gas</w>
an satt</w>
-B eklager</w>
ste m
rus serne</w>
komm and
hum ør</w>
eksp losj
Jessi ca</w>
sk t</w>
ba tter
ba sert</w>
Clar k</w>
tr yl
sty gt</w>
1 .</w>
rø dt</w>
ra re</w>
avgjør else</w>
vak ter</w>
st ikk
om a
eksi sterer</w>
t unn
rett ss
gje mte</w>
to en</w>
ri ve</w>
or t</w>
se g
pap ir</w>
l ån
ball ene</w>
st å
ig ht</w>
3 5</w>
va sket</w>
invi terte</w>
R on</w>
smu g
restaur anten</w>
pasi ent</w>
lands byen</w>
er o
avdel ing</w>
a st</w>
Jac kie</w>
C le
tekn isk</w>
proble mene</w>
di s</w>
teg net</w>
k ten</w>
bl ør</w>
b øn
Her re</w>
stjer ne
skre mmende</w>
opp levd</w>
log isk</w>
dø delig</w>
ch en</w>
sp ar</w>
k en
der lig</w>
A l</w>
gra d</w>
etter lot</w>
er ingen</w>
sp are</w>
ta x
fa st
yl or</w>
undersø k
organ isa
nå dd</w>
med al
j ekt</w>
forbry telse</w>
folk a</w>
K jenner</w>
roman tisk</w>
kk ende</w>
lei r</w>
kri ger</w>
kra ften</w>
i -
fr uk
c ent</w>
sver d</w>
ot tet</w>
Mil ler</w>
si ttet</w>
ep is
F ol
mak ten</w>
fr an
en tene</w>
fordø mte</w>
W in
P u
trik s</w>
sn ar
psy ki
US As</w>
. 30</w>
ter ne</w>
For tell</w>
el et</w>
sj okk
ko mi
er jeg</w>
dø ende</w>
da ta</w>
ho l</w>
rim elig</w>
drittse kken</w>
bil lig</w>
sp ent</w>
pl uss</w>
natur ligvis</w>
grøn ne</w>
g ær
do mmeren</w>
ut satt</w>
rop er</w>
sik tet</w>
forsø kte</w>
A la
st ent</w>
intere sse</w>
gen era
ly tt</w>
fun n</w>
bo y</w>
råd gi
lan ds</w>
hu den</w>
før ing</w>
fy sisk</w>
e tisk</w>
R en
ro w</w>
pre sse
kyl ling</w>
gal skap</w>
P ow
on -
e se</w>
dje velen</w>
tå ler</w>
ekk elt</w>
S av
son s</w>
han g</w>
fe ig
S pe
P en
vil let</w>
vide oen</w>
ran e</w>
di l
a vis
t z</w>
o den</w>
her ine</w>
fanta stiske</w>
departe mentet</w>
C am
ra k</w>
kle m</w>
adre sse</w>
nev ne</w>
j ung
B li</w>
fis ert</w>
K j
verden s
str y
lokal e</w>
Andre w</w>
tal ent</w>
sma ke</w>
slu ppet</w>
risik ere</w>
Re be
koka in</w>
gen i</w>
L ady</w>
uni or</w>
fing eren</w>
c er</w>
I i
D al
Ann ie</w>
størr else</w>
stin ker</w>
so mmeren</w>
skil tet</w>
er o</w>
V a
hj erne</w>
ut ten</w>
sen ator</w>
mo ti
ran g</w>
l ers</w>
impon erende</w>
-S i</w>
te in</w>
sho w</w>
kjer ring</w>
ja mmen</w>
buk ser</w>
Ty sk
Ste ven</w>
H jel
ån d</w>
pak ket</w>
oppfat tet</w>
fyl ler</w>
Char l
- med</w>
on kelen</w>
kidnap pet</w>
el ven</w>
d ninger</w>
re ster</w>
is erer</w>
sin net</w>
sam arbeide</w>
ne sen</w>
mar i
Mi les</w>
Mi ami</w>
Ju lie</w>
skre mt</w>
ku ler</w>
ti t
ti me
sp a
opply sninger</w>
lø p
bil letter</w>
bas sen
b ær</w>
tysk erne</w>
sm y
kam p
en gt</w>
avsl øre</w>
K ina</w>
ven der</w>
vak u
tab be</w>
smer te
ku tte</w>
kre di
ju ri
etterforsk ningen</w>
B il
virkelig heten</w>
til f
s .</w>
k tene</w>
S il
John son</w>
ol je</w>
l ende</w>
k ing</w>
in struk
forban net</w>
Tob y</w>
r akk</w>
li der</w>
in dre</w>
sukse ss</w>
is se</w>
St an</w>
so vet</w>
pu sten</w>
ekte mann</w>
av n</w>
H øy
Angel es</w>
røy ker</w>
S hi
te en</w>
ny te</w>
kny ttet</w>
bry stet</w>
ti ps</w>
del ene</w>
ad op
O pp
Go dt</w>
- om</w>
unnskyl de</w>
ta u
fa sc
l ønn</w>
R al
Lu ci
B at
tor tur
te l</w>
sl øs</w>
kjø le
je v
cha mpag
bl ikk</w>
vi tet</w>
stor m</w>
poli tikk</w>
lig g</w>
li r</w>
til stand</w>
ress ur
mirak el</w>
medle mmer</w>
kli ent</w>
M olly</w>
tilfel dig</w>
opp le
U t
1 000</w>
-H vil
ra m</w>
l ings
fæ le</w>
fæ l</w>
E L
x ter</w>
str et</w>
sk op
måne den</w>
mon d</w>
detal jer</w>
røy ke</w>
lykk elige</w>
komm ende</w>
bi li
år s</w>
s ing
gre ss</w>
t ob
sak et</w>
krang let</w>
her o
san d
u tro
ti rs
sj en
hånd tere</w>
hu komm
far lige</w>
an g</w>
-G å</w>
sp er</w>
so mmer</w>
mid ler
gjen tar</w>
bun det</w>
prø ven</w>
le dig</w>
fram tiden</w>
defini tivt</w>
al likevel</w>
T ru
S at
s ar
- ha</w>
ser ver
sa tel
ty sk</w>
stran den</w>
mot tatt</w>
fot ball</w>
G il
Car los</w>
til bringe</w>
t le
mid ler</w>
inn siden</w>
ig h
K or
til bød</w>
sp on
kl ø
gra v
We st</w>
K ing</w>
Ja vel</w>
Car ter</w>
A S
- alle</w>
Fre d</w>
5 000</w>
- til</w>
par k
inn se</w>
fr ie</w>
W at
S ånn</w>
skue spiller</w>
M å</w>
bekym rer</w>
reg ne</w>
byg d</w>
Wil son</w>
K u
1 -
y e
st enger</w>
sj okk</w>
m m</w>
lei t</w>
O h</w>
Lil y</w>
vur derer</w>
kontak ten</w>
de sper
forstyr re</w>
N u
spar ke</w>
sj anser</w>
se son
br akt</w>
O sc
M os
F int</w>
å stedet</w>
ss ing</w>
j un
in ten
by ens</w>
us yn
ta g
t ing
be holder</w>
hol des</w>
forsv inn</w>
drø mte</w>
S op
G ol
Don na</w>
si de
restaur ant</w>
Lou is</w>
Do ug</w>
yn d</w>
rei k</w>
ba se</w>
M ot
ko ordin
klub b</w>
for mu
br ut
ver i</w>
te it</w>
ret ur
mor det</w>
Li tt</w>
-S el
vit net</w>
tren ing</w>
set et</w>
kap it
d yn
Hel vete</w>
lo mm
en tr
duk ke</w>
a sjoner</w>
over bevise</w>
mid ten</w>
kk a
b æ
tul let</w>
tr ynet</w>
c tor</w>
T I
P la
Mat the
E T</w>
ska tten</w>
k uttet</w>
dr en</w>
da ter</w>
F ra</w>
ug h</w>
st enge</w>
sle kt
sn i
p hy</w>
kar ak
sti ge</w>
g ing</w>
c ow
P ass</w>
Ha y
F in
1 3
-N oen</w>
sheri ffen</w>
Bran don</w>
uk k</w>
mu se
hen gt</w>
L .
syn et</w>
op e</w>
kl ere</w>
Par k</w>
J enny</w>
C e
5 -
- fordi</w>
va sk
S ti
O m
H yggelig</w>
S til
A kk
tusen vis</w>
e di
dyr ene</w>
t atene</w>
pizz a</w>
nav nene</w>
mi en</w>
il a</w>
ide en</w>
f li
agen ter</w>
Ta ylor</w>
-S k
fly ktet</w>
alko hol</w>
strø m</w>
solda tene</w>
min net</w>
kra ft
gen i
V ar
0 0
sm el
sli ten</w>
ma sse
j ag
tjene ste
la bor
til gjeng
pin lig</w>
ly de</w>
b ot
tilbu det</w>
rik tige</w>
hand linger</w>
forlo ve
de sig
c ke
sam funnet</w>
styg ge</w>
samvit tighet</w>
radi o
mo derne</w>
le kker</w>
hvi tt</w>
ga te</w>
be stille</w>
rø mte</w>
pro dus
m os
gr o
st eng
sj u
kan ten</w>
E t
forbu dt</w>
av gjort</w>
amerikan ere</w>
sy l
spi ra
ik tig</w>
Lin col
- der</w>
til gi
svø mme</w>
hel sik
Se an</w>
vansk elige</w>
skyn de</w>
kjef ten</w>
vi e</w>
u rettferdig</w>
s me</w>
lig ste</w>
kra ftig</w>
in ere</w>
b b</w>
at oren</w>
- Be
sk ille</w>
H elt</w>
sen teret</w>
k art</w>
Wal ker</w>
P hil
mo ver</w>
mid del</w>
kir ur
hun de
Ste p
respek terer</w>
her regud</w>
Rob in</w>
Co oper</w>
skri ft</w>
pri va
iste denfor</w>
an n</w>
ac e</w>
Ja y</w>
tø ff
sa ts</w>
fø dte</w>
f en
del ta</w>
c u
E l</w>
umiddel bart</w>
sjå før
s litt</w>
før er
ban d</w>
B lu
on gen</w>
Selv sagt</w>
ikk ert</w>
an befal
C ur
At lan
str ene</w>
sn it
D ra</w>
An n</w>
be se
amm uni
Charl otte</w>
så re</w>
frem tid</w>
M eg
show et</w>
gul let</w>
ett y</w>
W y
19 8
vel g</w>
u ser</w>
sam ling</w>
ly sene</w>
N ed</w>
t ika</w>
som heten</w>
or y</w>
c om
an erne</w>
U l
J eg
st eg</w>
it z</w>
P an
L A</w>
Co le</w>
A ri
fe i
f on
N ina</w>
ø v
S w
Ne w
Car ol
sti lig</w>
om bord</w>
i stan</w>
halv time</w>
sver det</w>
s ven
re vet</w>
oven på</w>
ne mlig</w>
kla ssen</w>
vir uset</w>
u kjent</w>
u en
tor sdag</w>
ros a</w>
kr on
hu d</w>
F ra
Akk urat</w>
sto ffet</w>
nat ur</w>
karri ere</w>
g ris</w>
d dy</w>
S pen
t sett</w>
da y</w>
kin o</w>
ben sin</w>
Le o</w>
Ba uer</w>
år sak</w>
sik ter</w>
hi gh</w>
Ha w
is sen</w>
E mma</w>
mek tig</w>
går d</w>
g atene</w>
ac k</w>
F ør
terr or
men ing
gen t</w>
ry kter</w>
bil lett</w>
Ten k</w>
ty v</w>
or ig
hel bre
famili er</w>
eksp ert</w>
dob belt</w>
b ben</w>
tåp elig</w>
p ikk</w>
ofr ene</w>
kon sekven
desper at</w>
nar r</w>
begra velsen</w>
Un der
sli ter</w>
ic k
an grer</w>
mid natt</w>
la dy</w>
inklu dert</w>
ik et</w>
forsø ker</w>
du stri
bet ing
ut sl
sø k</w>
ri tu
o mme</w>
le den</w>
k ins</w>
kop i</w>
gj ette</w>
n ært</w>
kontan ter</w>
hør tes</w>
hu str
ev ner</w>
en klere</w>
S pi
7 5</w>
tel le</w>
sn ur</w>
skrik er</w>
sik ret</w>
papir er</w>
nysgjer rig</w>
skyl d
sj et</w>
sol a</w>
a ger</w>
Ter ry</w>
r ere</w>
da s</w>
M as
Hann ah</w>
til legg</w>
spørsmå lene</w>
arrest ere</w>
3 2</w>
ut el
forsik re</w>
bun nen</w>
Elli ot</w>
skud d
on y
T ja</w>
vog na</w>
vid underlig</w>
u try
in spir
s inn</w>
ho ol</w>
dre ss</w>
bil let
A ar
ve kt</w>
spr enge</w>
rik s
k ikk</w>
is ere</w>
be gj
w in</w>
st jen
sky ss</w>
medisin en</w>
k us
sik ten</w>
ha ge</w>
h o</w>
gå s</w>
L iker</w>
Ha dde</w>
-M an</w>
w en</w>
kon gre
g g
dy rt</w>
at i</w>
ty pisk</w>
sky tter
ik kene</w>
forsø ke</w>
beveg else</w>
san ger</w>
liv ene</w>
feng slet</w>
fe ste</w>
ka os</w>
4 00</w>
yl an</w>
telef oner</w>
orig in
m uren</w>
Po li
D om
tru m</w>
t ell
bety dde</w>
Har ri
sykk elen</w>
ne der
narko tika</w>
mek tige</w>
liv s</w>
bl ikket</w>
Tysk land</w>
S kj
DN A</w>
B ry
vit ere</w>
ter ende</w>
qu e</w>
T ha
i e
gra ver</w>
bl and
re ali
rappor ter</w>
e vaku
ø ve</w>
ss ene</w>
ry kte</w>
o et</w>
fun k
antak elig</w>
ko ste</w>
eng a
bekre fte</w>
ok sy
mulig ens</w>
lå ter</w>
lever t</w>
V inc
Pa ul
D -
mann skapet</w>
kredi tt
kjempe bra</w>
fornu ftig</w>
Patr ick</w>
Bro ok
ø d</w>
ska tte
natur en</w>
fe ster</w>
ø ker</w>
ty per</w>
stat sadvok
menne sket</w>
h s</w>
utvik let</w>
kil den</w>
k ne</w>
full føre</w>
da gs</w>
spill ere</w>
b ber</w>
Pi er
sl øse</w>
revol u
lever er</w>
l ær</w>
fjer n</w>
av gjøre</w>
G la
inn fly
fl ukt</w>
favorit t
S ul
S har
skjor te</w>
klo v
fug ler</w>
c ia</w>
ad vare</w>
a si
sover ommet</w>
i st</w>
t ant</w>
hen de</w>
der son</w>
akk a</w>
Gord on</w>
E rik</w>
Car la</w>
sel ve</w>
po se</w>
opp føre</w>
mil jø
hundre vis</w>
m ing</w>
karri eren</w>
ha te</w>
ck s</w>
2 000</w>
-Sel v
sn ik
r ollen</w>
priva te</w>
kom st</w>
inn trykk</w>
D ylan</w>
sammen lig
kvar ter</w>
ha ug</w>
fra mme</w>
S pr
Hol ly
A sh
tirs dag</w>
Pre siden
kat ten</w>
finan si
ek s</w>
H om
ul ler</w>
lø ftet</w>
fjer n
fak tum</w>
di ag
bibliotek et</w>
beslut ning</w>
berø mt</w>
sl ene</w>
sjokola de</w>
Fl ori
ter i</w>
spi on</w>
si g</w>
min ne
li s</w>
for handle</w>
as h</w>
Le sli
sik te</w>
re kr
ban det</w>
ba c
am s</w>
K la
ø de</w>
pot ensi
beve ge</w>
ba l</w>
te ster</w>
in es</w>
hek s</w>
bassen get</w>
Fran kie</w>
mor dere</w>
hav n</w>
beg ått</w>
V an</w>
å per</w>
un get</w>
skjønn het</w>
jul ing</w>
høy este</w>
a er</w>
a da</w>
Selv følgelig</w>
L ø
s hi
na zi
h -
for svaret</w>
fokus ere</w>
ør kenen</w>
sva ke</w>
sjå før</w>
prø ve
model l</w>
ma fi
grus omt</w>
e h</w>
B lir</w>
su ge</w>
ste v
mani pul
fol ke
bi tt</w>
va sker</w>
universitet et</w>
stu dere</w>
pu ster</w>
opp i</w>
koffer ten</w>
bur et</w>
advar sel</w>
tr et</w>
mel de</w>
gif ten</w>
g yl
eksp er
Th or
B l
tjen te</w>
teor i</w>
over våk
ne sa</w>
bre m
re kk
nyt tig</w>
kontak tet</w>
for del</w>
fa g
av an
Bo ston</w>
Ber lin</w>
sty kket</w>
knu ser</w>
in vitere</w>
hom se</w>
gara sjen</w>
Su per
Mar s
t het</w>
t at</w>
opp nå</w>
S ver
Al dri</w>
t yr
poli tisk</w>
gr ønn
be set
god tar</w>
fabr ikken</w>
ø ver</w>
vel ser</w>
o der</w>
impon ert</w>
er e
bry st
a ff
Jor dan</w>
nøkk el</w>
i stisk</w>
for leden</w>
F la
t elig</w>
si e
se kken</w>
radi o</w>
plan et</w>
kidn app
g ei
S ky
Lincol n</w>
zz y</w>
tv unget</w>
tilfre ds
t øyet</w>
ag gre
19 9
tre tt</w>
takkne m
sp ra
s ar</w>
lag d</w>
jak te</w>
fø tter</w>
be væpnet</w>
R E
E va</w>
ve sken</w>
univer set</w>
sa s</w>
labor atori
k este</w>
k -
blo kk
Mur phy</w>
risik erer</w>
dem okra
Car rie</w>
ut vi
jak ter</w>
g el</w>
er at
Ka tie</w>
Bren da</w>
on i</w>
le delsen</w>
kar en</w>
jur yen</w>
g -
buk sa</w>
bel tet</w>
Ch lo
- ser</w>
kal de</w>
Cla u
z o</w>
lan der</w>
komm en
d ingen</w>
by tter</w>
Rebe cca</w>
øyebl ikkelig</w>
ål reit</w>
velsig ne</w>
prosjek tet</w>
H ill</w>
tilla ter</w>
suk ker</w>
luk ten</w>
krimin al
hel g</w>
før eren</w>
f g
dr ama
d ne</w>
For t</w>
av sluttet</w>
v or
ro p</w>
z ombi
vil lige</w>
p lukket</w>
ha v</w>
fien d
C -
sv og
be stilte</w>
F ikk</w>
sl ottet</w>
opp tak</w>
kla ssi
kjø p
fi g
fe stet</w>
detal jene</w>
begra velse</w>
S pan
A frika</w>
ne g
lik ene</w>
aksep tere</w>
Et han</w>
yo u</w>
ut se
tru er</w>
sa g
nabola get</w>
kun der</w>
kom fort
bo t</w>
assi stent</w>
V ille</w>
-F å</w>
tilfel digvis</w>
stjer nene</w>
sen trum</w>
r ørt</w>
medisin sk</w>
de sto</w>
ty ske</w>
kre ftene</w>
kontr akt</w>
fr is
lo w</w>
ve sen</w>
ul v</w>
tren gt</w>
jak ken</w>
il den</w>
beun drer</w>
Aar on</w>
hom o
g ass</w>
fre mme</w>
bry dde</w>
Wa yne</w>
ut føre</w>
poli tik
milliar der</w>
kon f
intervju et</w>
hustr u</w>
al sk</w>
Al i</w>
hjemme fra</w>
gr et</w>
god ta</w>
fe mte</w>
V ol
H ei
rus sisk</w>
lig gende</w>
An th
te a
stu a</w>
sle mme</w>
ot ene</w>
hav ne</w>
gjer nings
bom ber</w>
bok stav
t ung</w>
Lesli e</w>
C ro
teknolo gi</w>
ka ffen</w>
dr el
bevis ene</w>
b øy
w or
st ens</w>
sjar merende</w>
prin si
pik en</w>
is eren</w>
in stin
i v
F ar</w>
vide o
tr inn</w>
skj ærer</w>
gr ønn</w>
ei eren</w>
La ura</w>
G am
sykk el</w>
hel lig</w>
fort jente</w>
an non
sø ster
p iss</w>
he isen</w>
gra vi
byg de</w>
M y
Kar l</w>
par tiet</w>
p ine</w>
for fatter</w>
enor m</w>
besø kte</w>
Vel dig</w>
R and
ra sende</w>
h vit
Je pp</w>
l ine</w>
k et
fe it</w>
Vin ce</w>
Par ker</w>
tro en</w>
sv ing</w>
skjor ta</w>
r ele
del te</w>
M ener</w>
ut tal
rus siske</w>
peng e
L it
H elen</w>
F lott</w>
-V el
vide o</w>
v elig</w>
tål mo
ti er</w>
su g
star ten</w>
om gang</w>
misly kkes</w>
komp isen</w>
hel ter</w>
a mi
Bro wn</w>
lig nende</w>
lei er</w>
ko blet</w>
eg o</w>
be dø
span derer</w>
ku r</w>
kor tene</w>
folk s</w>
fl in
ell s</w>
Nan cy</w>
tri ves</w>
spor t</w>
se ñ
lager et</w>
kri g
forår saket</w>
f allet</w>
b ene</w>
Sk ulle</w>
Ma c</w>
Con n
kam pan
j et
hen sikt</w>
fl øy
fg han
reg n</w>
f et</w>
Do u
vanskelig ere</w>
syn der</w>
os e
kir ke
di stra
sky te
sin te</w>
oppr ør
kontr akten</w>
be stilt</w>
Rus sland</w>
H i
speil et</w>
over ens</w>
dør er</w>
drin ker</w>
avsl ørt</w>
stor men</w>
pu pper</w>
kon sta
idi o
detek tiv</w>
al arm</w>
TV -
Ma y
M rs</w>
sk inn
kolleg a</w>
hel le</w>
t allene</w>
søn ner</w>
par ano
h r</w>
pre sten</w>
kun de</w>
f i</w>
elig het</w>
de nes</w>
Val ent
T w
mek sik
for mer</w>
ån den</w>
døg net</w>
W i
N å
Franc is</w>
- eller</w>
vå t</w>
sk inn</w>
p al
opp mun
l øyet</w>
M ason</w>
til gir</w>
sjåfør en</w>
s ses</w>
mot stand</w>
ma sjon</w>
konkurran se</w>
k in</w>
irri terende</w>
-Hvil ken</w>
sk rike</w>
o i
nød ven
fre mover</w>
am at
Chlo e</w>
4 8</w>
s inne</w>
rø m
inn brudd</w>
f elt</w>
T re</w>
S ko
yn n</w>
st y</w>
spar k</w>
risik o</w>
mot oren</w>
fre k
de pri
L egg</w>
ve ska</w>
ste in
sp as
nord over</w>
inter nasjon
champag ne</w>
bor g</w>
St opp</w>
Mal col
M ik
try kker</w>
p at
luk ke</w>
he i
ar er</w>
S h
Ro lig</w>
Mon roe</w>
z e</w>
sie ur</w>
i us</w>
pro stitu
kor ru
in tet
da to</w>
bus s</w>
Nat han</w>
gan gs
fe tt</w>
an ter</w>
al bu
svi ger
slan ge</w>
ned over</w>
n et
k ve
Hu sker</w>
skre k</w>
sivi le</w>
bl o</w>
mek an
leg ene</w>
interv ju</w>
Mar gar
Luc as</w>
K el
I I</w>
E k
uk e
e dr
Har old</w>
my ster
mellom tiden</w>
ing o</w>
fre kk</w>
r ens</w>
Hit ler</w>
B ud
plan la</w>
over gi</w>
luk te</w>
ben sin
w ic
vok st</w>
sk allen</w>
lan ger</w>
journali st</w>
gan t</w>
fr anske</w>
del l</w>
bur s
ar mer</w>
-G år</w>
styr ker</w>
si a</w>
s sa
ma te</w>
gren ser</w>
I e
spri t</w>
re v</w>
finger avtrykk</w>
Osc ar</w>
La w
ver ly</w>
krimin elle</w>
el y
c ket</w>
Le w
K no
har d
fj ellene</w>
Ric ky</w>
J .</w>
ti mene</w>
dros je</w>
c ar
bar a</w>
Sc ot
u met</w>
su ppe</w>
loj alitet</w>
hol dning</w>
hin drer</w>
har dere</w>
fung erte</w>
eksa men</w>
bl a</w>
3 -
ski ft</w>
por t</w>
parker ing
p -
lær eren</w>
ar y</w>
ad mi
a ften</w>
H ot
Bo w
stjer ner</w>
sen gs</w>
på lit
kla tre</w>
a c</w>
Jo han
tv inger</w>
tal e
s min
reag erer</w>
n r</w>
e skor
amerikan er</w>
strø m
p ĺ</w>
ne l</w>
meld ingen</w>
gra ven</w>
fram tid</w>
for giftet</w>
bet rak
ann ing</w>
ut vei</w>
rig ht</w>
pak ker</w>
lo yd</w>
her ren</w>
fj e
blå s</w>
B ut
sver get</w>
sit tende</w>
or dren</w>
lov lig</w>
gr ø
dan sen</w>
P ap
Je sse</w>
2 7</w>
skjul te</w>
over ta</w>
midler tidig</w>
flå ten</w>
evi ghet</w>
el a</w>
bur sdag</w>
L un
G us</w>
z an</w>
ne kte</w>
inn sats</w>
fug len</w>
forber ede</w>
Gre en</w>
Ed ward</w>
Anth ony</w>
ur er</w>
ber eg
M et
I sland</w>
- C
sø ta</w>
sper ret</w>
l av</w>
kil de</w>
jom fru</w>
fyl l</w>
fr o
f et
en te</w>
bur g</w>
ad gang</w>
S yl
sp li
den t</w>
a ti
Flori da</w>
og an</w>
hi t
S lapp</w>
S E
Malcol m</w>
M ir
D ick</w>
skj ol
sam arbeider</w>
s alen</w>
fot ball
bort kastet</w>
al les</w>
F inn</w>
m ut
dy re</w>
du sin</w>
foran dring</w>
ett opp</w>
c elle</w>
Ron nie</w>
v ul
ste mp
ol o
nær me</w>
ny t</w>
ikke -
fort satte</w>
år saken</w>
smi ler</w>
represen terer</w>
opp leve</w>
mel dt</w>
advar te</w>
J ob
I nn
ver di</w>
oppfør sel</w>
is y</w>
for fat
f lei
tår net</w>
sann het</w>
p akk</w>
kval m</w>
k vit
forsin ket</w>
avis ene</w>
Pal mer</w>
I -
Franc isco</w>
pro du
fry ser</w>
bik kj
stan set</w>
r on
pluk ke</w>
datamask inen</w>
uly kken</w>
re por
pappa s</w>
ko sty
t tere</w>
sk et
ri l</w>
ot ter</w>
ma ge
for slaget</w>
M s.</w>
Bet h</w>
sl uk
hy tta</w>
fasc in
a sjonen</w>
S K
Que en</w>
Co un
19 6
pre sser</w>
i mellom</w>
hor er</w>
hemmelig heten</w>
g at
for lat</w>
ball et</w>
vur dert</w>
ve kket</w>
sp lan
skit ten</w>
re -
r å</w>
over levende</w>
el la</w>
-H allo</w>
va ske
har de</w>
fat tige</w>
br annen</w>
B etty</w>
reg ningen</w>
prop os</w>
overbe vist</w>
inn bil
direkt øren</w>
Jos h</w>
va ere</w>
ul t</w>
k I
fr ik
J unior</w>
kom bin
grøn t</w>
far gen</w>
N av
Ga bri
-F aen</w>
set tes</w>
pri se</w>
lø fter</w>
e mon
Bru ce</w>
spla ssen</w>
små l</w>
p yn
gin ia</w>
enk le</w>
menneske heten</w>
Margar et</w>
u bruk
sla ve</w>
sv inet</w>
stra te
mikro f
g isk</w>
f lek
Mar s</w>
G lem</w>
y l</w>
te ppet</w>
re publ
ok ie</w>
katastro fe</w>
in i</w>
hø v
bren te</w>
var te</w>
stran da</w>
seri e
kor re
kamera ten</w>
berø mte</w>
Mar ie</w>
K yle</w>
F is
viten skap
u for
s I
h vil</w>
d ver
beg ikk</w>
be gå</w>
D ur
st opp
skjel ov</w>
f etter</w>
der i</w>
c c
Te ddy</w>
S la
Rob er
C oll
stra ffet</w>
ingen i
an ony
ab elt</w>
R oss</w>
på står</w>
ori tet</w>
je ger</w>
fornu ft</w>
formu e</w>
- at</w>
trap pen</w>
stan d
ri ver</w>
pasi enter</w>
pak ken</w>
pa stor</w>
p ir
l s</w>
gj or</w>
gi s</w>
bur sdagen</w>
am bi
M I
sk ry
or er</w>
opp tak
is me</w>
fanta si</w>
bril lene</w>
L ut
t iker</w>
plan ene</w>
gi dder</w>
eli a</w>
- min</w>
rop te</w>
rettss aken</w>
kk ers</w>
du mpet</w>
alko hol
var men</w>
lå n</w>
li sta</w>
klo k</w>
k ret
ha stig
fri heten</w>
Der ek</w>
trå d</w>
su b
sam taler</w>
mag isk</w>
gru som</w>
gri pe</w>
el e</w>
S -
L I
venn inne</w>
spø ker</w>
spr er</w>
bom be
ar rang
- din</w>
skyl des</w>
sk året</w>
kni v
fir ma
an ta</w>
V is
An ton
vel de
ur o</w>
sø stre</w>
Ral ph</w>
teg ne
grei de</w>
drø mt</w>
- noe</w>
søl v
se kk</w>
mør k</w>
le de
kli n</w>
in tro
forsik ring</w>
for bli</w>
besø ker</w>
ar a</w>
ap e</w>
al deren</w>
o p</w>
nev ner</w>
mennesk elige</w>
ch e</w>
an be
ryg g</w>
jak ke</w>
feir er</w>
do se</w>
b ønner</w>
V o
språ ket</w>
skap ene</w>
reak sjon</w>
ja get</w>
hot ell
fil me</w>
ev ne</w>
en heter</w>
be finner</w>
S ki
2 8</w>
tilgjeng elig</w>
sikker heten</w>
idi oten</w>
forstyr r
f iske</w>
en ce</w>
ac e
vog nen</w>
on isk</w>
fan gene</w>
A v</w>
tr ærne</w>
sov net</w>
pil lene</w>
ing ens</w>
bro der</w>
u p</w>
sann elig</w>
bu r</w>
v ri
te sta
stir rer</w>
stat us</w>
mar ken</w>
lå se</w>
ha i</w>
di pl
alterna tiv</w>
A ver
tel en</w>
pu ppene</w>
lin t</w>
g ni
fe dre</w>
ber o
Vir ginia</w>
S j
Ja mie</w>
ry ktet</w>
ko s</w>
a i</w>
G en
tax i</w>
stjer nen</w>
sen ter</w>
overrask ende</w>
blan de</w>
Mit c
I t</w>
vesen et</w>
var ene</w>
uten om</w>
søpp el
smør brød</w>
m rende</w>
kon sul
bak siden</w>
vog n</w>
ut ført</w>
sc hool</w>
identifis ere</w>
fyr er</w>
byg ning</w>
av skje
ambul anse</w>
gla sset</w>
for svarer</w>
bi olog
T it
sul tne</w>
sl in
skil ler</w>
ser ien</w>
oppr inn
ny heten</w>
gu der</w>
gamm el
ti sp
mm else</w>
el and</w>
betal ing</w>
L ane</w>
Kap tein</w>
II er</w>
stø tt</w>
sta bil</w>
pasi enten</w>
liv ets</w>
f unn
c an</w>
b be</w>
U ni
rettig heter</w>
na m</w>
le -
for plik
fe ber</w>
begra ve</w>
bb ie</w>
Ty ler</w>
El lers</w>
ved de
tjene ster</w>
st ap
sn ur
krang ler</w>
forsk ning</w>
Mc C
H am
skri k</w>
sat ser</w>
re st</w>
l ed</w>
komman dør</w>
føl som</w>
assi sten
studen t</w>
spøk else</w>
sla ver</w>
kas sen</w>
jæv ler</w>
her s</w>
fyl te</w>
for lovet</w>
etterforsk ning</w>
bril ler</w>
To dd</w>
venn skap</w>
sym bol
su pert</w>
a bel</w>
P as
Car son</w>
2 6</w>
milit ære</w>
i ta</w>
hå pen
bru kket</w>
G reg
smar te</w>
ofr et</w>
mel der</w>
kir ke</w>
fe ite</w>
an da</w>
Da isy</w>
øn nen</w>
våk n</w>
va sk</w>
v ne</w>
himm el</w>
gi a</w>
el leve</w>
dø delige</w>
be vare</w>
Sher lock</w>
ko ble</w>
jul en
inne holder</w>
fi sken</w>
at her</w>
Ho use</w>
Ho u
2 .</w>
retts sak</w>
po kkers</w>
pla get</w>
is ert</w>
etter en</w>
del ingen</w>
br it
av slut
app y</w>
ap pla
virk ning</w>
ol a</w>
lø sningen</w>
V il
M or</w>
try kk
ra sjon
på virket</w>
knap pen</w>
gje stene</w>
an del</w>
te mmelig</w>
sal g</w>
prak tisk</w>
lei de</w>
gan gs</w>
an klager</w>
Matthe w</w>
Her r</w>
Bra d</w>
jæv lene</w>
e sten</w>
bla det</w>
DN A-
uni form</w>
ska de
nor male</w>
mi stan
fanta si
di si
bru ddet</w>
Sha w</w>
z z</w>
klo kke</w>
fje set</w>
bry t</w>
alterna ti
4 -
ut e
tot alt</w>
sep te
ir et</w>
innrø mmer</w>
dus j</w>
bok ser</w>
C æ
t ekt</w>
repar ere</w>
hun dene</w>
fran sk
dr ende</w>
R ag
Mar tha</w>
En ter
ten år
over tale</w>
mang el</w>
an ie</w>
ut trykket</w>
ut over</w>
ryg g
red us
re plik
mob il</w>
be or
-M r</w>
kun net</w>
id ge</w>
dr akt</w>
S ø
G j
1 50</w>
w e</w>
ut trykk</w>
re is
mål tid</w>
kli ppe</w>
diag no
ba by
Gr ant</w>
komm uni
etter ret
V ik
S par
Don ald</w>
un ne</w>
ter ri
sannsyn lig</w>
pros jekt</w>
o dy</w>
kjøle skapet</w>
jor de</w>
ge været</w>
drittse kker</w>
dr ingen</w>
til hørte</w>
spesi ali
rø mt</w>
en heten</w>
ek sjon</w>
amerikan erne</w>
Se c
ta sjonen</w>
legi ti
hev der</w>
fj ell</w>
et er
lan dets</w>
ka u
h æ
artikk elen</w>
ar k
Whi te</w>
Lew is</w>
sp ansk</w>
forbry telser</w>
da l</w>
an ke
tr oll</w>
tidspun ktet</w>
sl øst</w>
si l</w>
ser ing</w>
ly s
kr oner</w>
g le</w>
en d</w>
Sc o
ube hagelig</w>
til intet
sty rt</w>
skri ften</w>
sk and
ja ger</w>
Can ada</w>
var d</w>
terap i</w>
te stet</w>
materi ale</w>
etter later</w>
dr akten</w>
be svi
Holly wood</w>
Bra vo</w>
tør en</w>
g et
forsik tige</w>
e sa</w>
V I
S tar</w>
Ray mond</w>
E sc
pla sser</w>
man u
komman doen</w>
helsik e</w>
ff rey</w>
blå se</w>
beveg elsen</w>
T ow
A fghan
s vi</w>
p on
overfla ten</w>
mp e
fel tet</w>
fa tt</w>
ar ran
P ic
ut a</w>
rop e</w>
medisin er</w>
ma s</w>
lang somt</w>
gru pper</w>
fornøy else</w>
bar ber
v inger</w>
tol er
sl oss</w>
skul deren</w>
s æ
pa i</w>
om gås</w>
militær et</w>
mar ine
kor n</w>
kon gens</w>
jak ten</w>
artikk el</w>
ar k</w>
ammuni sjon</w>
satel li
s alt</w>
ra mmet</w>
kre ve</w>
fort apt</w>
dri te</w>
Wo od
tr ær</w>
temp erat
mer s</w>
for tid</w>
eien dommen</w>
b ønn</w>
S eth</w>
Har vey</w>
Bar bara</w>
ti sse</w>
lø ft</w>
li d</w>
la d</w>
kas se</w>
hel ten</w>
fjer ner</w>
du sjen</w>
R ing</w>
H il
4 2</w>
va ret
svin d
sc ene</w>
mm ing</w>
gr y</w>
gen tle
fram over</w>
Pa blo</w>
Hjel p</w>
H on
vit tig</w>
ste dene</w>
sj an
pa te
ok en</w>
f inger</w>
E x
u skadd</w>
su kker
sl ing</w>
septe mber</w>
jung elen</w>
jul i</w>
forstyr ret</w>
en -
an ledning</w>
Tur k</w>
Jos ep
G un
Be verly</w>
va sken</w>
stats ministeren</w>
spar er</w>
re sep
god kjent</w>
en k</w>
mor d
kry sset</w>
il d
S no
kat ol
gjen gjeld</w>
-S lutt</w>
vin teren</w>
sel l</w>
på virke</w>
pun ktet</w>
gjer det</w>
ekstre mt</w>
P ol
L am
B -
han delen</w>
fil met</w>
Ber n
-H ør</w>
teg ne</w>
stu derte</w>
spor ene</w>
on sdag</w>
lu r</w>
j an
for hindre</w>
er st</w>
c ra
Tar zan</w>
G rim
G ener
4 3</w>
2 3
ver ne</w>
søpp el</w>
oppr ør</w>
mask in
g av
dobbel t
helikop ter</w>
dok toren</w>
br akk</w>
S ally</w>
stø ttet</w>
stri d</w>
ser emon
s mann</w>
partn ere</w>
kre ves</w>
identifis ert</w>
di sku
Se at
Na te</w>
tø ffe</w>
te -
san s</w>
ond skap</w>
kontroll erer</w>
fry kten</w>
fr igj
for blir</w>
S han
Mars hall</w>
4 9
tjen t</w>
stra ffe</w>
sta di
skjer men</w>
h ob
eng elsk
Ab by</w>
tu ri
spar ker</w>
rør et</w>
dan set</w>
d ale</w>
al armen</w>
ver sjon</w>
rekr ut
opp ene</w>
nabo ene</w>
nabo en</w>
k ran
he ve</w>
No ah</w>
M ul
J orden</w>
Christ op
y og
tør st</w>
sy ne</w>
ren ce</w>
loj al</w>
i o</w>
fr ukt</w>
av henger</w>
a di
N ei
G ro
svik ter</w>
st ing</w>
leg ges</w>
i det</w>
de ba
ac h
R uth</w>
K lart</w>
syk dommen</w>
for ne
arbei dere</w>
Li z</w>
I s
vi sjon</w>
so ne</w>
sku ff
på virker</w>
l ønn
hal lo</w>
fla u</w>
Vi et
Sa mmy</w>
S nak
k eren</w>
h og
forbry ter</w>
en de
eld ste</w>
Afghan istan</w>
ur i</w>
tre kk
kjek s</w>
hu e</w>
drø mme</w>
a propos</w>
C her
veg gene</w>
ut nytte</w>
s w
o us</w>
feig ing</w>
Høy het</w>
D enn
t ret
ny ter</w>
mag iske</w>
S O
Jer sey</w>
I e</w>
ha ster</w>
bak over</w>
Presiden t</w>
P -
I tali
ær lige</w>
ste s</w>
sign ere</w>
ni vå
hom o</w>
hol ds
ut i</w>
tra u
sle kt</w>
ge vær</w>
bud sj
tr ing</w>
sti ger</w>
pan ne
narko tik
g lø
forster kninger</w>
O n
stil en</w>
sk an
se int</w>
regjer ing</w>
pe ker</w>
opp taket</w>
m unn
ing a</w>
hor n</w>
her tu
gr å</w>
fa tte</w>
el er</w>
bl un
vin du</w>
tel e
stra ffen</w>
resulta tet</w>
la ben</w>
am p</w>
A .</w>
inn på</w>
bo w
tjene sten</w>
tilgi velse</w>
søster a</w>
plass ert</w>
opp gaven</w>
mot by
la tter</w>
i m
ho p</w>
S M
Cla y</w>
tur er</w>
beor dret</w>
an str
Ly dia</w>
Cra w
ta us
t aller
min ut
a te</w>
Spen cer</w>
Angel a</w>
Alex ander</w>
A R</w>
æ v
vin d</w>
sky ting</w>
guvern ør</w>
flo kken</w>
fil en</w>
bety dning</w>
Sver ige</w>
P ac
syke plei
or ia</w>
mm ek
lan de</w>
k ø</w>
ær et</w>
sj erer</w>
na s</w>
hvi ler</w>
e f</w>
I l
år jeg</w>
vel sign
si tet</w>
mak er</w>
la p
kri se</w>
ko selig</w>
forsik ring
St år</w>
K n
var sel</w>
stol thet</w>
so ve
ori tt</w>
opp dager</w>
lik ner</w>
ko bl
kli enten</w>
av sla
an er
Star k</w>
smer ter</w>
sm ør</w>
sli t
skyg ge</w>
pos en</w>
mis forståelse</w>
ir o</w>
drø mmene</w>
Tra vis</w>
Pa ige</w>
P ho
K y
4 4</w>
3 4</w>
ve it</w>
k us</w>
forræ der</w>
e b</w>
av gjør</w>
Vel kommen</w>
La ke</w>
H at
E ver
A ven
vide reg
var i
stu en</w>
ski fter</w>
over stått</w>
famili ene</w>
f lø
d al
be skri
Gr eg</w>
vin en</w>
ve kker</w>
ut sette</w>
st is
ra se</w>
popul ær</w>
le ken</w>
k utter</w>
grun dig</w>
fly kter</w>
ba ck</w>
akti vitet</w>
Hy sj</w>
prin sen</w>
................ ................
tryg gere</w>
sym bo
ste mte</w>
sik tig</w>
sen sor
ok ei</w>
kn ærne</w>
k ver
an tall</w>
H appy</w>
Da vis</w>
sa us</w>
aggre ssi
sør over</w>
st ik
p enn</w>
måne dene</w>
ly d
bryllu p
u ventet</w>
sp rang</w>
infor mert</w>
der med</w>
K urt</w>
J ap
19 7
til stå</w>
syke pleier</w>
rik et</w>
overra ske</w>
ma tte</w>
ma ss
lo mma</w>
høy de</w>
he ste
drap ene</w>
c ke</w>
bland ing</w>
ak a
Tr enger</w>
Ro ck</w>
R ei
vir us</w>
rådgi ver</w>
rekk evi
ni f
kon to</w>
for håpen
Chri stian</w>
viten skap</w>
st all
sk øy
sj ener
pi ra
man s</w>
kun dene</w>
blom stene</w>
ar ti
R o</w>
M ick</w>
D am
- sett</w>
år hun
utro lige</w>
trø st</w>
skud det</w>
politi folk</w>
mo tiv</w>
kr ø
inve ster
etter late</w>
Vinc ent</w>
vil k
ter es</w>
søk na
sky tter</w>
si mp
p ud
mot satte</w>
mel dte</w>
kamera er</w>
gu st</w>
ds on</w>
d un
d ing
advok ater</w>
Willi ams</w>
mon sieur</w>
mo dige</w>
le dd</w>
edr u</w>
anta gelig</w>
Ma x
un ød
sam funn</w>
ra ske</w>
hin dret</w>
he vet</w>
bå ter</w>
bri tiske</w>
Ken ne
Al len</w>
ven dte</w>
sør get</w>
por no</w>
mi r</w>
konkurran sen</w>
gi n</w>
fø de
er sta
br o</w>
ak ken</w>
Ben ny</w>
terri tor
tal ene</w>
rot te</w>
pl ak
par ti</w>
gener alen</w>
fat tet</w>
dø mmer</w>
admi ral</w>
S ier</w>
P ra
A x
teor ien</w>
mann ens</w>
kam per</w>
ha u
forsvar s
ch o</w>
baga sjer
De xter</w>
- Ingenting</w>
å rets</w>
tilla te</w>
p ad
laste bilen</w>
kry sse</w>
N as
u sikker</w>
en ke</w>
c or
N ap
utny ttet</w>
ran sak
par et</w>
for be
di th</w>
agen ten</w>
S un
3 6</w>
ma tisk</w>
hu mor</w>
fa ens</w>
Re dd
2 ,
ut siden</w>
smar tere</w>
rør te</w>
ressur ser</w>
rappor tere</w>
oppda ge</w>
la m</w>
konsta bel</w>
kar t
ja min</w>
alli erte</w>
S yn
- kommer</w>
æ ven</w>
ti on
mø dre</w>
lå ser</w>
hero in</w>
Mitc hell</w>
Je ss</w>
Feli x</w>
styr te</w>
sp reik</w>
re l</w>
dop et</w>
tr os
ti c
tak t</w>
sv akt</w>
sta ti
p ga</w>
ar r</w>
sn ø</w>
ser ie</w>
sam lingen</w>
m -
l ere</w>
in stru
foren ingen</w>
event yr
ego istisk</w>
co ck
br ant</w>
bor ger</w>
av fy
å sen</w>
videreg ående</w>
tunn elen</w>
t ikken</w>
rek tor</w>
in d</w>
fi ske
bokstav elig</w>
ba gen</w>
a ge</w>
P in
l ære
kvin ne
ev nen</w>
eta bl
ad mini
K er
tju e</w>
te sten</w>
n eren</w>
mi sk</w>
la st</w>
helikop teret</w>
fø res</w>
fre d
forsø kt</w>
forb un
for ba
e sken</w>
ar tig</w>
ten es</w>
o kol
lån te</w>
korre kt</w>
kon fron
an legget</w>
Krist us</w>
ut vek
spil ler
da ten</w>
c amp
byrå et</w>
W alt</w>
Ja ha</w>
Ca sey</w>
Bur t</w>
4 7</w>
tryl le
still het</w>
st i</w>
politi ske</w>
overvå kn
Span ia</w>
Lou ise</w>
E in
Denn is</w>
va l</w>
sekret ær</w>
luk ker</w>
l l</w>
i ster</w>
hal s
gle den</w>
a de</w>
K it
G jorde</w>
D ale</w>
B eg
ynd lings
tv -
av bryte</w>
ak tiv</w>
Kir k</w>
Brook lyn</w>
ten k
syn lig</w>
ski pene</w>
kunn skap</w>
k av
intro dus
e ske</w>
ap ril</w>
San ta</w>
E le
vi ses</w>
stil linger</w>
sta d</w>
st ne</w>
no ens</w>
kropp s
ir ka</w>
in dustri
hil sen</w>
f etteren</w>
druk net</w>
b isk</w>
Mar t
Ben jamin</w>
st ro
profesjon ell</w>
appla us</w>
R og
3 3</w>
skre m</w>
rei se
registr ert</w>
flo kk</w>
dyp ere</w>
distr ik
di son</w>
Nor ge</w>
Nic hol
ic ks</w>
h opp
for kjø
enor mt</w>
an ere</w>
Gl oria</w>
tau et</w>
u høflig</w>
pun k
enor me</w>
c m</w>
Hol mes</w>
s an</w>
nak ne</w>
ek sk
bi ff</w>
Di ane</w>
usyn lig</w>
ter ingen</w>
stan ser</w>
ek kel</w>
avsl utter</w>
an fall</w>
Al bert</w>
wa i
mor somme</w>
lø s
kj ønn
be skrive</w>
Har ris</w>
E tter</w>
øy ene</w>
te ppe</w>
ek le</w>
dy p</w>
c en
K ø
ta ter</w>
sa sjon</w>
por no
kvi tte</w>
ho dene</w>
hjer ter</w>
fron ten</w>
f tige</w>
begra vd</w>
U t</w>
symp tom
ho ve
guvern øren</w>
fr iske</w>
e p</w>
d ney</w>
be in
Jon as</w>
Gran d</w>
6 00</w>
vindu ene</w>
tyn n</w>
tel eg
se inere</w>
misl iker</w>
løsla tt</w>
ek or
ak t
S po
E u
A h
ĺ r</w>
tul ling</w>
si v</w>
fav oritt</w>
evi g
ek k</w>
blin de</w>
ar ro
T om
O N
K utt</w>
u passende</w>
stre ss</w>
ste iner</w>
sku m
prø vene</w>
led ningen</w>
fug lene</w>
fort ell
forræ deri</w>
br ing</w>
beste faren</w>
bekre fter</w>
al dt</w>
a ene</w>
Coll ins</w>
sp y</w>
rå tne</w>
mm elt</w>
kunst ner</w>
kj el
e- post</w>
ankla get</w>
Ne il</w>
Hou ston</w>
vamp yr</w>
sty re
sto ff
sp o
sm ak
sa ke</w>
ra d
lig ende</w>
kne kke</w>
ja ge</w>
señ or</w>
re fer
mør k
hv el
c t</w>
b ob
Se ba
F ly
ø ke</w>
smi le</w>
fat tig</w>
Inter nett</w>
H ig
A p
å t
varet ekt</w>
kjø ttet</w>
inn gangen</w>
fruk t
Qu inn</w>
L ei
Cat herine</w>
C ho
sp art</w>
skil les</w>
fil os
arre st</w>
anbefal er</w>
an tok</w>
H al</w>
uly kkelig</w>
pis se</w>
ny delige</w>
n -
al o
ten ne</w>
innfly telse</w>
for mål</w>
bor gere</w>
R ot
Fred dy</w>
- sa</w>
é r</w>
w a</w>
ss er
red nings
re kor
prak t
kamera ter</w>
intellig ent</w>
gli mrende</w>
dem on</w>
S ig
Redd ington</w>
R ol
M ig
tid s</w>
reg is
mal eriet</w>
insi sterer</w>
g y</w>
fr os
blan der</w>
Sto ck
sto ffer</w>
sl ur
sk og
rot ter</w>
pot et
over falt</w>
lun sjen</w>
he te</w>
fornær met</w>
fi sker</w>
en det</w>
dr oppe</w>
a o</w>
Wat son</w>
Al p
A g
ær ing</w>
vet er
u le
stø t</w>
opp rett
hil ser</w>
gan gene</w>
d or
bor d
Bri d
5 0
vesen er</w>
v on</w>
ton s</w>
P okker</w>
N ar
Cha p
Bro dy</w>
2 9</w>
-G o
ste inene</w>
p ing
fe en</w>
d inger</w>
Fol k</w>
8 00</w>
vampyr er</w>
snit tet</w>
l us
kje der</w>
bekre f
svik te</w>
leng st</w>
kor te</w>
es sa</w>
dre ssen</w>
Prø v</w>
H as
G P
sam funn
pp i</w>
pa ter</w>
jour n
inspek tør</w>
identi tet</w>
gut tungen</w>
Cæ sar</w>
Ba y</w>
t av
sen des</w>
meld inger</w>
lø ste</w>
k all
jer ne
hy re</w>
gar der
Dom ini
A man
u h</w>
tør ke</w>
sv ul
sp enn</w>
mm el
le kte</w>
all s</w>
Ke ith</w>
C assi
Bla ck
- Jaså</w>
stø v</w>
smi ttet</w>
ry s</w>
ori en
leg gende</w>
kandi dat</w>
hode pine</w>
base ball</w>
b ell</w>
at han</w>
M anny</w>
Lo u</w>
K enny</w>
ò g</w>
w al
til syn
te ite</w>
p es</w>
kl andre</w>
inn ene</w>
for klar</w>
ben a</w>
Thom p
Jer e
utd annelse</w>
uk ene</w>
nig ger</w>
inn byg
god teri</w>
føl elses
fengsel s
R A
Por t
O ne</w>
vak reste</w>
pl yn
kon tin
han del
dø v</w>
del sene</w>
bl y
bagasjer ommet</w>
M eg</w>
Hun ter</w>
C in
C entr
B run
ver er</w>
v od
svak het</w>
os a
gra m</w>
dan se
Or le
Jen ni
B lan
yr en</w>
tål modig</w>
li ter</w>
fore stillingen</w>
d å
d ikt</w>
b in</w>
anbe f
T ar</w>
San dy</w>
Mo sk
Mar co</w>
3 0
vur der
r ela
r ar
pre mi
ob jek
nøkk el
gud skjelov</w>
Lin d
A pp
sl a</w>
opp over</w>
min us</w>
ju ice</w>
dre y</w>
Vic tor
L en
B us
still ende</w>
red ak
mid t
enga sj
Su z
-S lipp</w>
æ rede</w>
ut t
ty veri</w>
t an</w>
st ant</w>
rekkevi dde</w>
imp ul
hol m</w>
vi k</w>
statsadvok aten</w>
s ĺ</w>
omsten digheter</w>
mann skap</w>
krimin ell</w>
kommun ika
g n</w>
f é</w>
do mm
dag lig</w>
K il
vok ter</w>
stre ken</w>
ring et</w>
pappa en</w>
kol on
himm el
halv veis</w>
dje vel
b an</w>
Ro cky</w>
Ne al</w>
M ia</w>
F ir
C han
til stå
kommun ik
klan drer</w>
hen ret
for dømt</w>
dri ft</w>
bon de
av gårde</w>
L ogan</w>
Juli an</w>
Hvil ket</w>
Bri g
-H u
svar ene</w>
slan gen</w>
posi sjonen</w>
mari hu
mamm as</w>
kul en</w>
kongre ss
d os
bar m
War ren</w>
Ro ad</w>
H ørte</w>
Bar ney</w>
ve mber</w>
terrori ster</w>
skin net</w>
sat sen</w>
konsentr ere</w>
ek stra
demon er</w>
S I
E mili
å ssen</w>
ru mpe</w>
prose ssen</w>
por t
ly se</w>
l ot
ky sser</w>
infor man
for fal
Ri ta</w>
Lit tle</w>
Ar no
pa tri
nøy tr
l ob
kamera ene</w>
hu sene</w>
de ton
be står</w>
G ina</w>
ø re
É n</w>
sp oli
sk ikk
merk elige</w>
liv redd</w>
histor iene</w>
hen syn</w>
fla sken</w>
elig ere</w>
Per ry</w>
Nor man</w>
sku mmelt</w>
s us
over vel
og et</w>
men t
kvar teret</w>
kine sisk</w>
in far
Ro y
K je
Jenni fer</w>
Br on
øde legg</w>
ø pi
unn tak</w>
stu derer</w>
str eng</w>
stats minister</w>
sol ned
sjokola de
pre sis</w>
il la</w>
grus omme</w>
tusen er</w>
trag isk</w>
stor e
sta bili
sn ike</w>
indian erne</w>
il lu
bru s</w>
ben y
Seat tle</w>
P R
B le</w>
ut kikk</w>
sk ing</w>
ræ v
re te</w>
mor o
gr y
ersta tte</w>
e ss
M E
Lan ce</w>
vi tende</w>
try kkene</w>
til tre
su per</w>
over tar</w>
over levd</w>
mm i</w>
italien sk</w>
ik ere</w>
hol d
bin d</w>
T al
S ikkert</w>
ve dde</w>
pasi entene</w>
ol je
o se</w>
m ber
ku pp
inter es
be kjempe</w>
Z a
Pi per</w>
O pp</w>
Isa ac</w>
Dan mark</w>
Dal las</w>
sv ette</w>
s ord</w>
ot a</w>
nær mest</w>
gje st
for sker</w>
avgjør ende</w>
S tig</w>
S ka
Nå de</w>
Mit ch</w>
J udy</w>
E ar
z o
vol ds
vit sen</w>
ul ver</w>
sor t</w>
so l</w>
na bo</w>
gi r
garan tert</w>
barm hjer
Ti mes</w>
L E
J on</w>
In dia</w>
C hester</w>
B ond</w>
skyl de</w>
om bie</w>
ner ve
ma ge</w>
konfer anse</w>
gj aldt</w>
d alen</w>
Christop her</w>
stan der</w>
siga retter</w>
mot tak
lo we
k ens</w>
ir er</w>
ell o</w>
eli min
dag gry</w>
be holdt</w>
Mic key</w>
Gre en
-K jenner</w>
viten skaps
unn går</w>
tor pe
t ligvis</w>
skrive bordet</w>
ol er</w>
lever te</w>
le v
bru a</w>
br un
an ger</w>
ad o</w>
M er</w>
Conn or</w>
tob er</w>
rele vant</w>
mi st</w>
map pen</w>
kjenn else</w>
ig het</w>
hyr et</w>
t ney</w>
sten g</w>
pil ot</w>
mu sikk
kø dde</w>
dob bel</w>
ann elsen</w>
S ho
K al
Itali a</w>
F it
B un
v ri</w>
til talte</w>
met a
ma dam</w>
le ve
gjor e</w>
far ger</w>
bla ffen</w>
au di
an t
Tro y</w>
Orle ans</w>
Ju stin</w>
3 000</w>
å st</w>
ti pper</w>
t vers</w>
sen k</w>
reg el
men tene</w>
e I
dø dt</w>
blin d
- vel</w>
stre sset</w>
son en</w>
mu sli
interess ante</w>
hu mør
hi s</w>
druk ne</w>
bo ok
bevis et</w>
Rand all</w>
I d</w>
El len</w>
Cal eb</w>
virk somhet</w>
ut sikt</w>
sj ene</w>
sat se</w>
l yn
jek k</w>
Josep h</w>
E gy
Centr al</w>
st av</w>
ra y</w>
milit ær</w>
kon toen</w>
idio tisk</w>
fa ste</w>
fa se</w>
Cur tis</w>
C lu
3 1</w>
vel ses
ri dder</w>
opp fin
mon t</w>
la v
kol og</w>
kjen nes</w>
Law rence</w>
L ang
Enter prise</w>
D ow
-S p
- to</w>
tap et</w>
lå ste</w>
kre m</w>
kre a
k ant</w>
brø det</w>
borger mesteren</w>
F le
E die</w>
B is
- saken</w>
unød vendig</w>
st ien</w>
skj old</w>
sal at</w>
iv rig</w>
fø de</w>
ei de</w>
der ende</w>
begren set</w>
ar gu
a str
K le
Coun ty</w>
- An
velsign else</w>
tår er</w>
tr over
resulta ter</w>
par fy
fj ell
S .
6 5</w>
-Go dt</w>
undersø kt</w>
sn ingene</w>
se -
le dere</w>
kor rid
kon ger
br ors</w>
Stu art</w>
ski tt</w>
sam arbeid</w>
s lig</w>
ra si
ok tober</w>
jø ss</w>
jak tet</w>
fre delig</w>
for seg
app el
ad varer</w>
N el
Kenne dy</w>
D .
A bra
v os
j akka</w>
gis sel</w>
er y</w>
E arl</w>
- denne</w>
spor er</w>
i skal
fla gget</w>
del p
de pre
c irka</w>
behand lingen</w>
Ali son</w>
v eg</w>
sv ing
skje gg</w>
mil de</w>
g else</w>
elsk er
ek sen</w>
baga sjen</w>
aksep terer</w>
Wen dy</w>
S qu
N il
Mic helle</w>
Car ol</w>
u kjente</w>
søn ns</w>
spøk elser</w>
skre kk
ska mmer</w>
la gte</w>
kar et</w>
jø de</w>
ik en</w>
forsyn inger</w>
dy ttet</w>
bur ger</w>
Mosk va</w>
K ent</w>
I rak</w>
- mamma</w>
sto ne</w>
r ute</w>
mask iner</w>
m aler</w>
fel t
Jo an</w>
D ol
ro ter</w>
psyko lo
kapit tel</w>
j i</w>
gr ill
fyl le
forb annelse</w>
barne vakt</w>
barne barn</w>
a fr
Fred die</w>
C om
Bi belen</w>
B aker</w>
le ppene</w>
kj i
Meg an</w>
K re
Al li
tri ste</w>
ski p
re flek
jul en</w>
hev ne</w>
eng ler</w>
Seba stian</w>
Hot el</w>
3 7</w>
-B li</w>
tålmo dighet</w>
st else</w>
op ti
kom pro
kan al</w>
har jeg</w>
fø der
K lo
I an</w>
He ctor</w>
u en</w>
spill eren</w>
sn itt</w>
sa l</w>
om ringet</w>
no l
Viet nam</w>
Sto ne</w>
S we
S lo
Mor n</w>
ø velse</w>
vest over</w>
svø mmer</w>
ska mer
natur lige</w>
ke iseren</w>
forlove de</w>
for handler</w>
fil mene</w>
blå ste</w>
O P
sei le</w>
pe il
parano id</w>
ly ttet</w>
la delp
kommunik asjon</w>
kjærlig hets
jun i</w>
julen issen</w>
hy tte</w>
as set</w>
Rus sell</w>
Mon ica</w>
K am
Aman da</w>
vel ly
veg g</w>
s us</w>
run d
opple velse</w>
lun gene</w>
driv stoff</w>
alvor lige</w>
Gri ff
1 0-
van vittig</w>
st al
sjel er</w>
kl ør</w>
hyg gelige</w>
hu le</w>
hal en</w>
forfer delige</w>
dy s</w>
du ger</w>
br enn
be s</w>
Kon gre
sta sjoner</w>
st ert</w>
ko kk</w>
hu g
gj em</w>
fu gle
er ens</w>
ell i</w>
bre vene</w>
Thomp son</w>
ver te</w>
utny tter</w>
sp is
pu bli
og sa</w>
n etter</w>
lå t</w>
l ingene</w>
kur sen</w>
in sek
fore stilling</w>
fil ler</w>
an sett</w>
FB I-
9 9</w>
y ton</w>
u la
ti I
støv lene</w>
ry ktene</w>
pro vos
plan tet</w>
misten k
le der
kra sjet</w>
i dre
er nes</w>
enn else</w>
ener gi
en i
el set</w>
ek spe
bor ti</w>
at mos
Te mp
L as</w>
J ar
tru e</w>
tr opper</w>
sti pen
sa bot
inne bærer</w>
Ric hie</w>
K in
Aven ue</w>
v or</w>
ut slitt</w>
ut pre
spil le
p lu
le ke
k u</w>
ik s</w>
hur pe</w>
gal ak
flin ke</w>
fin este</w>
du m
di sken</w>
datamask in</w>
bar b
b rettet</w>
avsl ører</w>
as ha</w>
Arno ld</w>
øy en
ten n
skjøn n</w>
sinns syk</w>
overvå ker</w>
no vember</w>
n ens</w>
krang el</w>
kor por
hal s</w>
fe ig</w>
dy tt</w>
c y
be visst</w>
Wy att</w>
6 -
transpor t</w>
sentr alen</w>
organisa sjon</w>
ma dame</w>
kon vol
forret ning</w>
eg gene</w>
ap er</w>
an ø
an sette</w>
Ke en</w>
C amer
A da
4 1</w>
tit telen</w>
sj ette</w>
ser i</w>
pålit elig</w>
ov nen</w>
ma ske</w>
eksplosj onen</w>
be hagelig</w>
b os
Phi lip</w>
K r
K jør</w>
Au drey</w>
vis st
til standen</w>
ma sken</w>
ma i</w>
handl ingene</w>
dik tet</w>
datter a</w>
blo ds
av taler</w>
a vis</w>
Phi ladelp
Jon athan</w>
C as
ubruk elig</w>
tig ere</w>
sm akt</w>
s mil
pøl se</w>
p ne</w>
opp dag
kj apt</w>
jobb a</w>
ikk er
gu r</w>
for mann</w>
ar tet</w>
Nor th</w>
C amp
A ma
v ing
trå den</w>
sø p
spr enger</w>
liv stid</w>
fascin erende</w>
dom in
bety delig</w>
avgjør elsen</w>
an -
T T
Re y
Fran klin</w>
5 5</w>
utfor dring</w>
tr onen</w>
ta u</w>
sen ding</w>
p us</w>
nær vær</w>
it ter</w>
forel øpi
forbun det</w>
famili ens</w>
beløn ning</w>
L ars</w>
Col um
Blu e</w>
B ol
vol delig</w>
snu dde</w>
on e
le en</w>
kommand o</w>
kne p</w>
kar akter</w>
h ν
gjen står</w>
gal ning</w>
føl gende</w>
fok us</w>
fj ol
Is ra
Gu y</w>
ve sten</w>
san d</w>
mo s</w>
infar kt</w>
hjør ne</w>
hj ul</w>
fan gen</w>
borger mester</w>
ali bi</w>
Sn akk</w>
L as
L A
F ord</w>
-F int</w>
undersø ker</w>
ser vere</w>
ry ddet</w>
opp før</w>
l ettet</w>
ko ma</w>
klassi sk</w>
kin es
gu le</w>
ambassa den</w>
Sa mme</w>
D y
til talt</w>
t onen</w>
st ikken</w>
off iserer</w>
myn t</w>
misly ktes</w>
l -
krimin alitet</w>
indian ere</w>
hav nen</w>
gre sset</w>
forbere der</w>
fo ster
c ellene</w>
bevisst løs</w>
an kommer</w>
Re d
Jap an</w>
Ja da</w>
Ha wai
H ills</w>
øde legg
velsig net</w>
syn ker</w>
stem ningen</w>
posi tivt</w>
offent lige</w>
n t</w>
møn ster</w>
medi a</w>
laste bil</w>
av døde</w>
sl ettet</w>
ro te</w>
ren se</w>
gru ppa</w>
for blø
fl ør
fem ti</w>
døg n</w>
br yg
bb et</w>
H ob
van e</w>
stu dert</w>
hånd jern</w>
by s</w>
an tyder</w>
Li am</w>
1 .
ve ske</w>
under lige</w>
studi o</w>
strå le</w>
st el
sosi ale</w>
kon sert</w>
fry kte</w>
draps mann</w>
be fol
Ar i</w>
-S ånn</w>
å rig</w>
x on</w>
v rak
skur k</w>
sku ffe</w>
s vær</w>
resul tatene</w>
na i
la vere</w>
fil tr
du s</w>
blo dig</w>
bl ene</w>
H ører</w>
E i
-P rø
ån de
tør r</w>
st -
skilsmi sse</w>
mamm aen</w>
li delse</w>
kry sser</w>
kri gere</w>
be sluttet</w>
W ells</w>
- må</w>
om vendt</w>
kon gelige</w>
knap p</w>
fun ket</w>
bi te</w>
b rett</w>
Cha se</w>
virkelig het</w>
ska den</w>
risik oen</w>
oma tisk</w>
f I
akti vert</w>
Le ster</w>
G -
3 9</w>
uni formen</w>
terap e
le kka
forhåpen tligvis</w>
H olly</w>
D r
Aver y</w>
verk tøy</w>
vel d</w>
trus ler</w>
sn y
sm ul
ke iser
fer ien</w>
bl ått</w>
Wal la
Man ge</w>
For tsett</w>
uten land
under veis</w>
terrori st</w>
sjek ken</w>
par ti
o u
motby delig</w>
komi teen</w>
garder ob
for vente</w>
Ver on
D r</w>
-Selv sagt</w>
-For tell</w>
velly kket</w>
pe st</w>
mor alsk</w>
mm i
jen te
forvand let</w>
er ing
K lar</w>
vi sningen</w>
minn ene</w>
kat ter</w>
hu et</w>
fing re</w>
feil en</w>
etter som</w>
ele v</w>
bri tisk</w>
beg ei
ver ds
presiden tens</w>
overra sker</w>
kj enn</w>
kas sa</w>
gær ning</w>
frek ven
ed der
dr ikk
bl akk</w>
N S
F ro
Be ach</w>
utvik le</w>
ung dom</w>
skri g</w>
inn gå</w>
ini ti
fi gur</w>
dra ger</w>
distra h
blom st</w>
an tene</w>
Harri son</w>
Andre a</w>
4 .</w>
-H yggelig</w>
va sjon</w>
ret ningen</w>
pri vi
mø te
mot setning</w>
k yn
bero ligende</w>
ø en</w>
z er</w>
overvå ket</w>
o w</w>
luk tet</w>
lei d</w>
fun ke</w>
fore slå</w>
fan den</w>
et re
de kk
ak sjon</w>
Mig uel</w>
Di ego</w>
ö r
sei eren</w>
ru st
r øn
pluk ker</w>
olog i</w>
men ig</w>
li ta</w>
kro ne</w>
f ekt</w>
elen dige</w>
bekym ring</w>
W ard</w>
H ent</w>
Gener al</w>
D æven</w>
va li
syn g</w>
sta ver</w>
respek tere</w>
mistan ke</w>
lik eg
kav al
fe sti
Sc ar
trafik ken</w>
skj ul</w>
per man
oppr iktig</w>
nå dde</w>
messi ge</w>
gu l</w>
gammel dags</w>
ba sket
avsky r</w>
L loyd</w>
3 8</w>
økonomi sk</w>
wor th</w>
ver dighet</w>
u heldig</w>
tilf ellet</w>
skar p</w>
sam arbeidet</w>
områ der</w>
medisin ske</w>
kon klu
kon ge
in -
gjernings mannen</w>
forret ning
fly kt
epis ode</w>
cow boy</w>
Son ny</w>
D ø
An derson</w>
su m</w>
studen ter</w>
inn satsen</w>
dess ert</w>
K id</w>
Je an</w>
F ace
ster keste</w>
prot okol
ko de
in ens</w>
i ley</w>
fy siske</w>
drama tisk</w>
di men
bi drag</w>
be vist</w>
av trykkene</w>
F O
Al l
z ombie</w>
ul a</w>
stru pen</w>
str er</w>
slå s
si dene</w>
sen ke</w>
rekla me</w>
over le
hy dr
fi a
ekte mannen</w>
In di
F al
An gel</w>
ti dige</w>
retur n
lo mmen</w>
lo kali
gj etter</w>
full ført</w>
for ma
fla gg</w>
Ab solutt</w>
A K
y tre</w>
spor ts
servi ce</w>
o ff</w>
li an</w>
laboratori et</w>
fore slo</w>
fly tende</w>
ene stående</w>
akk ene</w>
Man ha
B ag
7 -
æv la</w>
v ingen</w>
tur ner
teknolo gien</w>
ste mann</w>
pis spreik</w>
papir et</w>
nu m
my k</w>
kon dol
kommen tar</w>
gy m
f uk
da en</w>
Kon g</w>
K jø
tr or
søl v</w>
sk inner</w>
d der
K ry
Ca st
B ell</w>
øy er</w>
ær lighet</w>
tren eren</w>
ster oi
st ekt</w>
skre kk</w>
selv mor
ro er</w>
la h</w>
hukomm elsen</w>
ett i</w>
ek s-
de g
T i</w>
R I
vinn eren</w>
lar er</w>
kva dr
kjem p</w>
de sp
c eller</w>
beste moren</w>
bak grunn</w>
T on
ty kke</w>
tr op
pus sig</w>
no s</w>
mis unn
kol leger</w>
høy t
hel se</w>
forel drel
fly ene</w>
f eller</w>
etter latt</w>
be ha
Philadelp hia</w>
spira sjon</w>
psyko p
o ke</w>
lykk e
hy ster
depri mert</w>
bo ur
billet ten</w>
N E
G y
F em</w>
Cra ig</w>
vod ka</w>
utvik ling</w>
tilfel dighet</w>
syste mer</w>
steng te</w>
sk er
om i</w>
kvar taler</w>
j on
et ta</w>
ei lig</w>
burs dags
S tel
S m
Ro sie</w>
De bbie</w>
vur derte</w>
vi sende</w>
u unn
skri f
sko en</w>
på grepet</w>
mak en</w>
konfer ansen</w>
c an
bal anse</w>
aI t</w>
Wil lie</w>
Tu sen</w>
Stan ley</w>
Re ed</w>
E ag
A .
spreng te</w>
sk en
mini ster
ho der</w>
gol f
g na
bi a</w>
an mo
Rog ers</w>
Mos es</w>
G od
F lint</w>
Do yle</w>
å s</w>
visst nok</w>
sol opp
sjen ert</w>
my stiske</w>
ma ssa
kon stant</w>
k aken</w>
jen t</w>
j og
f ær
betjen ten</w>
Co x</w>
z ia</w>
tr on
tel t</w>
ska mme</w>
ro mmene</w>
plan te</w>
omsten dighetene</w>
ne st</w>
nabo er</w>
må ne</w>
kjærlig het
k i</w>
for stod</w>
er ter</w>
d de
an i
Sat an</w>
spr engt</w>
pate tisk</w>
mer kene</w>
j ar
hu d
e ie</w>
døds fall</w>
ba de</w>
St jerne
Jo han</w>
F øl
C ru
y o</w>
u flaks</w>
tor er</w>
ny s</w>
nega tiv</w>
ly ser</w>
lille bror</w>
is ene</w>
fot s</w>
forret ningene</w>
dr opper</w>
cel le
bi dra</w>
be kla
Mic hi
H ugh
Camer on</w>
undersøk else</w>
ste parten</w>
sor gen</w>
ri f
oppfin n
kar din
k g</w>
R un
Lau rel</w>
Ke at
Juli ette</w>
wic h</w>
to s</w>
si da</w>
ro se</w>
misten ker</w>
ga .</w>
e c
br ing
ak e
Valent ine</w>
M un
strø k</w>
sj akk</w>
sam les</w>
republ ikan
k vik
gri per</w>
flei per</w>
de ste</w>
P am</w>
G jen
Cin dy</w>
-P appa</w>
-D ra</w>
tren ingen</w>
tisp e</w>
stem ning</w>
st rei
par at</w>
kvinn elige</w>
kjø pe
ga te
c ellen</w>
So fi
Bud dy</w>
Al fred</w>
ver t
søp la</w>
spun ktet</w>
reis ende</w>
pro fil</w>
pe anø
kjer ne
impon ere</w>
fru en</w>
bur n</w>
atmos f
ansvar lige</w>
Ly kke</w>
An dre</w>
verdi full</w>
ver dige</w>
tr appa</w>
slak tet</w>
ry dder</w>
g lan
elig ste</w>
bla der</w>
ar ab
P it
P at</w>
N ettopp</w>
F ire</w>
Bra d
sti den</w>
plan legge</w>
my stisk</w>
meng den</w>
h øn
Ser vi
skar p
progra mm
forklar ingen</w>
forber ed</w>
for fre
ek ter</w>
dy pe</w>
blå st</w>
Fre e
F ør</w>
Dan a</w>
- litt</w>
ø verst</w>
vold tek
tradi sjon</w>
sti f
sta mmen</w>
sp å
mar inen</w>
komfort abel</w>
et e
drin ken</w>
ber ed
ben ken</w>
bar ten
bade karet</w>
an legg</w>
Tra cy</w>
Pier ce</w>
I en</w>
-B ar
skri fter</w>
reser ve
kli ppet</w>
jø der</w>
hen delsen</w>
fry ktet</w>
be går</w>
ban e
Sop hie</w>
Oli via</w>
H r.</w>
-T enk</w>
to -
telefon ene</w>
sø strene</w>
sta sjon
ru e</w>
re stene</w>
peri ode</w>
passa sjer
opp be
n an
mot satt</w>
m aks</w>
kjer ring
fly ter</w>
eg get</w>
datter s</w>
bel ø
aff ære</w>
Sp ør</w>
So uth</w>
Sel v</w>
S .</w>
D ob
9 5</w>
tred je
tr oppene</w>
sli ge</w>
rettfer dig
ren ner</w>
ol og</w>
nø kler</w>
marihu ana</w>
mar s</w>
lomme boka</w>
lo vende</w>
lo kal</w>
kn ull</w>
fik s</w>
fat tig
draps mannen</w>
Re x</w>
Fo x</w>
E z
2 50</w>
tr on</w>
til brakte</w>
tig heten</w>
symbo l</w>
ry t
ny tt
met all
luk t</w>
la stet</w>
konser ten</w>
k ikket</w>
før ingen</w>
bru d
ba ma</w>
au gust</w>
Nic ole</w>
Far en</w>
å pe</w>
van dr
u ar</w>
posi tiv</w>
overrask elser</w>
oll ene</w>
mann s
liv an</w>
klo kt</w>
hol dningen</w>
forbry tere</w>
bud skap</w>
bl ø</w>
aut om
ali e</w>
O t
Mis si
Do no
Co dy</w>
mon steret</w>
kun sten</w>
kri stne</w>
gje ves</w>
bru d</w>
br idge</w>
avly se</w>
Walla ce</w>
V is</w>
Ma ya</w>
Lo is</w>
Kat herine</w>
Hvil ke</w>
F an
ø h</w>
vå ren</w>
vold tatt</w>
spe il</w>
sli ps</w>
oksy gen</w>
lek et
le v</w>
kvel dens</w>
gener al
foren ing</w>
eksplo derte</w>
tren ings
styr kene</w>
so lid</w>
ska dene</w>
psykop at</w>
mø l
må ttet</w>
kas in
gentle man</w>
dr y
do mmene</w>
c ro
ar ene</w>
S lå</w>
Kan sas</w>
D ok
- Al
t yng
svin del</w>
stri d
skj ær</w>
over gir</w>
mang let</w>
kri ti
ko pper</w>
hoved kvarteret</w>
foreløpi g</w>
diskut erer</w>
dire k
Z ach</w>
Wa de</w>
Sul livan</w>
Mon a</w>
K ha
C i
vi IIe</w>
ru kket</w>
plan ter</w>
op s</w>
ob b</w>
min dre
for gjeves</w>
fal skt</w>
di ger</w>
del vis</w>
ak et</w>
J an</w>
Bre e</w>
skyl dte</w>
sign aler</w>
mafi aen</w>
klin ikken</w>
gre s
forbin delsen</w>
dag sl
avi sa</w>
P ur
K en</w>
F ø
F anta
C al</w>
Au stra
uten riks
st un
ska m
rø mmer</w>
ot y
kv alt</w>
ko nes</w>
kle mme</w>
froko sten</w>
begra vet</w>
D uke</w>
- akkurat</w>
tak let</w>
stan dig</w>
sm ur
p ga.</w>
opp førte</w>
ogra m</w>
mp ene</w>
hen rettet</w>
hastig het</w>
g on
ap pe</w>
Ru by</w>
Go od
vi si
u til
pas sere</w>
kyl ling
kla pp</w>
for siden</w>
b by</w>
admini stra
S ue</w>
Hugh es</w>
Hawai i</w>
- Ne
ste mmene</w>
seksu elt</w>
pu ter</w>
psy kolog</w>
mon stre</w>
misten kelig</w>
lig ht</w>
kø d
kupp elen</w>
kul ene</w>
garan terer</w>
fla sker</w>
bo mmet</w>
bin de</w>
beskje der</w>
arbei derne</w>
Vir kelig</w>
G ud
8 -
3 .</w>
vi dd</w>
sikkerhet s</w>
sc en
risik abelt</w>
ober sten</w>
ob duk
korpor al</w>
in vest
ho use</w>
fan s</w>
and o</w>
an dre
R as
Ma jor</w>
Don nie</w>
under tøy</w>
stev ne
sla ve
sky tingen</w>
skj ær
resul tat</w>
opp his
of tere</w>
ne den
na vi
mot stå</w>
kur en</w>
ing ham</w>
hjerte infarkt</w>
fabr ikk</w>
eksplo derer</w>
dokumen ter</w>
cow bo
av vist</w>
a uk
Sher man</w>
Rag nar</w>
H all</w>
ut trykke</w>
st ål</w>
pan ser
nå værende</w>
li tter
kom ne</w>
inf o</w>
ark it
a ver</w>
S ac
L ena</w>
Egy pt</w>
Ber nie</w>
van s</w>
van drer</w>
t juk
spla ss</w>
run der</w>
rappor terer</w>
p sen</w>
ne se</w>
mot tar</w>
lands by</w>
konsekven sene</w>
gas sen</w>
f os
ekspe di
be fri</w>
Sa man
S tra
-H el
ø verste</w>
peil ing</w>
para dis</w>
opp ført</w>
lo kke</w>
komman derende</w>
invi terer</w>
forskjel lig</w>
dre it</w>
Si mm
Sha ne</w>
Phil lip</w>
F ant</w>
Cor n
v ingene</w>
ut hol
u enig</w>
ty ster</w>
sta mmer</w>
seri øs</w>
pro ff</w>
mi ske</w>
liden skap</w>
im pro
hek ser</w>
forrå dte</w>
buk k</w>
ar et</w>
Step hen</w>
Pet er
ti c</w>
over ført</w>
opp tre</w>
ly ktes</w>
interes ser</w>
bet al</w>
bese ire</w>
V it
Ro b</w>
M eli
ø kt</w>
ul ven</w>
moro a</w>
ener gien</w>
eff ekt</w>
e si</w>
Victor ia</w>
Stel la</w>
Sil ver</w>
Ri ver</w>
K ru
C ri
Bo y</w>
vek ten</w>
ty ver</w>
tt an</w>
s unt</w>
ro v
ro s</w>
pul s</w>
kv art</w>
kr onen</w>
i da</w>
eng elske</w>
R om</w>
G ö
E ast</w>
D C</w>
ve ste</w>
ur ene</w>
tilf eller</w>
teg ner</w>
lå ner</w>
ly kken</w>
kni pe</w>
it s</w>
gjennom føre</w>
gav ene</w>
far get</w>
byr de</w>
at ter</w>
Z i
E vel
Di ana</w>
Ca be</w>
B os
Ash ley</w>
zz ie</w>
trus selen</w>
tr opp</w>
te i
sun n</w>
skyg gen</w>
politi menn</w>
met oder</w>
kø l
kri sten</w>
foret a</w>
H anna</w>
Gol d
Gl enn</w>
Ad al
-Sk ulle</w>
-S a
ver net</w>
tv ing</w>
slan ger</w>
or et</w>
leng ter</w>
kjæ rester</w>
ki ste</w>
g or
e die</w>
detal j</w>
desp era
T .
So v
F u
- blir</w>
zombi er</w>
ton n</w>
tilla tt</w>
størr elsen</w>
pla te</w>
ord nede</w>
opp lær
o er</w>
ma d</w>
lig heter</w>
bI ir</w>
al a</w>
ad lyde</w>
Van essa</w>
Mag n
verden skrig</w>
ung doms
til tale</w>
ter iet</w>
strate gi</w>
skjor ten</w>
sjokk ert</w>
siga rett</w>
selvmor ds
per spek
kil der</w>
j i
hit til</w>
for tet</w>
e sen</w>
bå let</w>
bjør nen</w>
advok at
Kongre ssen</w>
Ja visst</w>
Fl ynn</w>
D is
Ar m
uttal else</w>
unnskyl dt</w>
tu s</w>
t ung
st am
p ok
motor veien</w>
ik e
et ur</w>
c ap
bru de
akk e
R ig
M -
G ikk</w>
G ab
B ak
A h</w>
sm aken</w>
sko p</w>
seksu elle</w>
s ut
qu i
plass ere</w>
oppmerk somheten</w>
oppdra tt</w>
kul tur</w>
g u</w>
fyr ene</w>
fj es</w>
e o</w>
dr en
bon de</w>
bel te</w>
bb ene</w>
U ten</w>
S li
C rane</w>
vi er</w>
spill erne</w>
skil te</w>
seson gen</w>
opp tre
od ge</w>
nev øen</w>
lå ven</w>
dør s</w>
dr oppet</w>
bru ne</w>
ba m
assisten ten</w>
Vo y
E .
C .</w>
An gie</w>
9 6
situa sjoner</w>
seil er</w>
ra c
opp dra</w>
ne se
ly v</w>
in son</w>
for bedre</w>
fla g
fl u
ff ert</w>
diaman ter</w>
billet tene</w>
al der
Veron ica</w>
V ed</w>
C li
-M ener</w>
-L iker</w>
tig ste</w>
so mmere</w>
server er</w>
re se
hø let</w>
hver ken</w>
far ta</w>
f ta</w>
beset ningen</w>
ban da
ak tige</w>
F OR
ER E</w>
ti denes</w>
t z
sha l</w>
set telse</w>
pla te
perman ent</w>
p iker</w>
mot or</w>
kå t</w>
konsekven ser</w>
kj app</w>
ka y</w>
invi tasjon</w>
infor mere</w>
g lo
g ede</w>
afr ikan
Kel so</w>
H åper</w>
H um
Bat man</w>
B jør
-A mer
ur en
stri pp
sl ott</w>
sk alle</w>
sen ten</w>
rol le
konsentr er</w>
komm ent
il en</w>
dokumen tene</w>
bil ulykke</w>
akti vit
R udy</w>
2 5
vit ser</w>
ven ne</w>
ter n</w>
sn iker</w>
op på</w>
om gitt</w>
milli on
fram for</w>
ele ver</w>
drø mme
dra ge</w>
bac on</w>
T ok</w>
Si mp
Saman tha</w>
Nor a</w>
Grim m</w>
ø k
uni k</w>
trå der</w>
sv ikt</w>
seksu ell</w>
lek ser</w>
k ek
i skrem</w>
her sker</w>
beg a
av hør</w>
at ten</w>
Nichol as</w>
Bla ir</w>
- Re
ven stre
stre kk</w>
pen is</w>
la ppen</w>
kjøret øy</w>
jeg ere</w>
ar vet</w>
ad vart</w>
a ta</w>
St ikk</w>
S ve
Manha ttan</w>
Ben nett</w>
B ul
ven d</w>
tion al</w>
stand ard</w>
snø en</w>
r el
pul t</w>
over føring</w>
mot et</w>
mor al</w>
meng de</w>
la tin
kje delige</w>
kje de</w>
ik eren</w>
forvir rende</w>
eksperi men
al -
P lan
Mik ey</w>
Mel anie</w>
Kla us</w>
-H jel
ør ende</w>
tilbu dt</w>
st at</w>
spen ning</w>
sn er</w>
slut t
skytter en</w>
psyki ater</w>
ol et</w>
off er
na sjon</w>
motstan ds
mot ta</w>
kø en</w>
kost na
inn el
hor a</w>
hjelp el
genera sjon</w>
f s</w>
dø tre</w>
bar ns</w>
a IIe</w>
T ran
Ka tr
K K
I ris</w>
Ha mm
Esc ob
Ale c</w>
vei ene</w>
te ma</w>
snar ere</w>
ny tter</w>
le a
koordin atene</w>
kjør ing</w>
hver t
gar d
g ek
forbin delser</w>
forb ud</w>
e a</w>
bå l</w>
br enn</w>
be veg</w>
be stiller</w>
av lyst</w>
ab sur
J .
Hel e</w>
A k
syk dommer</w>
ska mp</w>
sjef ene</w>
rul ler</w>
religi on</w>
opp lever</w>
lu dder</w>
i dag</w>
han sker</w>
d or</w>
brit ene</w>
Wal sh</w>
O ber
Bla ke</w>
B e</w>
Alp ha</w>
- hadde</w>
ten åring</w>
span dere</w>
s ær
s hor
psy k
pe pper
måne ds
myn dighet</w>
lø k</w>
i gang</w>
histor isk</w>
gra vde</w>
for følger</w>
fem ten</w>
etter retning</w>
egen tlige</w>
befol kningen</w>
Vis ste</w>
Sa ul</w>
D je
- familien</w>
skol er</w>
rob ot</w>
r ått</w>
p aven</w>
met e
man us</w>
inn tek
hon ning</w>
forsik rer</w>
fornær me</w>
forfre mmet</w>
en tet</w>
chi e</w>
be standig</w>
as sen</w>
all tids</w>
Stor e</w>
Pa u
Om ar</w>
O g
Le on</w>
Isra el</w>
G or
vak sin
trik set</w>
trag edie</w>
strø ket</w>
stol ene</w>
sne k</w>
små en</w>
oll o</w>
masse vis</w>
kri tisk</w>
ko kken</w>
kjæ le
h ost</w>
gri p</w>
gra tulerer</w>
forstå elig</w>
fiend tlig</w>
er a</w>
dr opp</w>
bl og
El lie</w>
Camp bell</w>
C am</w>
-L y
stjen esten</w>
ri n</w>
psyki atr
mo den</w>
mer er</w>
l else</w>
kompli ment</w>
komp et
indi vi
gr il
fø I
ele gant</w>
eksplosj on</w>
bevisst het</w>
O M
Clu b</w>
A dri
utel u
sir kel</w>
me steparten</w>
hal len</w>
ha mmer</w>
bak en</w>
Gabri el</w>
y re</w>
tå le</w>
ta in</w>
sk ey</w>
lo kket</w>
kli enter</w>
kan alen</w>
inn ta</w>
in dik
her re
gol f</w>
ev nene</w>
da me
c es</w>
ba byer</w>
an i</w>
Tre vor</w>
T ina</w>
He ather</w>
8 5</w>
-F lott</w>
vå r
ut gang
us ann
unn slippe</w>
til liten</w>
ta tet</w>
stat ene</w>
sign ert</w>
respek t
pis set</w>
om tenk
no k
kus ine</w>
ik erne</w>
hen delse</w>
hand lingen</w>
c ey</w>
bru n</w>
b unn
al fa
V å
O L
Ca mil
se I
sa u</w>
ra ttet</w>
n an</w>
kla sse
ka ffe
jor diske</w>
he ver</w>
hal lus
gren se</w>
gra den</w>
gla tt</w>
gjen gjel
for fremm
fla ska</w>
dr åpe</w>
de se
ak tor</w>
Ran dy</w>
G ot
G ir
Evel yn</w>
ut fører</w>
tek sten</w>
søv ne</w>
su spen
sa mt</w>
pul te</w>
lowe en</w>
ju stis
gl or</w>
gif tig</w>
forlove den</w>
bet ennelse</w>
ben et</w>
bas seng</w>
M ika
Her rens</w>
A D
-S te
til gitt</w>
sven sk</w>
red ning</w>
privat liv</w>
mu g
ma dr
let on</w>
juri disk</w>
i verk
he it</w>
gri p
dipl om
be fri
av vik
Mi tt</w>
Mer lin</w>
Kj ære</w>
ä r</w>
ut gjør</w>
sku m</w>
reag erte</w>
r ulle</w>
opp for
mennesk ets</w>
leg ende</w>
l on</w>
humør et</w>
h m</w>
f us</w>
er ke
er jo</w>
dra get</w>
bøl ge</w>
bak grunnen</w>
ankla ge</w>
We st
Jere my</w>
I D</w>
Den ise</w>
- fra</w>
århun drer</w>
åp nes</w>
v y</w>
sammen heng</w>
sal get</w>
sa u
kjer nen</w>
kat te
ir onisk</w>
in s
fl er
erkl ærer</w>
demon stra
ban di
a viser</w>
Skj ønner</w>
Si d</w>
Ra di
P olly</w>
O x
Nel son</w>
Gra ham</w>
G id</w>
Bro ad
5 2</w>
vå te</w>
vold tekt</w>
tab elt</w>
søn nene</w>
reg ning</w>
offent lig
mark ed</w>
kul tur
hvert fall</w>
gis ler</w>
fram tida</w>
effek tivt</w>
de s
be drag
P on
Dono van</w>
Bel la</w>
vin nen</w>
ur u</w>
tur n
tu elle</w>
sv inger</w>
skue spill</w>
r ell</w>
prinse ssen</w>
mø kk</w>
ha st
grunn leggende</w>
gi tte</w>
fi tta</w>
en dringer</w>
dr ama</w>
bese iret</w>
avsla ppet</w>
an se
Wor f</w>
S id
Jon ah</w>
D w
Bar bie</w>
B ac
Austra lia</w>
ø ver
panne kaker</w>
mi les</w>
kre vde</w>
kommun isere</w>
grun net</w>
fri sk
elektr isk</w>
bom bene</w>
ansik ts
U N
R ut
N AS
2 0-
, 5</w>
yr ke</w>
venn innen</w>
sover om</w>
skjel ver</w>
rask este</w>
overbe visende</w>
or drene</w>
mening sløst</w>
etter middagen</w>
ek su
dag ers</w>
da toen</w>
bå t
av talt</w>
astr on
Ver a</w>
Ro c
D .</w>
- politiet</w>
ut sikten</w>
stir ret</w>
sta ben</w>
ry kk</w>
pla tt
pil oten</w>
legiti masjon</w>
kon ger</w>
komp lek
karak ter
inn lagt</w>
h ær
g ers</w>
fø l</w>
fe drene</w>
de ner</w>
Y a
S l
P enn
Da ta</w>
B ig
uten om
tu si
takknem lighet</w>
skyld følelse</w>
skjer m</w>
skap ning</w>
over later</w>
ma te
kon to
kli pp</w>
in stitu
her rene</w>
gli mt</w>
gi slene</w>
f lest</w>
The a</w>
Pe arl</w>
J ill</w>
Geor gia</w>
Bar nes</w>
uunn gå
ti ger</w>
tan a</w>
sy re</w>
reag ere</w>
na sjonen</w>
kine siske</w>
han d</w>
h u</w>
fest lig</w>
be stikk
ar ving</w>
an kom</w>
ak ke</w>
R ap
Dor ot
Con nie</w>
år hundre</w>
ti mers</w>
str o</w>
rot ta</w>
politi ets</w>
p ic
medal je</w>
inn ie</w>
i li
hen delser</w>
gjør ing</w>
gje mme
en tin</w>
dem onen</w>
ak es</w>
W all</w>
Nic ky</w>
Kan e</w>
Ba tes</w>
Ada ms</w>
-G ra
å det</w>
slekt ninger</w>
sed ler</w>
ot ek</w>
fil ene</w>
eg u
bl and</w>
barne barnet</w>
aller gisk</w>
ak sjer</w>
L ord</w>
Kø ben
H ill
Cu ba</w>
Cal vin</w>
t ok
ske te</w>
sav nede</w>
ros er</w>
om bestemmer</w>
off iser
med liden
kreditt kort</w>
jan uar</w>
i as</w>
hy pot
han en</w>
g aller
fru str
frem st</w>
begei stret</w>
avsl ørte</w>
at ur
ar ter
appel sin
Ter esa</w>
Ste mmer</w>
P D</w>
- Å
ær end</w>
utse endet</w>
unnskyl dninger</w>
te ater</w>
pri m
okk u
kry p</w>
garan tere</w>
g ingen</w>
dese mber</w>
b be
ar v</w>
Ma u
C lo
4 0
yl dig</w>
ti dens</w>
tek st</w>
sl ette</w>
offisi elle</w>
mo no
mak t
la sten</w>
kopi er</w>
ir d</w>
ha le</w>
g om
fri villige</w>
distr ikt</w>
desig net</w>
Ri ley</w>
Ma y</w>
Hig h</w>
H øres</w>
w er</w>
vil jen</w>
tel tet</w>
spy tt</w>
sj øl</w>
reg elen</w>
ko ner</w>
a te
Har per</w>
El ena</w>
- helt</w>
var me
tea teret</w>
studi oet</w>
s -</w>
insi sterte</w>
in da</w>
hu len</w>
gam le
føder ale</w>
druk ner</w>
bo ok</w>
bak fra</w>
an tallet</w>
U r
Fi ona</w>
A s
7 2</w>
z el</w>
utse ende</w>
reg ul
pen nen</w>
p no
opp gi</w>
nev ø</w>
id é
i k</w>
hur ra</w>
byg ge
ba tal
b eren</w>
a tisk</w>
D av
Carol ine</w>
-Vel dig</w>
Å pne</w>
ut vist</w>
skur ker</w>
ra mi
kvinn elig</w>
gi ver</w>
c han
begynn else</w>
Tur ner</w>
Rob bie</w>
P il
ter min
støv ler</w>
skj ør
presiden t
idi otene</w>
fær re</w>
forut sig
forsin k
S or
Pa w
Je ffer
In n</w>
D ut
Bu ck</w>
Ari z
Abra ham</w>
-K lart</w>
Æ sj</w>
utd annet</w>
tro ende</w>
tan k
ster ende</w>
or an
lin jer</w>
jak t
gu den</w>
en dring</w>
cock ta
ansik tene</w>
Zo e</w>
Wor ld</w>
Le x
Har vard</w>
Ha mil
wo od
tryg ghet</w>
tren te</w>
st erne</w>
ska mmet</w>
o ste
ner vene</w>
kj ærlig</w>
homo fil</w>
god het</w>
g uds</w>
Y o</w>
Sko tt
Sk ynd</w>
M annen</w>
B og
yng ste</w>
væ ske</w>
sprøy te</w>
smy kker</w>
si elt</w>
p et
osj on
ob lig
o le
neg lene</w>
he tt</w>
gjel den</w>
gi ven
fri st
forretnings mann</w>
filos of
anmel de</w>
akti ve</w>
Wo w</w>
W he
T yr
Da w
C ul
-S lapp</w>
sår er</w>
sykk el
om e</w>
mmek ra
ln genting</w>
la en</w>
kl et</w>
j on</w>
gam lingen</w>
dra gen</w>
din osa
b ønn
S al</w>
Hel ena</w>
D eg</w>
øst over</w>
vin ter
u vitende</w>
svi mmel</w>
su g</w>
st et
sel skaper</w>
p inne</w>
men yen</w>
indi aner</w>
in ti
gjen stand</w>
fluk t
eksperi ment</w>
e pi
begra vde</w>
analy se</w>
ambassa dør</w>
Re ese</w>
y a
ten for</w>
t ulle</w>
smin ke</w>
ran chen</w>
ne st
kol li
jord skjel
de ra
br or
an spent</w>
al ske</w>
R A</w>
Mari anne</w>
Kit ty</w>
F in</w>
B yr
5 7</w>
vin ter</w>
ve ster</w>
til bringer</w>
t ting</w>
slag smål</w>
ok aly
myn ter</w>
jap ansk</w>
hallus in
forban nede</w>
e ven
e IIer</w>
da ssi
bu det</w>
ber e
ann ens</w>
S tri
E van</w>
vi et</w>
u hyre</w>
tatover ing</w>
svar t
sti mul
sel et</w>
sekret æren</w>
rom an</w>
re ha
nø d</w>
m alte</w>
ko st</w>
kle dde</w>
kla trer</w>
ine ss</w>
hånd led
for deler</w>
fl uen
eksplo dere</w>
dron ning
ban ne</w>
bI i</w>
b us</w>
au x</w>
ar tik
Uni ver
O hi
L ille</w>
D ic
vel se
ti pset</w>
ti men
sår bar</w>
sk ann
sing el</w>
si des</w>
opp drag
ke te</w>
j et</w>
inn sjøen</w>
gj enger</w>
en tusi
avgjør elser</w>
ap pe
Pow ers</w>
O G</w>
F -
x -
tvi le</w>
tra fikk</w>
tal ent
sav delingen</w>
posi tive</w>
pla ter</w>
patrul je</w>
parkering splassen</w>
oppfat ning</w>
met ode</w>
fører kort</w>
dø mmekra
base ball
Vi c</w>
Bren dan</w>
A ur
7 00</w>
-G j
- En
vi ch</w>
ut h
temperat uren</w>
po t</w>
miljø et</w>
marke ds
kvinn folk</w>
i mens</w>
høy st</w>
hvel vet</w>
her ved</w>
h r
for fulgt</w>
de kor
b red
b elle</w>
ap en</w>
S T</w>
Gil bert</w>
El vis</w>
C T
Bur ke</w>
Bon nie</w>
y p
ve ie</w>
t å</w>
røn t
rå der</w>
po ster</w>
p ä</w>
ol i</w>
nivå et</w>
mar sj
mak si
lå sen</w>
kla s
kam pene</w>
ha g
fan ge
eien doms
O wen</w>
L is
H imm
B as
9 -
- fikk</w>
ån der</w>
væp nede</w>
val p</w>
urop e
sn ør
rulle blad</w>
over se</w>
o c
la ften</w>
kor s
ho ven</w>
hjul et</w>
hen gende</w>
far tøy</w>
cen ti
Luci fer</w>
Lon g</w>
Kir a</w>
Be a</w>
Ab u</w>
utvik ler</w>
ut o</w>
tun ga</w>
sta ter</w>
sk og</w>
revol veren</w>
pe ke</w>
pas serer</w>
myster ium</w>
in fan
i hjel</w>
for ha
Rob inson</w>
R ad
y t
vise president</w>
vindu er</w>
tap ere</w>
sv ina</w>
stre kker</w>
se par
organis ert</w>
ond skaps
no tater</w>
inn erst</w>
ingeni ør</w>
ignor ere</w>
hek se
foran dringer</w>
Z ack</w>
Ste vens</w>
Ros e
H ur
Der for</w>
An ton</w>
- ville</w>
Ø st
tør ket</w>
seremon ien</w>
s alt
po ker</w>
no min
mi sjon</w>
lø pt</w>
konkur s</w>
ja g</w>
inf eksjon</w>
in filtr
for ven
arre sterer</w>
Sk ål</w>
H ug
G ru
Col t</w>
A bi
-Hu sker</w>
-A v
ytter ligere</w>
vis u
vin d
tår n</w>
trak as
så rede</w>
ri sk</w>
n am
mer te</w>
ko se</w>
iste den</w>
hor e
gri se
gra vd</w>
e ss</w>
b ba</w>
Ta te</w>
P otter</w>
Mon t
Jam al</w>
Alli son</w>
A M
t øn
r ull</w>
ni k</w>
motor ene</w>
mm elen</w>
lø d</w>
ka feen</w>
forsø ket</w>
for skudd</w>
S S</w>
E mp
A be</w>
7 .</w>
skap ninger</w>
seson g</w>
sammenlig net</w>
sa fen</w>
ry ker</w>
ring ene</w>
opp fant</w>
l os
høy de
fr else</w>
for met</w>
fis erte</w>
dig ger</w>
camp ing
bru den</w>
arki vet</w>
O p
N ig
K ol
Escob ar</w>
E ve</w>
tor tur</w>
takknem lige</w>
sta l</w>
sov ner</w>
sir ku
si sjon</w>
rom er
over nat
or ket</w>
ny het</w>
mar sj</w>
lek sene</w>
ke de</w>
kap pe</w>
kan in</w>
ju leg
gri sen</w>
gif t
bå tene</w>
be given
at h</w>
ansik ter</w>
an ty
Spo ck</w>
v rede</w>
tyg g
solopp gang</w>
pos er</w>
po et</w>
opp hold</w>
materi alet</w>
karak terer</w>
gru ve
frykt elige</w>
e e</w>
ar me
Stock holm</w>
Sn art</w>
Ric har
M ine</w>
Ariz ona</w>
An der
ř r</w>
è n</w>
x y</w>
val u
under gang</w>
time vis</w>
ti more</w>
ser vit
par k</w>
gr en</w>
g no
forsikring s
byr å</w>
bikkj a</w>
beslut ninger</w>
Te ss</w>
Pau lie</w>
tradi sjon
ti en</w>
slit somt</w>
sat set</w>
san den</w>
sal gs</w>
pul sen</w>
or i</w>
log iske</w>
let telse</w>
ko ffert</w>
ik as</w>
hy pno
gi l</w>
følelses messig</w>
fok user</w>
fl uer</w>
et hvert</w>
con ta
cel la</w>
M ill
Cha d</w>
økonomi ske</w>
z y</w>
stø tte
sk va
opptak ene</w>
my ke</w>
muse et</w>
komp lett</w>
innel åst</w>
høv ding</w>
gut te
f lan
del tak
bak setet</w>
at ten
Di a
5 1</w>
ø kk
vel sene</w>
ve sle</w>
unn y</w>
tot al</w>
su re</w>
skj en
sk allet</w>
ri st</w>
ot ten</w>
or ten</w>
ka pr
histor i
h or</w>
go ds</w>
gi gan
g ærne</w>
forsik ringen</w>
for klarte</w>
fer sk</w>
ek s
bel eilig</w>
b on</w>
Lut her</w>
Elli s</w>
Da vi
Ar ne</w>
y land</w>
ve tt</w>
svi r</w>
røy ken</w>
re kke
ni g</w>
mass ak
jag gu</w>
il er</w>
ele vene</w>
brå ket</w>
a f
I .
D E</w>
Cast le</w>
r oll</w>
n it
lever an
kne et</w>
in se
ikk i</w>
håp løs</w>
ha mm
gla s</w>
gjen kjenner</w>
fle kk</w>
c ru
c ity</w>
blø ff</w>
X -
IN G</w>
Amer ic
- Jøss</w>
venn lige</w>
ung dommer</w>
tan ke
t all
sul ter</w>
spun kt</w>
ok ey</w>
måneds vis</w>
h l</w>
g lu
er ob
e sel</w>
di gi
ali teten</w>
al le
Til bake</w>
M a</w>
Dorot hy</w>
Bo yd</w>
A V</w>
vok tet</w>
ut brudd</w>
stø tten</w>
st allen</w>
solned gang</w>
skri ttet</w>
s lei
re kk</w>
profesjon elle</w>
pp es</w>
p enge</w>
over ordnede</w>
om fav
m ar</w>
lun sj
lo mmene</w>
kompan i</w>
ko dil
ge tid</w>
ff el</w>
far tøyet</w>
bon us</w>
av bryter</w>
S P
G wen</w>
For står</w>
D at
- Le
tyn t</w>
sø sters</w>
skul drene</w>
sir kus</w>
privi legi
oppr ing
ju laften</w>
impro vis
hus arrest</w>
gra tul
gle det</w>
forsk ningen</w>
fel ten</w>
col a</w>
bi skop
av net</w>
an holdt</w>
a bort</w>
S heri
Qu in
O kay</w>
Ma dison</w>
C ot
ver ker</w>
tr inger</w>
tan k</w>
st ar</w>
skru bb
skit tent</w>
sak søke</w>
li dd</w>
fort vil
fore spør
fen o
en somme</w>
eg net</w>
dø de
beveg elser</w>
Skott land</w>
S lik</w>
Jen na</w>
A i
-L egg</w>
ti år</w>
spi se
sp in
sj et
opera sjoner</w>
na tte</w>
musk ler</w>
j ah</w>
høy re
fer digheter</w>
fel les
el v</w>
do wn</w>
bur y</w>
bort ført</w>
W es
Tar a</w>
G ene</w>
st ål
spr oble
sk rø
progra m
pra ten</w>
o ut</w>
le dende</w>
hel ga</w>
gj ettet</w>
genera sjoner</w>
forår saker</w>
besø kt</w>
avfy rt</w>
Vik tor</w>
Tro dde</w>
Sha ke
Sav age</w>
P ak
Me di
L ann
Da mien</w>
Co ur
A ir</w>
sy ner</w>
sky ttere</w>
sjon ens</w>
py se</w>
politi stasjonen</w>
p il</w>
opply sningene</w>
opp legget</w>
ny hets
nasjon al
fa g</w>
d var
R ett</w>
J ens</w>
I er</w>
Griff in</w>
F øde
Ce ci
strå ling</w>
strå ler</w>
ry dd</w>
rik dom</w>
pøl ser</w>
pi stoler</w>
mis si
lo ftet</w>
in fluen
forret ningen</w>
da tet</w>
by ene</w>
blom ster
Phil li
trekk eren</w>
syl van
st okk</w>
st elig</w>
sen timen
rak etter</w>
p el
kon struk
ko ppen</w>
kjerring a</w>
intellig ens</w>
ing -
he is</w>
hast verk</w>
bet jenter</w>
ban g</w>
Sam uel</w>
R ik
Mor ris</w>
M ol
Det ro
Au gu
øy t</w>
vær else</w>
v ok</w>
under vise</w>
tea ter
så kalte</w>
si ve</w>
re di
ra ser</w>
pr om
oksy gen
no en
met o
lomm et
kny tte</w>
kjen di
kjek ke</w>
ha cket</w>
forsv inn
fil er</w>
dr ak
deri mot</w>
del staten</w>
Qu entin</w>
O .
K unne</w>
D A
Clar y</w>
velde dighet</w>
ss ler</w>
sl øy
selv forsvar</w>
person lighet</w>
over natte</w>
os eksu
ond skapen</w>
oli s</w>
kul a</w>
her lige</w>
fi le</w>
f at</w>
elig vis</w>
eksk lu
du mm
beste venner</w>
Ste w
St u</w>
Snak ker</w>
N igh
Ban k</w>
-A b
u avhengig</w>
ti v
ta bel</w>
sug d</w>
styr tet</w>
stan g</w>
spek ul
sn a
skap elig</w>
ska dde</w>
sj ø</w>
kle mmer</w>
kau sjon</w>
k tig</w>
k na
hånd terer</w>
hel te
go s</w>
dy tte</w>
c hu
bøl ger</w>
V år</w>
T ok
Mur ray</w>
Meli ssa</w>
Dun can</w>
Anton io</w>
ye ah</w>
vil somt</w>
utfor drer</w>
tø mme</w>
tun nel</w>
tilstå else</w>
tan ten</w>
sø t
sivili sa
pri l</w>
para tet</w>
pan g</w>
overvå ke</w>
man uset</w>
ly sende</w>
kr u
kr oken</w>
is on
første betjent</w>
frem for</w>
em osjon
dje vel</w>
dag bok</w>
da d</w>
bran sje</w>
be hol
bar bar
av gang</w>
Ric h
Reg gie</w>
La uren</w>
Bri en</w>
Be dre</w>
Ba u
-Amer ika</w>
- trenger</w>
økono mi</w>
y la</w>
verdi er</w>
us -
til trukket</w>
t ærne</w>
spas er
smi let</w>
sj ør
repor ter</w>
or ene</w>
kon tant</w>
inn treng
fien dens</w>
bel a
V eg
J D</w>
F lytt</w>
Adal ind</w>
A c
-T il
v rak</w>
u båten</w>
ty kk</w>
to ne</w>
tell ing</w>
se in</w>
sc h
poli tikken</w>
or es</w>
met all</w>
løg n
kon vo
kirur g</w>
gl i</w>
fødsel sdag</w>
frak ken</w>
for e</w>
da ss</w>
av bryt</w>
an ten
Val ley</w>
Tan ya</w>
R uss</w>
P Å</w>
Lyn ette</w>
L. A.</w>
Køben havn</w>
I itt</w>
Hen nes</w>
Bern ard</w>
vis dom</w>
tul l
ti ming</w>
søv n
svind ler</w>
sto kken</w>
religi øs</w>
rappor tene</w>
pri ser</w>
po mmes</w>
pi ano</w>
mag ne
loj ale</w>
kj ønn</w>
is sa</w>
introdus ere</w>
fort au
for d
f ek
en dres</w>
bur gh</w>
bo li
arre sterte</w>
Voy ager</w>
Missi ssi
Ka y</w>
utpre ssing</w>
ut valgte</w>
syste mene</w>
sul te</w>
ste mt</w>
solda ten</w>
sky t
re z</w>
qu ila</w>
poli tiker</w>
organisa sjonen</w>
nor sk</w>
leng s</w>
l l
kor s</w>
ka mmeret</w>
ha ge
forsk ere</w>
for klart</w>
en avn</w>
Lo ck
Dou glas</w>
De b</w>
C helse
Abi ga
styr bord</w>
ste gn</w>
st aven</w>
pen ere</w>
n d</w>
mil jø</w>
ma ser</w>
la ine</w>
kontak t
kjempe fint</w>
hå rete</w>
hor mon
hje mm
eta sjen</w>
er ings
ak a</w>
a sjonene</w>
Rey nol
L enny</w>
J un
-Selv følgelig</w>
van vidd</w>
usann synlig</w>
st all</w>
sa y</w>
ri mer</w>
red ning
pri oritet</w>
pri ori
opp lagt</w>
mal eri</w>
is h</w>
høy den</w>
her ske</w>
gran sk
gr ått</w>
g ina</w>
fr ø</w>
be sit
Shake spe
P ot
Hamil ton</w>
A ner</w>
stan dar
skru r</w>
sen tra
ro lige</w>
resp on
produ sent</w>
ori ene</w>
oper ere</w>
må le</w>
le ys</w>
kjem ik
kas ser</w>
i ten</w>
hu leste</w>
gj ø
gj et
fød selen</w>
en dene</w>
eli x</w>
bo lig
av trekkeren</w>
advok atene</w>
Port land</w>
Magn us</w>
E st
Au stin</w>
å rige</w>
vold tok</w>
ut len
uk es</w>
tu elt</w>
stek la
skue spiller
sammen treff</w>
sa ft</w>
r oss</w>
le e</w>
konf lik
kines erne</w>
jor dens</w>
indian er
gla ss
far er</w>
bry st</w>
ator er</w>
Yo ung</w>
Mc Co
J as
Fa der</w>
E tter
C lyde</w>
Ba xter</w>
- lngen</w>
økonomi en</w>
uk ker</w>
sp ol
sk all</w>
sinns sykt</w>
s ikk</w>
presen terer</w>
plass ene</w>
musk lene</w>
mis forstått</w>
mang lende</w>
forel e
data ene</w>
av fyr
aut or
absur d</w>
Shi r
K ur
2 .
virk somheten</w>
stra ff
snu dd</w>
s ettet</w>
ri stet</w>
ran er</w>
ra m
meng der</w>
l eren</w>
kvel ds
j am
ge vin
frem ste</w>
et tes</w>
erkl ært</w>
dyn a
ch i</w>
agen tene</w>
Scot ty</w>
Reynol ds</w>
N er
B C</w>
utsl ette</w>
perspek tiv</w>
lig hets
les bisk</w>
inn satte</w>
fa bel
disi p
centi meter</w>
ap per</w>
Ohi o</w>
I L
Har t
Chap man</w>
An ders</w>
-P ass</w>
- l</w>
z i</w>
volds omt</w>
ve kt
u du
sv inn</w>
ster n</w>
passa sjerer</w>
over sett</w>
ord fører</w>
lik huset</w>
le kene</w>
ha s</w>
fokus ert</w>
de z</w>
Ra j</w>
F il
Bo ur
øy en</w>
åp ningen</w>
ut førte</w>
skjer p</w>
or gas
opprett holde</w>
nav n
nat te
nai v</w>
kro kodil
ko ker</w>
geni alt</w>
beste vennen</w>
bekym ringer</w>
b j
T .</w>
Ko mm
10 000</w>
- folk</w>
ver kt
tvil linger</w>
t .</w>
stra ffes</w>
si mul
ry kker</w>
ma gien</w>
lø se
ing e
elek tri
effek tiv</w>
du e</w>
d é
d sen</w>
aut ogra
alternati ver</w>
Sen d</w>
I y
G ide
v ler</w>
t w
stj ål
spar te</w>
ro cke
plik ter</w>
kontroll ert</w>
konkur rere</w>
klov n</w>
gren sa</w>
for hol
etterfor ske</w>
dig ere</w>
bro a</w>
bi ten</w>
beslut ningen</w>
batter iet</w>
anbef ale</w>
Rom eo</w>
Lor en
E M
Atlan ta</w>
war ds</w>
utsl ettet</w>
tte l</w>
tap per</w>
stor artet</w>
spor t
mu r</w>
kur ven</w>
konf likt</w>
inve stor
he derlig</w>
h h</w>
etter lyst</w>
barn slig</w>
avhengi ge</w>
Star ling</w>
Pa tri
L eg
Jeffer son</w>
ó n</w>
ynd ling
y pper
verdi en</w>
undersø kte</w>
taus het
t ner
studi er</w>
star t
sku ffen</w>
sik er</w>
pus se</w>
politik ere</w>
ne di</w>
mel o
ma j
komm er
internasjon ale</w>
har mon
dok tor
di stri
d ul
bud skapet</w>
bil lige</w>
bi o
Ri o</w>
Lø p</w>
Dani els</w>
C yn
u over
tør re</w>
sv ine
stir re</w>
skjol det</w>
r lig</w>
ppe sti
p ø
nif st</w>
ne i
massa sje</w>
klar ert</w>
is s
ing skamer
hen gte</w>
forvand le</w>
forb annelsen</w>
fantasi en</w>
be klage</w>
aksep tabelt</w>
Ri ver
Lil a</w>
Hen rik</w>
-Hjel p</w>
u mulige</w>
tro fast</w>
ti de
tenn is</w>
ten te</w>
tel sene</w>
stjen este</w>
skyg ger</w>
ru ter</w>
pis ser</w>
om on</w>
medliden het</w>
g un
forår sake</w>
for val
fle kken</w>
der ens</w>
dagsl ys</w>
bur gere</w>
bre kker</w>
bo er</w>
bl ing</w>
av hør
ap e
T her
Servi ce</w>
Rei d</w>
N ob
Haw k</w>
Al t
. Jeg</w>
ø m</w>
åp e
vi g
v ning</w>
symp ati</w>
sn ut</w>
skap ets</w>
on ey</w>
myr de</w>
mur ene</w>
kr øl
kampan jen</w>
for svarte</w>
fj ær</w>
e tiske</w>
c at
but ikker</w>
bry et</w>
b ley</w>
arran ge
U S</w>
Michi gan</w>
Ju an</w>
H .
Dra ke</w>
Clar a</w>
B om
A z
4 9</w>
tilfre ds</w>
spre dt</w>
sir kelen</w>
over fall</w>
men talt</w>
kor e
kjø kken</w>
kj eller</w>
har m
føde ral</w>
forrå dt</w>
fore gikk</w>
favorit ten</w>
evi ge</w>
ed le</w>
dob le</w>
besit telse</w>
be skriver</w>
at s
ar do</w>
Step han
Poli tiet</w>
J ævla</w>
Ed gar</w>
E mm
Dok tor</w>
B y
A pril</w>
vise presidenten</w>
verk stedet</w>
verds etter</w>
ve I</w>
utfor dre</w>
tygg egu
spi oner</w>
pot eter</w>
p innen</w>
nødven digvis</w>
lan ding</w>
kamer atene</w>
fla ut</w>
SM S</w>
S EN
Mar il
år lig</w>
vrak et</w>
val en</w>
va ert</w>
ste ds</w>
plass erte</w>
mulig hetene</w>
løn na</w>
li mo
la ste</w>
idre tt
hom se
hav na</w>
garderob en</w>
fry se</w>
fotogra fi
bo lig</w>
bla dene</w>
Tu vok</w>
T in
Nat alie</w>
G host</w>
F ry
Bra sil</w>
B .</w>
An nali
vi t</w>
uro e</w>
under viser</w>
trafik k
tan n</w>
sta den</w>
rekla me
oppfør selen</w>
o ene</w>
mid dag
lø ses</w>
le pper</w>
ky st
kon sentra
ke iser</w>
is men</w>
ho v
fr ar
en tre
e urope
drittse kkene</w>
N Y
L ig
Arm str
vitenskap elig</w>
ve -
uk ke</w>
ti dene</w>
teg ningene</w>
ska d</w>
s opp</w>
ro ck</w>
profess oren</w>
par y
ow n</w>
om bestemt</w>
nev n</w>
med følelse</w>
mask inene</w>
le m
kl ing
ki sten</w>
k ikke</w>
k erne</w>
hertu gen</w>
er -</w>
e w</w>
c re
bol ler</w>
biolog iske</w>
aI dri</w>
W es</w>
H ad
Gide on</w>
D I
Clau de</w>
-O ver
ø yn
z en</w>
v r
u endelig</w>
tri um
stra ffer</w>
stjål ne</w>
spesiali st</w>
smu le</w>
sm ek
skul s</w>
skilsmi ssen</w>
r uten</w>
popul ære</w>
opp var
opp nådd</w>
kul l</w>
kriminal betjent</w>
inn går</w>
hom ser</w>
fornøy de</w>
etterret ning
et a</w>
eien deler</w>
ei r</w>
besø ket</w>
bak lengs</w>
N este</w>
Face book</w>
Domini on</w>
Cre ek</w>
4 6</w>
ro dde</w>
rist an</w>
profesjon elt</w>
nødven dige</w>
mer r</w>
men inger</w>
lin jene</w>
kv eg</w>
komp iser</w>
kla get</w>
hor ison
flag ger
despera te</w>
br ennende</w>
begj ær</w>
ar til
V ene
R id
R .</w>
N ol
Mc G
Ba iley</w>
- Ma
tr oppen</w>
ti sset</w>
sylvan ia</w>
stre k</w>
skar pe</w>
sinn a</w>
sam talene</w>
s ets</w>
po l</w>
p leie</w>
mø bler</w>
korrid oren</w>
k ikker</w>
jø disk</w>
ga ard</w>
for hånd</w>
dår ligere</w>
barn dommen</w>
av brutt</w>
al s</w>
ak sel
T ren
Simp son</w>
Rober ts</w>
K un
I van</w>
Fre deri
Fran ken
De ss
Bus h</w>
5 8</w>
-T re</w>
ver vet</w>
tror jeg</w>
smil te</w>
smel ter</w>
sak s</w>
prostitu ert</w>
plan et
pla st
l us</w>
kvin nes</w>
ju vel
hjel men</w>
h æ</w>
gren se
gjennom gå</w>
gen ser</w>
før stekla
er ier</w>
el at
dei lige</w>
Vi vi
Sco field</w>
H am</w>
- av</w>
viten skapen</w>
ut vilsomt</w>
tr a</w>
testa mentet</w>
teg ri
spesi fik
sl ikke</w>
sky ene</w>
sek tor</w>
ra mmer</w>
over dose</w>
mø tene</w>
mp a</w>
m else</w>
journali ster</w>
fy sikk</w>
fin alen</w>
blo dige</w>
aggressi v</w>
Stew art</w>
S jekk</w>
Far vel</w>
El i</w>
E vans</w>
Chelse a</w>
A I
-S n
- ring</w>
ulov lige</w>
tra vel</w>
spr ose
sla gene</w>
retur nere</w>
oppda tert</w>
ol de
nett verk</w>
lig h
lan de
ha el</w>
fia sko</w>
er it
eng ene</w>
el -
e valu
d ge</w>
Pier re</w>
H ope</w>
Detro it</w>
ø g</w>
uly kk
stry ker</w>
skum le</w>
ri ste</w>
oppmerk som</w>
ol f</w>
medisin ene</w>
ks gi
hyster isk</w>
han ksgi
ha l</w>
ck -
bekref telse</w>
ap pen</w>
TI L</w>
Jan et</w>
I a</w>
F el
C handler</w>
-O pp
z ie</w>
w ick</w>
val d</w>
sø sken
stil les</w>
steroi der</w>
ste mme
sosi al
sn uten</w>
sli te</w>
opp gaver</w>
on g
lun ge
lille broren</w>
led ninger</w>
kni ver</w>
gut tunge</w>
f ett
do s</w>
bit ch</w>
beg ri
ar a
Ot to</w>
M oren</w>
For siktig</w>
Bis hop</w>
v ć
sti gen</w>
ss or</w>
spei der</w>
sk ede</w>
po esi</w>
opp fyl
om bestemme</w>
neden under</w>
mo di
lu bben</w>
isol ert</w>
hau gen</w>
gi tar</w>
g æren</w>
for kle
for der
en somt</w>
at trak
ar ds</w>
M inne
C hang</w>
Be cky</w>
Be au
-Vel kommen</w>
ut tale</w>
ud yr</w>
trap pene</w>
sor det</w>
skand ale</w>
s vel
ri b
rekor d</w>
overvåkn ings
man ne
le kt</w>
l nn
kvel e</w>
kur ere</w>
kompan iet</w>
kla tret</w>
hjel m</w>
hen sikten</w>
gravi di
gen etisk</w>
finan s
f fin
d og</w>
bun n</w>
bom b
besky tt</w>
bega vet</w>
a den</w>
W inc
V at
He is
Bu ck
A men</w>
ut landet</w>
tekn iske</w>
syke stua</w>
stre kkelig</w>
sky en</w>
ser vert</w>
produs ere</w>
park ert</w>
nø tter</w>
le derne</w>
himmel ens</w>
gen seren</w>
fri tes</w>
fre den</w>
forsik ret</w>
forhol dene</w>
fla mmer</w>
fan g
erstat ning</w>
bered skap</w>
Stil le</w>
S ikker</w>
NS A</w>
H us</w>
Eu gene</w>
Ba by</w>
Amer ikas</w>
8 .</w>
3 0-
-Ab solutt</w>
y anke
var sle</w>
u fat
tin i</w>
til hen
ti -
spen ningen</w>
skue spillere</w>
s årene</w>
råd huset</w>
ri ch</w>
r yn
m bo</w>
lomm ely
lever ing</w>
le ppesti
kvali tet</w>
i si
h ne</w>
elektr iske</w>
e uro</w>
de -
behand les</w>
avskje ds
ambul ansen</w>
ak ker</w>
Shir ley</w>
S kri
Prø ver</w>
O c
Hu dson</w>
Hom er</w>
Ho od</w>
E g
Bal timore</w>
vurder ing</w>
venn skapet</w>
un ner</w>
tret ti</w>
tre kket</w>
toal ett</w>
tan s</w>
s være</w>
rettig hetene</w>
ok s</w>
mis forstå</w>
men n
kry ss
kon ver
kol lek
kjemp eg
inn kalt</w>
ik te</w>
hånd kle</w>
hånd jer
hus ets</w>
hi pp
gi t
epis oden</w>
brut alt</w>
ann ie</w>
ak sje
Sec ret</w>
O sw
M ø
Ly le</w>
L en</w>
Ir land</w>
E T
Cle vel
Abiga il</w>
A gent</w>
................................ ................................
ve sla</w>
tysk ere</w>
sv inge</w>
ska tter</w>
sk ep
rør ende</w>
ri a</w>
reali stisk</w>
re al</w>
rak ett
opp dro</w>
mor er</w>
lever en</w>
la b</w>
kli pper</w>
intervju er</w>
håp løst</w>
hukomm else</w>
gri ser</w>
finger avtrykkene</w>
de mi
b oble
a sje</w>
a dren
Si den</w>
Sen atet</w>
Ro dney</w>
Mississi ppi</w>
Jan e
Feli city</w>
Dri tt
v andre</w>
ud der</w>
ube væpnet</w>
skur ken</w>
selv tillit</w>
s Ã</w>
pu tte</w>
pi ano
ny este</w>
nok så</w>
lær ere</w>
log g</w>
kr en
ko nen</w>
kidnapp ing</w>
frem skritt</w>
for vent
elat ende</w>
b is
av høre</w>
So okie</w>
Po int</w>
O s
Fo ster</w>
An dr
-G lem</w>
sv etter</w>
stø t
spreng stoff</w>
sov ne</w>
smerte stillende</w>
on ger</w>
muse um</w>
mot tok</w>
len ker</w>
inn stilt</w>
h ine</w>
eri øst</w>
el ene</w>
egen hånd</w>
distrik tet</w>
bin der</w>
Y e
V enn
T am
P ad
Ne ws</w>
Lo ve</w>
G and
Be et
, 000</w>
vedde mål</w>
ved like
utvi de</w>
ut ål
ur in
trå kket</w>
til tal
ti ttel</w>
ta tte</w>
så pe</w>
sen deren</w>
ro en</w>
pri mi
pre sang</w>
ord føreren</w>
opprinn elige</w>
hå pte</w>
handel s
gei t</w>
flå te</w>
e- posten</w>
e mp
du er</w>
disku sjon</w>
c key</w>
bryst vor
b at</w>
avan sert</w>
at on</w>
ap okaly
ale e</w>
R a</w>
K enn
Bor is</w>
-M an
ydmy ke</w>
vill ingene</w>
van sker</w>
ut gang</w>
transpor t
t hia</w>
syk ler</w>
sta b
sla pper</w>
sla dder</w>
skikk elige</w>
pu le</w>
produk t</w>
pe sten</w>
motor sykkel</w>
m und</w>
lø ve</w>
le delse</w>
la mpen</w>
k ly
fan g</w>
et r
dyk tige</w>
dig ste</w>
at o</w>
Su per</w>
Sti les</w>
Maril yn</w>
Mac Gy
M el</w>
Ju ne</w>
Co lin</w>
B elle</w>
-V is
- gjorde</w>
ver an
try kt</w>
svi k</w>
studen t
st ave</w>
sp yr</w>
ra mme</w>
prot oty
mis fo
kon dom
kl os
kapte inens</w>
ka mmer
ge st</w>
br ønnen</w>
bol le</w>
alkohol iker</w>
ag n</w>
Wol f</w>
O N</w>
M all
Christ ine</w>
ør ing</w>
ver sjonen</w>
veg ger</w>
vanskelig ste</w>
til kny
tel ses
skyte våpen</w>
rak er</w>
plass erer</w>
person alet</w>
overvåk ning</w>
nerv øse</w>
medle mmene</w>
map pe</w>
lil la</w>
kol lap
kjek ken</w>
hjem løse</w>
fj ær
em bet
effek ten</w>
do w
dig het
c on</w>
byg g</w>
bil t</w>
beg re
ar ter</w>
an tik
Sa w
Na omi</w>
FO R</w>
Di tt</w>
Americ an</w>
yn kelig</w>
yl l</w>
str ö
skje gget</w>
mo te</w>
misly kket</w>
ku k</w>
kropp ene</w>
kon gelig</w>
ko bler</w>
kirke gården</w>
jor disk</w>
irri tert</w>
id s</w>
hyl le</w>
hjel pe
forfat teren</w>
for hek
feil et</w>
far ge
ero br
bus iness</w>
bryllups dagen</w>
an det</w>
a ske</w>
a sjon
Shar on</w>
P l
Ma li
Juli us</w>
Ju dith</w>
I mp
Fa mili
Craw ford</w>
Brun o</w>
tyn ne</w>
ti a</w>
str and</w>
skju le
si vt</w>
sen dingen</w>
ra dik
pro fi
por tene</w>
pal asset</w>
kondol erer</w>
kol la
ko dene</w>
italien ske</w>
grunn lag</w>
gjen stander</w>
ff ende</w>
es -
dr ik
diaman tene</w>
bæ sj</w>
brø d
biskop en</w>
S var
Ron ald</w>
Pen tag
Mer ce
Je an
J ak
Ele an
E laine</w>
-K utt</w>
vå res</w>
vide re
ver dener</w>
var en</w>
tør k</w>
stra mt</w>
stra m</w>
stra ffe
ste mm
samvit tigheten</w>
pul ten</w>
oran sje</w>
opp levde</w>
nå de
mor mor</w>
mo der
mikrof on</w>
la ster</w>
komp en
kje det</w>
he ad</w>
ha ck
gran at</w>
engasj ert</w>
ek n
an ker</w>
Por ter</w>
Jo el</w>
H ul
Gab by</w>
Fr u</w>
Del an
Col or
- står</w>
år s
utfor ske</w>
territor ium</w>
skå le</w>
skre kkelig</w>
ren set</w>
rak ett</w>
os a</w>
kvar tal
kvali fisert</w>
k elige</w>
gre sk</w>
fr el
fin ere</w>
br ikken</w>
Whi t
V -
Mo un
Jo y
Je ffrey</w>
Fa ir
Con rad</w>
7 1</w>
1 20</w>
-S topp</w>
tre -
ter -
tenår inger</w>
sy vende</w>
spoli tiet</w>
sen ker</w>
rø tter</w>
represen tant</w>
r us</w>
politi mannen</w>
opphis set</w>
ner d</w>
mikrof onen</w>
lo kker</w>
kon su
kar s</w>
jobb ene</w>
in tegri
i on</w>
i mi
em ne</w>
aut oritet</w>
an komst</w>
S and
G anske</w>
D isse</w>
Col ombi
0 9</w>
-M or
u -
tiltre kkende</w>
tek ster</w>
sug de</w>
sosi al</w>
skje ma</w>
ner y
kne kker</w>
is erte</w>
interess erer</w>
inn gikk</w>
grønn saker</w>
fornær melse</w>
forel der</w>
fle kker</w>
dia bet
de leg
c ie</w>
P us
MacGy ver</w>
Isa bel</w>
Hel lige</w>
-S kj
ydmy ket</w>
uly kker</w>
tør ker</w>
sul t</w>
s me
rad aren</w>
produk ter</w>
ne stemann</w>
n årjeg</w>
mil d</w>
lære penge</w>
kry pe</w>
ko medi
il s</w>
he im</w>
gut tens</w>
fortau et</w>
fokus erer</w>
dy b
bok staver</w>
ar ven</w>
am per</w>
Pri ce</w>
O z</w>
H amp
vin kel</w>
ven til
ut for</w>
tøy te</w>
t op
sti v</w>
ser es</w>
revolu sjonen</w>
rak ettene</w>
over s</w>
od ds</w>
ned la
kom st
hver andres</w>
gratul ere</w>
gle y</w>
gje sten</w>
gj en</w>
froko st
a sken</w>
Ro ck
Fer g
Dw ight</w>
Dar cy</w>
Co mm
B am
ydmy k
verdi fulle</w>
ver iet</w>
veg et
u x</w>
tøff ing</w>
sl ok
skyn der</w>
p ekte</w>
over talte</w>
om fat
myn digheter</w>
mel d</w>
lån t</w>
gjer ning</w>
g h
fortjen este</w>
form elen</w>
folk ets</w>
du mpe</w>
Under wood</w>
Jac ob
Hei a</w>
Fo yle</w>
An g
var ig</w>
usyn lige</w>
tjen ere</w>
sk es</w>
kje mi</w>
gi er</w>
ge væ
fort ap
forbry telsen</w>
dr onen</w>
bøn der</w>
be ordrer</w>
at ør</w>
Ar bei
6 9</w>
øde lagte</w>
van nen</w>
us al
tran g</w>
tak else</w>
t vert</w>
sl o
repar ert</w>
pen isen</w>
p Ã</w>
lin ja</w>
innbyg gere</w>
i stiske</w>
hemmelig hetene</w>
gren sene</w>
g ni</w>
do er</w>
dan sk</w>
c s</w>
c i</w>
atmosf æren</w>
an stendig</w>
an a
a sy
She ila</w>
Li ber
H off
G ul
For e
B ud</w>
6 4</w>
4 000</w>
w an</w>
vi sjonen</w>
tilsyn elatende</w>
tekn ikk</w>
symbol et</w>
svø mme
stevne møte</w>
ster ommet</w>
sc o
run den</w>
ra ba
model len</w>
lø ps
li ster</w>
la de</w>
korru pt</w>
ir ene</w>
fødsel s
for masjon</w>
et ro</w>
diskut ert</w>
bal ansen</w>
ann ah</w>
Penn sylvania</w>
Hal loween</w>
år lige</w>
viktig st</w>
to wn</w>
svar eren</w>
su iten</w>
studi ene</w>
s velge</w>
s ett
opp legg</w>
jur y</w>
journ alen</w>
ir sk</w>
i el</w>
for mannen</w>
dø mte</w>
dri stig</w>
de ser
b øye</w>
ad lyder</w>
U .
Ste in
F en
Annali se</w>
-N ettopp</w>
tiI bake</w>
tap re</w>
tab ber</w>
strid svog
stin kende</w>
sp rekker</w>
skj æ
produs erer</w>
opprør erne</w>
o h</w>
mask inge
lomme boken</w>
leket øy</w>
kr opper</w>
ko gno
kne kken</w>
ge -
fotogra f
e en</w>
bo a</w>
bI e</w>
O ld</w>
L ukk</w>
L ud
F let
Ba y
Armstr ong</w>
Adri an</w>
w i
vog n
til passe</w>
sven ske</w>
stan ken</w>
sor te</w>
sli pset</w>
skil pad
mar erit
la det</w>
kry ss</w>
komp isene</w>
irri terer</w>
gr ov</w>
ga ter</w>
duk k</w>
by tte
bry stene</w>
ak tor
T ali
She p
Mon tana</w>
M ak
Gr in
F ur
Du sty</w>
Ch il
Bra dy</w>
Ben edi
12 -
1 1.</w>
unnskyl der</w>
tri velig</w>
tor get</w>
sø sken</w>
spri ten</w>
sp ap
sn ac
shi re</w>
over tid</w>
n ĺ</w>
mot ell</w>
mor dene</w>
lo w
kny tter</w>
in tu
hø st
h ill</w>
fi den
eksi stens</w>
e den</w>
e be</w>
dan ner</w>
dan ne</w>
befal er</w>
S ug
P ep
Jo y</w>
Hel las</w>
Ed wards</w>
D ag
B o</w>
ti s
te quila</w>
ta bl
symptom er</w>
serie morder</w>
s hit</w>
pen sjon</w>
over late</w>
om gi
ofr er</w>
kr å
klan en</w>
inn imellom</w>
fly ttes</w>
fluk ts
fen rik</w>
far ts
enn ie</w>
d é</w>
arre stor
Slo an</w>
Richar ds</w>
Mar go</w>
Før ste</w>
E dith</w>
Dri t</w>
Clevel and</w>
Cap it
ve v</w>
v s</w>
uke vis</w>
tt ingen</w>
sor dre</w>
re en</w>
oper erer</w>
mat cher</w>
kasin oet</w>
jern banen</w>
hør ingen</w>
gr ene</w>
forrå de</w>
ble k</w>
be skrev</w>
ba g</w>
aut omatisk</w>
ankla gene</w>
akti vt</w>
U trolig</w>
Ne sten</w>
L ac
Ga il</w>
Fit z
Ar row</w>
æ l</w>
z e
verdi fullt</w>
var ing</w>
tø mmer</w>
sp ag
sek toren</w>
rø ken</w>
pud ding</w>
p utter</w>
opp fylt</w>
of test</w>
nega tive</w>
invi tasjonen</w>
intervju e</w>
hu sle
geni al</w>
galak sen</w>
g ner</w>
fri fot</w>
foran dres</w>
ek so
du kken</w>
bort skje
begra ver</w>
bedri ften</w>
barb ere</w>
at ur</w>
ak sent</w>
Tr oll
Syl vester</w>
Ne va
Kno x</w>
Cyn thia</w>
5 6</w>
ufat telig</w>
til tak</w>
tell ingen</w>
stø y</w>
skru dd</w>
skol ens</w>
skjol dene</w>
rå t
ra gende</w>
over svø
mid de
løg nene</w>
leg enden</w>
kobl ing</w>
kjemik ali
ho I
hjer nery
gre v</w>
gran n</w>
fron t
etterfor sket</w>
ep le
bit ter</w>
bevisst heten</w>
betrak tning</w>
be merk
Ze ke</w>
TV -en</w>
R oll
O per
Kar a</w>
Ja red</w>
G unn
Char ley</w>
Bu ff
w ater</w>
ut setter</w>
ut gifter</w>
trag edi
tjuk k</w>
slås skamp</w>
r é</w>
n ton</w>
n ettene</w>
ku le
korru p
kor tere</w>
kan onene</w>
k van
i le</w>
gir l</w>
gan te</w>
forla telse</w>
fore still</w>
for veien</w>
fjol s</w>
f ô
er faren</w>
en deren</w>
demokra ti</w>
ber et
an en</w>
al v</w>
S ann
Que ens</w>
Pho eni
Na tional</w>
NAS A</w>
N ikki</w>
Hug o</w>
CI A-
A L</w>
5 0-
ü n
yr ene</w>
var mere</w>
spor ten</w>
si dig</w>
ser iet</w>
sel ges</w>
rom vesener</w>
par kere</w>
omfat tende</w>
nød stil
nazi stene</w>
må lene</w>
mal ing</w>
ko ser</w>
internasjon al</w>
hø sten</w>
hy per
for sen
fl at</w>
er ene</w>
ent in
disip lin</w>
datamask iner</w>
bø tte</w>
beve get</w>
beskri velse</w>
be e</w>
ap pet</w>
Whi te
U dyret</w>
Syl via</w>
Sky t</w>
S piller</w>
Ros alee</w>
Ne elix</w>
Hann i
H igh
Ein stein</w>
Det er
-D e
ær te</w>
åp ning</w>
vel t</w>
under holdning</w>
til flukts
spesial agent</w>
sku mmel</w>
resep sjonen</w>
re vis
prose dyr
prak sis</w>
parfy me</w>
nis sen</w>
neder lag</w>
lig net</w>
kvar tal</w>
kr et</w>
kor set</w>
k ingen</w>
hen syn
gar den</w>
etter navn</w>
ell er
el o
bal an
as ser</w>
anony m</w>
Mis so
L ynet</w>
Katr ine</w>
K om
Job ber</w>
Jac e</w>
J E
Eli as</w>
B or</w>
5 0000</w>
yr ke
vilk år</w>
ved kommende</w>
ut akk
på minn
p I
man net</w>
ku p</w>
kjør selen</w>
i c</w>
he der
gen es</w>
g ler</w>
ch y</w>
c al</w>
blan ke</w>
bl on
avsky elig</w>
arran gere</w>
V og
Ro dri
P h
Mar vin</w>
F N</w>
Elean or</w>
Ala ska</w>
voldtek ts
verk sted</w>
tju kken</w>
tak kars</w>
spa re
skj ørt</w>
sjal u
på går</w>
prø vel
pro fet
pas sordet</w>
p annen</w>
nø dig</w>
ne te</w>
l ju
kyl lingen</w>
in stall
he v</w>
he dre</w>
hanksgi ving</w>
funk sjon</w>
fotogra f</w>
for sørge</w>
fi skene</w>
fi re
den het</w>
de mo
budsj ettet</w>
b rei
at o
Te am</w>
Squ are</w>
S ir
Ros a</w>
Lo w
K -
H å
Da y</w>
Bur ro
Be ste
5 3</w>
x ie</w>
vold ta</w>
vol delige</w>
vog nene</w>
ti sser</w>
te st
syk le</w>
sp lan</w>
snu blet</w>
skra p
pensjon ert</w>
orden tlige</w>
inn holdet</w>
idi ot
hel let</w>
gru ven</w>
gru pp
fød sel</w>
for vek
erstat tet</w>
eg yp
e der</w>
dyr ke</w>
dros jen</w>
do mmelig</w>
bjør ner</w>
bil ligere</w>
anstr eng
ang st</w>
Sta te</w>
S eks</w>
O la
Micha els</w>
Kenn eth</w>
I zzy</w>
Con stan
Bir gitte</w>
ve kkende</w>
u stabil</w>
troll mann</w>
smer tene</w>
si li
se il</w>
mor sommere</w>
milli ard</w>
man -
la tet</w>
kver ke</w>
kon stru
inspir ert</w>
hav ne
gener atoren</w>
gang ster</w>
fyl lik</w>
dy tter</w>
d annet</w>
bren ne
bl ond</w>
al arm
Stephan ie</w>
Q a
PR -
Nat ur
Le c
Ju les</w>
Ar chie</w>
3 ,
-T ar</w>
ut gangen</w>
stri ds
skin ke</w>
ser ier</w>
pluk k</w>
opp gra
mar shal</w>
lig ne</w>
ler i</w>
lei a</w>
l følge</w>
kl or
k ers</w>
for langer</w>
for høre</w>
eng elen</w>
dr ikke
diskut erte</w>
bi ot
baga sje</w>
ari o</w>
S ur
S ing
P is
Mont gom
Ir on</w>
Gj erne</w>
Ann ika</w>
0 9
undersøk elser</w>
tor na
stø ter</w>
stemp let</w>
sta mme</w>
skyl da</w>
pu mpe</w>
over sikt</w>
opplær ing</w>
om sider</w>
nasjon ale</w>
lær er
le dige</w>
la t
gl ed</w>
forel dr
fe ige</w>
Sve its</w>
O L</w>
Kon gen</w>
C el
Ben son</w>
år den</w>
van er</w>
svar lig</w>
ski f
pi g
om sorg</w>
og en
no nn
mot ellet</w>
misunn elig</w>
ly sten</w>
kk ede</w>
kan ter</w>
kal kun
informan t</w>
fri dde</w>
for gif
enk el
en na</w>
du sten</w>
dr ingene</w>
de k
dag sk
c ko
bån dene</w>
ber g
ba d
arrang ert</w>
adop tert</w>
a y
P ope</w>
O M</w>
L ot
G len</w>
Fanta stisk</w>
F ul
A ra
5 .</w>
-F ør
åpen bar
ut al
u sel
troll dom</w>
ter ier</w>
t ha
stø vet</w>
son -
sm ell</w>
skur kene</w>
skje maet</w>
ra seri</w>
pla ta</w>
person al
n n</w>
li ber
kød den</w>
kvel der</w>
kon dom</w>
kne kt</w>
hev n
h man</w>
gal e
frek vens</w>
fransk mennene</w>
fiend tlige</w>
ff el
fe drel
du mper</w>
distra her
bøl gene</w>
bo erne</w>
bi er</w>
besvi mte</w>
V ul
Sop hia</w>
H av
ø m
vå get</w>
uunngå elig</w>
u enige</w>
tyng de
ty pene</w>
tr y</w>
ta y</w>
sæ d</w>
syn ke</w>
strø mmer</w>
sta bilt</w>
s qu
roman tiske</w>
rom pa</w>
ra sjonen</w>
på kjørt</w>
p ling</w>
overbe viste</w>
or ke
n el
mo uth</w>
kle et</w>
k uken</w>
hob by</w>
hjem løs</w>
ha rt</w>
gre ss
gravi de</w>
form elt</w>
for føl
di ri
di al
by tt</w>
Syn s</w>
Pow ell</w>
Philli ps</w>
M ills</w>
Loren zo</w>
K G
El la</w>
Dje velen</w>
Ø r
yr er</w>
ve is
tel se
stre kke</w>
str engt</w>
spaser tur</w>
smel tet</w>
s burg</w>
musk el
lå net</w>
lykk eligere</w>
kra f
hom oseksu
gjennom brudd</w>
for eta
fe bru
ep le</w>
bom bet</w>
ber y
at ferd</w>
a bor
Yo u
Pentag on</w>
P C
IN G
I ig
H vite</w>
Be st</w>
Andre ws</w>
-K or
usal em</w>
sti v
spe d
skjor ter</w>
rid dere</w>
ri son</w>
pas serte</w>
p c
nabola g</w>
mis bruker</w>
man ager</w>
maj oren</w>
lo vens</w>
la ve</w>
hv al
gru ve</w>
go t</w>
for handlingene</w>
fer gen</w>
er ie</w>
del tar</w>
brit ann
b u</w>
b je
as y</w>
arro gant</w>
V ær
T ristan</w>
S ten
Ri p</w>
Mor gan
L and
H ey</w>
Geor g</w>
C isco</w>
- Gud</w>
tro skap</w>
t villingene</w>
sle mt</w>
sla drer</w>
risik erte</w>
re v
re kogno
re gj
pre mien</w>
og -
m inn</w>
len ket</w>
lek re</w>
fr at
for mul
eta sjer</w>
erob re</w>
eri ene</w>
ela get</w>
bu e</w>
ap otek
al o</w>
al es</w>
Ver non</w>
Mar nie</w>
Lor i</w>
Jø sses</w>
H ugh</w>
E rik
C at</w>
Bur de</w>
Atlan tic</w>
Ap ollo</w>
å sted</w>
til brakt</w>
str å</w>
sak t</w>
rulle stol</w>
men de</w>
mar s
la -
inn a</w>
in as</w>
han skene</w>
for uren
disi pl
dem pe</w>
del tok</w>
bry ster</w>
bak t</w>
bak hold</w>
a er
Y anke
Ve st
Sa y
Ju st
Hanni bal</w>
Gra y</w>
Ban ks</w>
0 g</w>
vok te</w>
vesen tlig</w>
vare bilen</w>
ul ti
temp era
stre s
stipen d</w>
ste d
smerte fullt</w>
rot ete</w>
o is</w>
nor ske</w>
nasjon al</w>
min er</w>
lob byen</w>
leg en
l te</w>
kur set</w>
kli entene</w>
ki o
kak a</w>
jul a</w>
inn satt</w>
industri en</w>
for fra</w>
f u</w>
es ar</w>
en o</w>
eg utt</w>
dumm este</w>
de re
bry dd</w>
beun dret</w>
besø kende</w>
ap ac
a ble</w>
Wo ody</w>
Wo o
Stor britann
Shakespe are</w>
Pit ts
Mo ore</w>
H I
Color ado</w>
Brad ley</w>
ør n</w>
ø sla
x en</w>
utgang spunktet</w>
ty ven</w>
tak tisk</w>
strö m</w>
sjel dent</w>
ser ende</w>
sel veste</w>
se ire</w>
sal ongen</w>
p ell</w>
opptre den</w>
ob i</w>
nega tivt</w>
minut tene</w>
met ers</w>
hin t</w>
hal vannen</w>
grunn s
forfal sket</w>
f y</w>
eta min</w>
ekor n</w>
e y
detal j
an kommet</w>
a del
Sy dney</w>
Son ja</w>
S om
Phoeni x</w>
Paw ne
Me yer</w>
Harri et</w>
F loyd</w>
Dani elle</w>
vir kninger</w>
utal lige</w>
u dødelig</w>
te maet</w>
rør ene</w>
pl enen</w>
over betjent</w>
mis bruk</w>
løp ende</w>
kunst ner
kri tikk</w>
konvol utten</w>
kon fiden
komm i
je f</w>
imm i
hel gene</w>
gener elt</w>
f å
depri merende</w>
bi le
P eg
Hamm ond</w>
H unt</w>
D ap
D J</w>
A N</w>
. 0
-S ier</w>
- W
yg g</w>
trø ste</w>
trover dig</w>
telefon nummer</w>
små let</w>
sheri ff
ni esen</w>
løn nen</w>
kr ing
konkur ren
kje misk</w>
instruk sjoner</w>
in j
fr akte</w>
for over</w>
fly plass</w>
fa ir</w>
The o</w>
Mac k</w>
M ye</w>
F ow
D ER</w>
1, 5</w>
0 0-tallet</w>
-Gra tulerer</w>
ö r</w>
år a</w>
uten fra</w>
ut mat
tatover ingen</w>
t ett
son er</w>
slur k</w>
sei er
san g
s het</w>
revolu sjon</w>
reg ninger</w>
pu ben</w>
p ute</w>
overvel dende</w>
ne sse
narkotik a
mu m</w>
mirak ler</w>
mek tigste</w>
m b
kjæle dyr</w>
in spirasjon</w>
hek sa</w>
ge vis</w>
frem ragende</w>
fram skritt</w>
fla te</w>
fer sken</w>
etter søkt</w>
chi ps</w>
ch il
bo mmer</w>
bo ere</w>
ben å
bedri ft</w>
as se</w>
ap paratet</w>
an y</w>
Vat ikan
V ER
N -
Lar sen</w>
L es</w>
Eli jah</w>
Car l
C y
Be at
-S ikkert</w>
- Aldri</w>
var mer</w>
utelu kket</w>
te pper</w>
t yr</w>
struk tur</w>
sper re</w>
ser ingen</w>
sen ket</w>
ry stet</w>
par d</w>
pa usen</w>
ku pp</w>
komment arer</w>
ka st
ir a</w>
hen sikter</w>
gu ide</w>
gam ling</w>
fre kt</w>
febru ar</w>
et re</w>
er for</w>
el ds</w>
del ing</w>
da tene</w>
Has san</w>
Før st</w>
Emp ire</w>
D ig
Bo o</w>
ver d
vek st</w>
ve de</w>
unn gått</w>
ul vene</w>
t ina</w>
spra y</w>
sla dre</w>
sjel dne</w>
sing le</w>
sig natur</w>
reg ningene</w>
produk sjon</w>
politi betjent</w>
par tner
mu m
m ĺ</w>
lin s</w>
legg ing</w>
kan on
inklu derer</w>
forstyrr elser</w>
for jeg</w>
for følge</w>
for fedre</w>
fla mme</w>
fe ssor</w>
er n</w>
ens lig</w>
en ne</w>
S t</w>
Qu a
Or son</w>
O ver</w>
Lyn n</w>
C os
B rot
Andre as</w>
Å R</w>
v ett
v -
terrori stene</w>
søkna den</w>
symptom ene</w>
skuff else</w>
skri ftene</w>
rom vesen
rom skip</w>
pro vin
p akk
om an</w>
ol ene</w>
mul dvar
lø sne</w>
han gar
fr akk</w>
fabel aktig</w>
eksper ter</w>
disk ré</w>
di ot</w>
detek ti
be æret</w>
ba star
ak tisk</w>
ag ra
W ien</w>
Pe ar
Jer usalem</w>
I s</w>
Franken stein</w>
E -
App le</w>
9 45</w>
y on</w>
vold som</w>
var slet</w>
ut sag
us s
sm akte</w>
sjan sene</w>
sen si
sand wich</w>
rekla men</w>
reha bili
rak etten</w>
presse konferanse</w>
peng a</w>
møn steret</w>
midde let</w>
lek se</w>
kl yn
kir ka</w>
ka fé</w>
influen sa</w>
hel lig
fr ag
foren te</w>
fa en
dø trene</w>
deba tten</w>
beha ger</w>
barn ets</w>
ar o</w>
Y u
Shel by</w>
S ad
Matthe ws</w>
Gr øn
Eri ca</w>
Broad way</w>
Beet hoven</w>
Am ster
vå tt</w>
ter ie</w>
tann bør
syn dr
sl akter</w>
sk -
s okker</w>
rå de</w>
reser va
mi tter
la dd</w>
kre ft
in t
hove dr
ho a</w>
helsik es</w>
frigj øre</w>
fra vær</w>
festi valen</w>
et on</w>
dil la
br unt</w>
beløn ningen</w>
an tatt</w>
Sol omon</w>
Re e
Pic ard</w>
Pat ty</w>
Kat h
Cha ko
B AR</w>
-K on
ødelegg else</w>
vol u
sp anske</w>
skor t</w>
sek sjon</w>
ra mp
prostitu erte</w>
parker ings
p ille</w>
ol ler</w>
nysgjer rig
n ell</w>
mag as
lu a</w>
kom sten</w>
ko der</w>
j unior</w>
ik i</w>
gu mmi
for byr</w>
fi li
far gede</w>
evig heter</w>
djevel ens</w>
d ningene</w>
com puter</w>
byg ninger</w>
betal ingen</w>
ar ch</w>
al minn
Sid ney</w>
Ro ose
P rue</w>
Mari o</w>
Krist i</w>
C ross</w>
Bjør n</w>
. 45</w>
-T y
-R o</w>
- ble</w>
øn sk</w>
ø len</w>
ær ingen</w>
ver ker
v ette</w>
ul ikt</w>
tåp elige</w>
ti ss</w>
ti mes</w>
tak tikk</w>
smi gret</w>
skrif tlig</w>
sk ikk</w>
sak søker</w>
potensi al</w>
offer ets</w>
o si
ma ter</w>
kali ber</w>
kak ene</w>
jø dene</w>
ju ana</w>
ing redi
god kjenne</w>
gal skapen</w>
fly gende</w>
eksi stert</w>
bel e
beg eret</w>
ator ene</w>
ap ek
ang o</w>
S in
S ikker
P y
Jes sie</w>
G lo
G an
De m
Benedi ct</w>
Amer ikan
-H ar
- etter</w>
y et</w>
van dret</w>
val gene</w>
toal ett
tid slin
svel get</w>
sk ot
mm ers</w>
mis ser</w>
m ingen</w>
lo way</w>
håndjer nene</w>
fre ds
fien dene</w>
etter navnet</w>
dan ske</w>
cra ck</w>
blø dde</w>
ag u
O k
Montgom ery</w>
Ca ge</w>
C hur
Bar row</w>
A T</w>
6 8</w>
verdens rommet</w>
ven ti
va er</w>
uten lands</w>
suspen dert</w>
spli tter</w>
skrubb sulten</w>
skap ningen</w>
py rami
psyk isk</w>
ot h</w>
nu m</w>
meksik ansk</w>
kk ere</w>
kan en</w>
jeg eren</w>
i tal</w>
grus om
g este</w>
eng et</w>
de lik
da -
car dassi
bry teren</w>
bo dy</w>
an trekk</w>
aksep tert</w>
Ve sten</w>
S U
M å
Lu ft
Hu sk</w>
Ez ra</w>
vak rere</w>
utry ddet</w>
utenland ske</w>
u mmer</w>
til trekker</w>
ter inger</w>
t am
sver ge</w>
stry ke</w>
skr oget</w>
sentr al
rettfer digheten</w>
prøvel øsla
pp y</w>
p ek
o u</w>
mi t</w>
mate mat
kun den</w>
komi t
imp eri
il and</w>
hin sides</w>
gr ende</w>
go deste</w>
gen er</w>
foreldrel øse</w>
fer den</w>
f Ã</w>
eg g
W illy</w>
Sy nes</w>
Shel ly</w>
On kel</w>
O -
Lou isi
J en</w>
Gu er
E m</w>
Den ver</w>
Da g</w>
D ron
Ben net</w>
til kalle</w>
sp inn</w>
sam tykke</w>
re b
p ut
over driver</w>
oven for</w>
ot o</w>
or me
opp fylle</w>
og le</w>
mann folk</w>
legen dar
l øytn
konger iket</w>
ko lo
i es</w>
gå te</w>
for ene</w>
dyre hagen</w>
a tiske</w>
Saw yer</w>
S E</w>
O slo</w>
Neva da</w>
-A frika</w>
år saker</w>
w ski</w>
tak ke
sykeplei eren</w>
sv o
stit uttet</w>
spy d</w>
smar teste</w>
sensor ene</w>
satelli tt
rov dyr</w>
person ell</w>
om bestemte</w>
ok se</w>
nu mmer
nett verket</w>
manipul ere</w>
lommet ør
kk ert</w>
kampan je</w>
insek ter</w>
håndled det</w>
hje I
erstat ter</w>
eng lene</w>
eli v</w>
d ler</w>
beste venn</w>
av skum</w>
an as</w>
W el
Vi olet</w>
T T</w>
S kr
Nei da</w>
Mid tø
Ma uri
Li zzie</w>
Joy ce</w>
J ed</w>
vog ner</w>
venn s</w>
va s</w>
va gina</w>
un ike</w>
tran s
til sto</w>
sp hen
skyg gene</w>
skry te</w>
sjokk erende</w>
sel skapene</w>
ri ster</w>
pre ster</w>
per misjon</w>
over vinne</w>
on es</w>
neder st</w>
ne -
n ers</w>
mobil telefon</w>
ma ur</w>
ma se</w>
kul l
kjøret ur</w>
jur y
inter nett</w>
il li
hu man
histori ens</w>
gr a</w>
elef ant</w>
di s
cro ft</w>
anti biot
am ok</w>
Ser ena</w>
Na z
J ord
Hy de</w>
C ass</w>
AT S</w>
6 3</w>
ære s
vri ent</w>
vik let</w>
ver se</w>
tør t</w>
tran ge</w>
tortur ert</w>
terror isme</w>
teg ning</w>
sve kket</w>
store bror</w>
spr at</w>
sm ok
sku IIe</w>
skra ft</w>
ski ve</w>
sju ende</w>
rif le</w>
qu ez</w>
på gripe</w>
prose ss</w>
privat livet</w>
over føre</w>
områ dene</w>
mø kka
moti vet</w>
lede tråd</w>
he ftig</w>
gri d</w>
frik jent</w>
elektr on
distrah ert</w>
bry tes</w>
Tok yo</w>
Sofi a</w>
Osw ald</w>
Li zzy</w>
K han</w>
Hay es</w>
H jer
Gre y</w>
E tt</w>
D re</w>
Bur k
9 8</w>
6 7</w>
syn de
ste de
so fa</w>
rappor tert</w>
psykiatr isk</w>
oppr øret</w>
nå l</w>
lik het</w>
kri se
kam u
kal kun</w>
k rets</w>
jordskjel v</w>
gla s
full makt</w>
for sprang</w>
du sje</w>
disk ret</w>
demon str
bel la</w>
ban kene</w>
b året</w>
O ri
G ale</w>
Føl g</w>
Fin ch</w>
Ca dilla
tøy er</w>
sli ppes</w>
skul der</w>
sku ffer</w>
skrive bord</w>
sjon ær</w>
sammen brudd</w>
re det</w>
produk tet</w>
over lat</w>
od dsen</w>
n ull
mis handlet</w>
minut ters</w>
le man</w>
la ser
la mmet</w>
konkur r
knap per</w>
kli ppen</w>
k ut
i an</w>
hv a
for lik</w>
dyre bare</w>
bre kke</w>
ble kk
bl ond
be brei
W ag
Ro man
R ing
R iker</w>
N ot
Dor is</w>
CT U</w>
C lin
Amster dam</w>
A V
9 00</w>
-Prø v</w>
vær elset</w>
veran daen</w>
val e</w>
utvik lingen</w>
ung dommene</w>
under visning</w>
tr å</w>
th en</w>
spøk elset</w>
sen sen</w>
respek tert</w>
pun kter</w>
p ønsker</w>
mistenk som</w>
min nes</w>
klub ber</w>
kle s
kji pt</w>
kidnap pe</w>
inn sikt</w>
en delige</w>
elsker inne</w>
e -</w>
bøl gen</w>
bit ene</w>
bar ri
bar nas</w>
an setter</w>
ambi si
ag an</w>
Sno w</w>
Pho ebe</w>
Pat ter
Misso uri</w>
I g
FB l</w>
De x</w>
C en
Be cca</w>
Ag nes</w>
- mer</w>
war p</w>
utfor dringen</w>
tortur ere</w>
sy dd</w>
sm elte</w>
set ningen</w>
ri v</w>
pla tene</w>
pla g
over grep</w>
opp trer</w>
oper ert</w>
nær ing</w>
kn ingene</w>
k veg
invester ing</w>
ic h</w>
h ing
gul t</w>
fotogra fer
et -
es si
distri bu
c us</w>
arkit ek
Tow er</w>
Sha wn</w>
Nu cky</w>
Mc N
Cassi e</w>
Bry an</w>
Be ar</w>
- In
whi skey</w>
vid underlige</w>
valg kampen</w>
ut styrt</w>
tøff ere</w>
tr om</w>
tilbake stående</w>
spy tter</w>
slekt ning</w>
sl ikker</w>
sign erte</w>
sel g</w>
san gene</w>
s sel
s oper</w>
red des</w>
mor derne</w>
man øver</w>
la tin</w>
kombin asjon</w>
ko k</w>
kjen dis</w>
kar antene</w>
hul lene</w>
hu gget</w>
her etter</w>
hengi ven
fre mad</w>
eksperi mentet</w>
dri v</w>
buk se</w>
bl y</w>
be skutt</w>
ba re
ba bord</w>
an ledningen</w>
Sal em</w>
S asha</w>
R O
Poli ti
Hal ey</w>
Ha st
H je
Dre w</w>
Cam el
Bi an
7 6</w>
ån delig</w>
tvil te</w>
turi ster</w>
tids nok</w>
ti ende</w>
spion ere</w>
sjef er</w>
set e
rø mmen</w>
på stå</w>
pus set</w>
on s
num rene</w>
invest ere</w>
ik o</w>
i hvertfall</w>
forvir ring</w>
for standen</w>
feil grep</w>
data basen</w>
cke tt</w>
cc i</w>
bø y</w>
bei st</w>
be skyl
b oss</w>
angri p</w>
We aver</w>
W ally</w>
Stan ford</w>
Jan ice</w>
Dap hne</w>
Bre w
-U t</w>
vak ta</w>
ur s</w>
tø mt</w>
to mmelen</w>
ti ders</w>
te m
syl tet
spy ttet</w>
spesifik t</w>
skar pt</w>
ogra fi</w>
la pper</w>
kri sen</w>
kjønn s
innbil ler</w>
gr o</w>
gjer ninger</w>
f fa
etter ly
en sen</w>
c ken</w>
br ått</w>
ban er</w>
av viser</w>
T ul
Suz anne</w>
Sla de</w>
Sa ga</w>
N ord</w>
N ok</w>
McCo y</w>
Le x</w>
H ver</w>
H all
Gal lag
G ret
G inger</w>
Du de</w>
De c
DE A</w>
Colombi a</w>
Chako tay</w>
A C
9 .</w>
1 500</w>
-Sp ør</w>
ø let</w>
yr et</w>
uni tet</w>
ung dom
svul st</w>
stat ens</w>
son et</w>
ro et</w>
produk sjonen</w>
pot et</w>
over satt</w>
organ er</w>
opp løsning</w>
m el</w>
kun stig</w>
j us</w>
inn er
inf ek
hjernery stelse</w>
ha gle</w>
fløy en</w>
fis ere</w>
firma er</w>
bån n</w>
ber ørt</w>
b re</w>
T uller</w>
T ig
Stan s</w>
R øde</w>
P å
Mir anda</w>
Gar d
D og</w>
sen i
ret ning
programm ert</w>
pe isen</w>
om et
ny telse</w>
no tatene</w>
n in
mu sa</w>
motor er</w>
meld ingene</w>
lekka sje</w>
kjøret øyet</w>
inn fødte</w>
fr k</w>
fortap te</w>
elektri sitet</w>
bryllups reise</w>
bok se</w>
ar resten</w>
a a
W er
V E
Sc yl
Pe dro</w>
Paul a</w>
Nor th
Jen sen</w>
Jac qu
F itz</w>
-K jør</w>
år sdagen</w>
zz a</w>
vit am
uni onen</w>
u sed
tr eg</w>
til strekkelig</w>
ret ninger</w>
restaur anter</w>
pre mie</w>
pik ene</w>
peanø tt
ori an</w>
offisi ell</w>
ob jekt</w>
mø kka</w>
meg ler</w>
mar in
lo mme</w>
komp on
in fisert</w>
gru ppe
fluk ten</w>
fl ue</w>
eta ten</w>
elsk ere</w>
doll ar
br ikke</w>
ann i</w>
a w
Pak istan</w>
O w
Lau rie</w>
Gir l</w>
Carol ina</w>
ube ha
u klart</w>
terape ut</w>
sver gelse</w>
små penger</w>
sk inne</w>
sjener øs</w>
san k</w>
rom vesen</w>
person ene</w>
p uttet</w>
mun tre</w>
lo kke
krea tiv</w>
kra v
kjø lig</w>
kir se
kal d
inn gang</w>
h mm</w>
fi stik
bak erst</w>
av vise</w>
av skjed</w>
analy sere</w>
ak sjene</w>
Univer si
S tre
